memory_initialization_radix=16;
memory_initialization_vector=E0C4 F9B6 F14B 0E67 0B41 22A5 ECA6 A13C F0FF 9FF0 DCB3 85FA 04D6 44AB 2264 47EF 3E7B 3611 D253 D3B5 AA2A 8C24 BF7D FB95 DE4B 108C C910 1E42 38E0 CDAC 2557 3CD4 332A 8D83 95DE E51A 7F56 44B3 CA5E 301E 3244 0806 28C4 A390 FA30 BA47 B51D FDC5 94CB D518 0F47 62FF 0573 15F7 6E03 6103 7839 0160 9A97 A756 B66E 4EAC 3416 5DAE F8F9 731B CA6A 7165 4AAA 8CD4 F8EC 7FA1 A529 9E37 15F6 EE73 8578 E4F8 ED6B 7022 EDEC 84E7 CDE0 A824 D116 9E6D 7FB1 1A5F 71C8 2AB8 DA76 08D6 09C8 89DE CA6E ACBE F4CD 2FD9 3C37 E1A5 744D F036 30C9 332D A913 3765 F16D C317 524C 75B2 29DA C73A 3B98 2CB6 EEC3 FF54 174C C737 2AEA 3E02 6C38 DDC7 98E5 14ED 871B 3D9D 7CE6 38B4 9EA8 0B36 E54F D920 1846 D00E 70F3 17C3 BD9B 0EC2 D379 6480 C6B0 C594 4C3F 1B5F BB1E 9C9A 20AB 89DD 1B6B 0844 015D A116 F7A8 FD9E 9FB9 56CF D29C 4E3C 727E F5B7 2AEA 8E12 0500 F41C 5B0E DB0B FCE1 07AC 737F 79F8 7C3A 3700 698F 02C3 C701 D586 C986 C672 C2F7 149C B861 4189 1B06 ABCB 3D66 4A94 BB91 B673 848E F026 FC20 EC3E 1D9A FD19 637E 4E59 CE2B 1A4C 46C3 BCCB C52C 318E 5A74 1DCF ECCB 64D2 0DDC 13F4 551E C416 B311 8709 A599 570D D3BD 096C 8A18 A27F E760 E44C 948C 0A3D 4ADC 9FB6 AF0F 2CFA 0B8B C38B 2C40 8A24 405E BDB0 808B 8D5A FC46 F99B FD77 04D6 E24B D70A 9BE1 2DF5 2189 EF09 E03A 4770 1D50 C2BA 35A8 DF00 D95F 0631 6A07 72A2 15AD 0F6F CED9 D464 7A79 638D CA6F 296A 6040 40EE D0DA 9496 3BB3 F53B 584C ACB4 713A 8675 789D 5F60 1398 32B4 A19D 62C2 B03D 7BD9 24AA 1D18 D812 296A D063 5C47 9D3C F88A 22CA 0BEB 2617 2B7F B575 C44D BB6F 1A0B 09C3 715B E41B 34BC B8F8 258E F7CF 789D 1B22 C4A0 0D8B 7099 67D2 87D4 3CD1 DDAF B3A9 D3A0 51B6 4638 00FA FD58 6CCF D330 622F 84F2 06A3 8679 F325 C302 81E6 3B05 BC34 71D0 435B F354 FB73 3845 5E82 D9B3 4180 8E07 DA75 78F5 B809 3340 B685 112E CEB5 A451 C47D 81E9 DD93 E4C5 DA3F 81AE 07DF 1A1F 0909 42FE 2249 C2A3 8A12 9D72 4C16 C4B0 7388 A274 A2B1 E436 AF6A 8C4C 9C08 E130 5AE3 A18B F230 139F BCF0 D03E D72B E569 D307 08C2 E613 0359 3F1D E8C8 D4AF 48B1 3253 F75B EF6D 0D39 71CF B2E1 D5BD DCAD 429E 0779 DBD6 3354 00D1 A6F3 B1E5 47D1 129E 70D0 3D00 D1F0 452F 6851 E612 C7CC BE99 6C4E 019E 2BBA BB6E 463F F1FE 8C00 3E81 1558 7BF8 DC39 D426 0668 E1AE C9B8 EC1C C4B8 987D FF4C 77D3 49E5 7849 0227 8745 2D7B 009B CDD5 9748 31E8 F739 9FA0 747F 3297 8799 0AD7 7851 A724 37F7 CF8B AE93 BEF1 C47C CEDE 5FAF 4502 6B2F 00C5 5A5B 80B0 26B6 D137 1913 F322 0709 F549 B18D 99FD C13C 1050 C2C3 01DC 21BF E5B5 5E50 6B67 8AAA C9AC 8248 2AA4 6D11 D748 80A6 C0CA 1D59 7C95 510A 2762 DBB9 5083 AA30 6746 4EF7 6C8F 2A18 4C60 44C1 6BBD A15B 998F D9B7 E2E7 DCAE 8CCF BE81 BA63 A540 7174 85E8 982A 14B6 1ED0 25FC 83C6 3C07 EA2B C006 C466 A7E7 4C1F 5F2F 4C8F 7B52 1407 118D 071C 9ADD 2123 433B 3CD4 D399 8F04 D007 ACBC 07FD 6BF8 F062 E0C8 0334 5055 9B6E B20C 1BC0 BF79 45DD 6B3A 35C2 CA1C 1D10 A34E 651C 161C 69BB 04F9 4472 B9AA 0052 8D49 FEE1 D550 450F 524A 0838 9B19 A9FE 5C44 6747 EA87 0EB8 F1D0 39F8 80A0 0860 C63D DA1D 14FB F814 3A7B 6C50 3808 C9A7 8BB6 5D6F 651D D0CA 6759 5083 4E76 8194 D147 1A58 B16D 0CFA 6A92 0A4A 4EF6 8B86 7541 92B9 694E 846D 1821 B4BD 5F0B 9DD4 715B AAA1 7927 A6B7 6B5A 1953 09DB 4F73 A65B 112A 9B1A 49F6 3204 C83F DBA8 1986 854F 895A 02B5 40E7 5024 4242 FE3C 9186 C12A EA5B FA78 3A1C DB1D 9D47 516B 3A37 7F18 62F6 CF4F 588A E511 53A4 26C0 8972 0032 3968 60DC 9B17 B68E E4DC 9AF5 30D3 B06D D5E5 F607 5FDD F085 F297 756E 9E93 55FA 0E61 FA08 20F7 60E8 482E 9A17 F765 A196 D841 03B6 5ED6 085C D9F1 C993 356F 47B4 D2A3 044F 553E 3A31 AECF 0D06 0EE5 3846 C8B9 12B6 9A42 38DC DD3E E3C4 B065 A163 20F9 25E3 BEB1 F596 20C9 5C53 8A0B D96B 7B77 79C5 111C 0503 D316 2661 2957 D966 4B54 D473 8B72 96FA 73FC F0D1 98C3 4455 BAEC 55C4 33C2 2279 C982 2C92 F895 1154 660C C0D2 0E63 EEC2 2FA7 EBE9 7397 D933 BCE8 1A82 0480 4EDE 885A 2049 11BA C8ED B742 949D 77F9 1B2E 1DDF 3629 CC5C 75D1 C50D 9D61 433A 39A9 3DD9 3FB0 A5DE 7727 E3F8 B04F FE71 44CA 386E EB4B 4B57 F597 E12C 6E95 6D36 EF9F 9BCF 03FF 9372 AEB8 01E5 DB78 4730 BC67 A023 4B16 E21A B58D 7DBE 97B2 8E6C 5164 801C 17B1 78C6 D51A 80DC E7A1 214E 14E8 CC24 BEEF 8625 0427 DF71 EE94 DD30 37CE 1A8A 6D4A BC51 4C8F 65DC C15D C3E5 00A6 D17A A3EF CF5C 16C0 7DFB 19C6 E9A2 07B8 01AF 413E D54C 19CC 861F 12B4 5E4E D26E 4388 8332 27BB 59C2 1822 9FFC 83D0 1B8D 237C C1A5 5110 BCD3 5932 4491 812B C7B2 3261 D94A 084B 5F23 AD20 C975 1533 ECDA 9039 B9BA 6468 CFDD 855F 0D5A 5644 B63B 2D8D F1A8 D609 D921 6E12 2F3E 191D 16BA 3A1B 3731 DA6A 1A4E 7141 87D9 0628 0048 C9F6 591A 61BB 014E 30E7 90BA ACF0 E728 F5BA 147C 9CEC BE8E 3B66 A637 E915 58E3 BEB7 FF14 9018 D73B 30E4 DE3E D32B 06CE 63DF EC3C 1F60 0311 3491 8622 06B5 440F 6169 DEDB 7146 3934 8A23 66B4 6D69 D30F CDF7 C2A5 F53C 224A 8AD1 CD6F E1DA E635 3FF2 CCD7 A5B5 5628 287A 870B E485 E0B7 1F39 3371 BBE8 4371 1DBD 2D2C BFD3 9A86 5B15 58FD DE8E 8E97 0C8C 8413 3286 70AF 9F47 DD8A 467D BBBE AC1D 40FD F798 4275 FC48 A699 582B 57E3 E459 8611 FCDB 4098 929B E337 D763 D08A 59A4 A8BD 0F34 0EB6 13A9 4C4A 6205 474D 2320 35F4 622D 90C7 5E20 F07C E544 9A9B 54AA 3507 C24B 9365 1EAD BB15 38FE D830 35D9 EB88 295E 3D23 3199 B4CC 7733 C9DB A54F CFDE 09BD 32B5 EA6D AA37 415E 646F B750 E215 7F89 9275 4ECD CC4C E2AC 3298 F9BB 0D43 97A7 BA9B 603C 65B6 5196 7DA9 2A72 B8D3 0CBF D778 057E 4E1A ADA1 7CA5 2CE2 1029 E46D DEE6 AEF6 58AD 662B DE58 F650 BB4A 40EE 688B 01E6 4D4E 2CE3 7C18 445F B8C4 E170 F222 A6BB 7740 6378 D33E 64E3 C417 E2F2 E7CA 7702 CE37 736E 02EC 88DD 0829 7C00 1B5A 27D1 A05C FC8C 99AF D41C DBEF E714 88A3 F8AF C52B 63C0 054A 65DA 595B 2852 8F4A A5FF 802C EA0E FE2D D38D 75A1 3908 5608 E77B 0375 84B7 4F32 B7C2 0B6F 6B10 B381 77B4 791C 895A 3DF3 0270 3B20 ACBF CD8E A837 5A00 03B5 99E3 CE2A 96C6 D2DE F9FB 0659 CE78 9C27 879B EB1A 9A11 A247 7B99 E05F CAF8 4C31 4E86 7422 8829 7BA9 FD62 994D 7983 32A3 EFF3 3E3C 2862 96DA FCCD EBCB CE3F 31A4 6C66 1694 B44C B24F 1669 588A B2DB 9AA4 3BD7 1FCB C0A4 8404 70FD F854 D7BD 2938 EE32 863A BF3A 4BCF 9D43 6A1B E9EA 7D25 BCD7 C86B A7E9 6C31 E09E A032 11B5 7529 343C DB3D A4B5 C24B E20B D74E 4531 AE0A A3EF 8B01 09CD 629F 5290 516D 6B07 A026 5F84 EFE9 09AF 7E16 B8E3 6497 4758 FD06 F4E3 0B18 5975 38D9 5846 0A50 6435 889D 0A74 8EC2 F5D3 F212 2423 CB99 30AE F6E7 24C0 FAF4 1727 827E C5F6 F17D 2642 1AEC E1C4 1967 D023 B0ED 7C1E 353E D947 2D3A FB30 CB40 4F7C 4C9C 751A A37A 2A9E 115E 23D1 56AA A40E 6A61 9186 7AFA 9FCE DD1B 357F 0072 860B 58EC AFB0 25A2 7C2A 1478 115F 5602 C4F0 9132 6E5A 9729 4EC5 1D2E F55C 32E4 C6DD E0EC B785 D875 5C23 5848 699E 7753 A202 D308 C251 433B AB88 B7EB E169 83B0 8BE6 B139 DDFC 9116 789D EDF6 12B2 DF77 7CB5 AFB2 9A40 3D3B 0C82 01FD BF39 D472 08C5 FE65 EDC3 AD9A FC38 9A72 48C2 BEED 5429 CBFC E64F A775 6A8A C3CA 7A8D E524 DF2E 454C 10E0 7F89 6485 DBDC 679C 74A3 AD87 D881 2746 F724 3C25 5594 17E2 52CA 1F17 3553 609F C133 E790 8F6E 35B3 8F6E CAED BC5E FEE7 D474 9F93 CCEE 2F78 1BE5 4FBF 8851 3534 533B 2E8E 61D2 0775 AF2E C102 E01F 0A7B 1C22 6F16 C606 ED52 8415 BD1C DE73 AB0B B6C5 9F39 80A9 D4CB 6C4B 104D A801 98DC 34FD 020F F5C1 B67E 8ACB C809 6CFE F708 7C81 0B30 CAD8 9EF9 C647 F1F6 48EA 25DD A24B 65E3 2F3F 208C 9932 E5A8 CBE5 2078 4D16 FFE0 1602 370F 0A63 9CA4 D2D0 453D 8B7C B5EB 2C70 2A21 FE78 EB18 7082 BADD BA97 5B9D 5003 E8A4 7192 0BC5 CDCD 689E D669 3D80 5B7C 0E31 E502 5A09 C48D EEEF 42B4 1DE6 67E6 874A 1B45 E329 B5EF 330E 228C D0D6 6EC5 3083 583E 54BF 5FAB FE20 1705 77E9 3BDA 4662 A3EA B6A4 63A9 BDE0 6B7E 9C43 BBEE F5B5 D7A9 441A 59DF 5318 D4CB 8DB3 3A20 8CD5 2D27 F12C 4270 316A 5ABB 27CF 467D 7E77 5844 FAF3 E990 725D 975D 8B5F 0BD5 C3A2 22AF 6A85 CB6A E8D1 CE20 AC37 7E6D D3BB 2173 AE3E 93AE 576F EA80 95AD 7203 7DDB 94B5 EE47 200E BBDD D62E 18F2 32B5 C0B7 C7C7 228B 90AE 0AA1 69C1 D6A5 6969 D63F C941 EB05 89F8 5001 AAF0 4069 D76E 8E45 A1DD 0FD9 A700 C293 B711 0DC9 C996 7791 A4A6 82A9 6D58 1FDB 511B 344C 700A 4B80 E8E4 7DA7 413B 3243 F9E9 12BA 2CAD D022 4066 EE99 DE07 FF42 5B77 BA45 623E 0151 AC0E 0144 C940 D1C2 D42E 43D3 6F3B C197 5F02 F396 4606 F9D1 4606 9631 238A E93E 1794 A6BA A5E4 6CD3 4008 7B88 9C06 E463 8258 6858 0200 58AF B299 0117 63CD A0BF 585F 3495 547C DEF2 4D0E 25DE F8D0 B17E D3C9 7CF8 7274 1077 32CA C177 59B9 68A1 AD52 1C89 9B57 7B1C DEFE 4BA0 C3CD 418E BE7A A392 1E6A B73F A26F 1A50 F5C8 F06A B964 B821 9CE6 5298 C905 DCD1 3AEF 7FCD 6697 61FB 1E05 FF4C 6229 BDA9 95F5 5472 7647 FE4E 7D75 73BE 5FC1 4085 4763 BEEC 7484 2286 3EFF 7229 8F62 F6C3 61CE 298A ED7E BB4C 1312 EC74 6F93 D0D8 2D30 61A9 B1C1 B9C8 9B7D F23C 08D9 7EC3 7EF4 32EF E617 15B4 61D4 C64C 77B5 0087 5902 D3CF A9CD E4C3 4E25 2EBA 8E76 B40E 612A 0500 87E9 15C1 BF06 D94F 3296 0FE4 71C8 D87E 97C4 C8EF 7F41 BAA3 F81C 96E2 DD07 E140 A98C 14E2 FFB7 004C 93B3 8CF9 25EA 7470 2246 8EAC E599 5CB6 5A0A 4E55 2200 7D97 1A66 5980 3729 E55B B1D0 5F72 8884 D791 38A2 41FF ED7B 121E 5288 D937 3B00 8A72 168F 2D85 1508 2C8B 43C5 0399 70A3 059E AC78 C026 28F3 DD75 BAA9 C88A AB0F F9AE 7EAB 18F1 FB57 32BF E9CA 06C9 388E 8924 70C8 771E F0BD 6831 C58B C259 60A5 A397 A39B 7551 A03C 9156 15BD B358 FD49 986E CAEE 9096 AF74 43E3 163B 2C12 3066 F2A9 1CE8 AEC7 8D95 7964 2120 9CC9 81BF 9A09 8472 B1EC D6D6 5DCE 172F 14A1 4272 C859 3D7D 1330 6C79 9CB3 6F82 2CF1 23DE 1AFB D420 76F8 48E6 D699 C41B A5CD 9416 2853 165F F7E3 78B1 C032 101E 6958 4897 34AA E6F8 4186 428D C27A 2C5E E28E 5F28 D767 64C1 6FC8 051B E034 56C6 F06D 2848 1104 AB01 11A8 CBB3 9B09 E51A 7D34 3FBA EDBB 88BD 7ABA BDC4 F57D CAF8 265A 211D D5E1 31F2 56CA F0B8 45C6 33F7 9AC6 7DA5 054D BB2E 7467 BDFC 7634 795C 5691 48C5 84F1 9257 D601 C63F C74A 5DFB 877F BAD8 4531 BB81 0AC4 3369 6441 F38B 66F9 D816 0306 738E 2669 572C A8C9 BD9B 5719 2781 E625 C0A1 5754 2C18 4A10 BDA1 07BF A47D D347 9FDE 2CDA 9485 0FFF F1A8 89D2 137B D588 3026 4F06 D6C4 9710 FE91 B93C 360B FE22 80B5 51F8 1E91 527C 5577 183B AD42 4053 3B40 9D64 0606 3FF1 ADE2 ADCB C32F 47ED A93A EE32 2F9F 08A0 5408 F341 F3EF B241 D9AA 3D01 F674 5978 D94E CF1E 31FF 9949 B07B B302 036E CC66 DDA9 7A14 ACDB 0242 58A0 06F1 B824 533F D128 DB4F 949B E249 904C 7CBD 5D99 CBD6 3BFC 9072 0B47 9B68 8313 0F8E 59BF 3BC9 A07B 510A 5F94 CF2E 4482 C4F7 0ACC 84F6 F460 DED6 064A 8082 B729 944D 3C19 64B1 FA52 3026 5BCB FC64 1AF2 9DDE E92B C8C1 92D1 8F97 B52B 2BAE B904 22E2 F2FD CA15 6812 B8F0 8466 986E A9EB F140 DE0C 604A 94F1 0CE3 67B2 6B13 8A29 781E E861 1029 C8AE 4334 36A1 ABB8 5C4E 0C83 F65F 6E68 F155 E2E0 B0BB 9873 8C28 23AF 9C41 7EB6 1366 D20B B137 84F4 F85A ACC2 F2E6 5B75 579D C0C4 F96C CD65 1785 DFBE C87B FA57 CA7F 537C 38D5 FB62 8B84 4B9C D7EC BAEF CC51 5874 D099 AC6F D832 1743 7F5E 504C FB71 32F2 9D59 A037 E244 23D7 50D6 B48F 57A9 F398 9E18 E925 3791 1009 31AE 7C05 342E AD12 37C7 C850 C072 7EDA 9A37 70D2 7992 4C9F 5825 8D70 3989 ACAF 9A20 71DF 4957 4C18 3559 5486 62BA E977 D815 7951 A6DA E814 1B1C EB81 87F4 7389 6A02 2219 1027 9405 5B27 88DF 5975 8057 25AE D38A B39A 8931 BDD0 E458 995E BCB8 75C0 46EC 8DAC 54B1 96E6 DDE7 6EE7 9E6E 6808 4345 5792 27C9 6E47 4FB7 A027 8C3A EFE0 4C7C 97D8 D137 0A4F AE41 0C74 C4AC 573A 85CC 1474 AF13 721A 384B 35B1 7173 5661 E03F F33F 1FD2 B86D 1E2B D41A 7B99 8324 B68B DFC6 ECE8 2C40 6235 931C EF13 474E B3D1 0AD8 A45F F643 D7E9 6211 664D F31A 010C 091C 9284 8859 1E46 050A 0425 54E1 7346 50BC C035 F373 EA2C C07B A490 74C2 FCD5 6F81 E6D4 CB00 D2B0 56CD C355 2CCE 27F5 74B6 D1FD 66C0 E38E CE0E F105 EF23 D9E9 4037 F342 DC1B 1F4B 0367 B3BE 74BC B05F 43AA 788B 9459 60BB D022 6C86 8E10 4C04 E84A 1419 E44C 2085 05DA FB57 D7D3 A714 82BB E8C4 2442 A336 43E3 2ABF B78C C4E5 4AB6 DC79 5CCE 8074 6C39 22EB 3FC5 8892 D8DB 3278 200B 5A88 F244 4237 6DF6 52EB 378E 0AA0 3959 981C 17B4 AF70 38CD EEA1 5F51 5704 175D 4CE2 C5D1 E863 3805 3718 7560 BA16 FC0D 9DC3 9EE5 EB54 52C9 F522 D262 8563 FD69 55D0 E820 F750 8504 F6B7 3410 F468 65FE 146A 1BF4 019A E353 EF01 EAF1 AED4 7402 62EC FFB8 E369 0933 7638 7526 B6BD 73A1 02D6 D169 6A96 AA3C A39B D970 828E FA65 4102 EA93 BC00 F833 60F7 0D14 3C95 B386 D922 83E5 4AFB 9373 BA04 2740 83A5 0FB8 F280 7416 8F35 5BBF 199A 752A 2B97 B808 E075 5548 2751 2CF7 7327 0A7F 616C 3FC8 DB10 84A4 733E 3F4A 0705 1A45 4EAA 795D 447B 5CE6 B423 B214 BFCF 7747 9194 EA33 0B4B 5974 520C 284A 4B62 D4A2 7B8A 6800 6D3B 233D 61A7 3B57 40F9 D38D 9AC9 869B 396D 66B7 4121 1037 FA1E 5937 C4D5 24D8 06ED 3659 983A 4007 300A B2E2 D3AC 2BB1 D994 A70D E89C 4331 7684 6849 E4EB 2E1D 990E 92F8 A607 AE44 8A88 F1B6 4A7B 382F 3BFC 6A9B 96B3 C07F 8D01 9773 9858 A914 7EF5 F155 A103 0478 0817 8685 B17D FA81 604E 3445 4C43 B537 61AA 051C 297E D735 0EBB A449 8A61 F304 7F77 28E6 911D F081 5798 452C 2C92 F2DB DC7E EF91 6A4E F990 E4A8 78E5 CFF7 F10D 3343 A98D D6EA CBA2 538D 9E7A 939E 66C3 B28D 0B91 B4B1 6FC6 96EC 541C F6C3 7280 F7E6 73F1 E479 DC21 3B46 8A62 B090 7F95 D646 D387 2C0F 0C89 F260 CC71 CDC4 72B3 CFC0 2251 0A0A E2AE 3B9D A20A E9AF E6B6 540D 2EF2 9E28 AE85 8192 75D5 06AF E80D 954E 81EB 96D3 502D 420B 038A 2A15 33CE 01FC 76E4 1CBD 3331 8DCD 6482 A842 FCE6 3E1F 1BC4 D115 62D8 358E C674 E098 D11F 8BD6 4845 7527 8745 6CD9 FA4C 6097 7BCA 70A5 4DFB 8D9B 215C 6CB9 9AA4 7956 6FC7 392B 9578 9F3A 50D4 B28C FA30 0D39 986B BFC9 8935 BCC3 8F76 CF24 1FB3 C804 908E 9D0E 245C 95EC A96F 103C B58D 78AC 8EBB 359E A5C0 EF4D 3483 0DE8 9FDE 074C B8F5 179E 3AD2 A5BC E31A 00BB 88B4 69D1 E92D 4A60 5A3C 0270 D028 50E8 4D82 4C51 64EA CFE6 FB77 77C0 CE82 C9EA EAC9 460A 84CA FD19 9C90 0E26 29D6 3737 8F47 246F 6928 2877 1CD9 BB11 D1E5 7256 7C94 1ACD BC7F 368C B4D0 EBB8 D109 9220 4646 6721 BB80 CA77 59B3 AC27 BB4B 71AE F819 46D3 78F0 78D8 1FA9 4F5E 9BAF 014A A6EE F6A9 4C35 F708 364B AB63 55E9 E232 5F1C 6A9F BC42 5450 57A2 3E95 7F6E 4997 5417 9E8E 3A34 90CD 8BC3 967D 82E4 6105 0D54 B2A1 6241 77B5 86CB 30DF FAEA 1C2B 8330 B50B 7F97 0A4A 4944 1A23 701E 9901 1312 93F8 E767 7667 8053 AB29 3F6D 14F7 DDFA FBB7 055A 3BC0 AD2A 69A8 717E 7B10 AE1E 0888 BFCE F4F0 57A6 3387 04F8 52FD FCCD 4C3A F226 E1F1 ECEC CDE3 BA00 0570 6CD1 6B89 7588 5178 6E48 E4CB 9581 469E D617 818E 2006 4103 7614 F11D 1DC6 9B73 2D55 42ED 191E CD30 075D ADC5 6213 1103 DE64 23BF 9304 17BC CE00 92FC 48FE DE23 7232 35D5 FEAB D99D 2A61 B421 13A5 8B2F 67AE A0BC 832D BF6A 0FDB 9082 CD39 7A31 F7AF C257 4314 EE84 BDE3 3BC9 0700 B49E C1DE 39B5 A4F4 D9EE 25FF AA21 BFA1 E9C6 2EB2 E1CF EDD5 60BE DB08 5835 4213 033F A92C 72B2 2A89 E8BB 762B 4CA6 1A5C 01C4 74A0 6D2A 50A2 149E 8FB4 238D B76C F324 6AF1 A4DA 8B5C 54B2 D625 3C56 FC97 223E 56A8 0697 855A 484C 58EC 6F2A 2698 72CA 75F7 AE69 79D0 1B9A B22B 17C8 30CF FD7B 7E04 EE1C EEA5 EB88 7E33 6691 B635 F5C8 B0F8 87BB 88C8 C0B4 A6C9 A493 8C5D 383A 980B EE3D E2A7 7A0D CD9A 5B07 2A48 1676 BF05 0CA1 9522 319B 5B9E 2E92 3F3D FE60 A42A 02CF ED38 339C D848 0202 EEEE D7DA E709 198C F9DE 0368 5A89 4C08 DF4B F0D8 01BE CD11 648D BAE9 F25F D0AA 92C1 D068 E77A D2B1 B7EF C352 A248 D2C8 C43D FDD2 8D5F D1C6 839A 7DEE C784 1DDA 921E 77C8 1F74 7776 5C06 A14B CEA8 5D3D 8478 7C8C 9930 800E 150C D04D 5759 06E4 D1E9 EBA0 F7B6 8E10 BE86 456A 549E 3697 C1CF 2CBE 3E06 FF5A 4F3B C9E6 F3D1 4E5C B495 9598 3340 1C56 7CCC F5D5 87EE CA4F 8C21 9CFF 301A 85A2 158A F30A 7FF3 9E4C 2937 3698 345C 591C C658 9F0E F961 F683 DF9D 8ABC 9A86 ED4F 8C66 5DB6 146A E17E 6C93 CE65 9DEB B191 EBD9 C836 9DD5 38DA 5ABA E21C DC59 0128 CB61 3515 039E EBE2 5726 8107 9991 245D 7CD7 751D 0185 49B7 3277 E994 1F09 86C0 7DE6 2140 DE87 39EB 8C98 B30A D8A7 A1F2 C350 76C1 47F9 E6AB AD62 C297 C066 AFE1 9047 E2A3 B68C 7527 A9BF FC67 24B8 C838 8D1C E7D5 0100 F327 94CC 1E9C AA39 0E81 F631 736F 7035 E0B4 8E09 5323 EC43 E349 0635 C0DC 7D7D 5EB1 7DD9 1B1D 96C8 D3A4 631D 8076 7C4D 541F AE03 7E96 D19F E216 3BCD B867 1F96 3071 4C36 4EE7 C420 8D95 4669 38A2 FB7F DE4C 1D6A 4CDB 6939 2D47 D928 93B6 F088 DE9A D9DC 40FB 383D FE99 1B28 8FC7 E5EB 2E97 08E7 35AD AAAA 2D9E 1E90 0D0D 67E3 B197 F2EE 6CC9 C4BF 59B0 2CEA 03BB 49D5 2F0C 71F5 7194 7159 60A3 1EA0 47E4 3796 2330 DCAB 8656 6716 7B1E 4E9C C4C0 BC9A 6FA7 98FC 7C72 C548 F348 16BB 7576 FA18 1DFD E981 DC5D F013 07C3 2F83 B197 C7ED 8EA6 DC3E 4CD9 DE5D 2D04 83DD 3EE6 6423 37DB B5AF F11E 5259 FBF1 0429 0A22 123D D53F 9B0A FA0A 8447 1261 293A A356 BBCD 77A9 3695 DA87 4C24 3BB3 014A 9651 19EE D7F6 FCEA 295C E020 B41C 9D8E DE16 13BC 424D C82B 21D6 C6C0 9B73 729A 62E4 C1FB 8386 FDE2 3355 C800 B323 794A 18CF 414F 6EC4 B0CA 52EB 55E1 DAF9 5C75 D67B AD83 4F46 5E46 7E8D 9E08 C150 2CAB 7C09 35C6 C70B 076D D7ED 6338 2B48 B65C 8BAC D868 AE8E 0B1D D829 DA08 8817 5343 DD2E F4D1 1C59 BB90 28D1 6F8E BBDA 6BF1 7B87 9310 E297 0DA2 EA4E C0CC A27C ED8B 2DA7 5E41 6A30 EF8E 122B 771B 87E9 D2E8 5825 4711 734F F9BD 0B04 BA32 0E02 3CC2 2036 8555 1894 6CAE B687 CA78 02C0 A92B 85DB 98B1 3A9E 3FD1 6E1E FD89 D7EE 38F1 8357 297B 0C4A 548B EF20 92E2 AC43 AB84 BD5D A552 1FFC E802 A8B9 C83C 418C 7744 CA5E F8AC 1E01 157D F2EC BDBC 6824 4081 AE57 B5E7 63DB 4B21 5542 8944 3E8E 2AAA 89A1 9E6C 4E9B F8E7 3720 EFF8 75FF 73F1 2E4B 9273 D404 9ADC 14EE 32C4 A0B3 78D2 F33E 86CF E7F3 4222 9E58 34FB F7A2 396E B3C8 F7F8 8BAE 54F0 237D 6FA9 EA81 3486 6DB5 511A 094C 29AA A796 A248 49BE 4550 55E6 2193 86EB E0E5 4F89 FE4B 64B2 9244 B3F4 C03B C44E 9E64 C19E 2423 5632 8C6B 6198 C2EA DB17 0A7E FBC8 65ED CF57 2953 BFF3 8496 362D D369 DAFA 3465 322F A5E4 FF9A 1EBF 1339 E2EA 9E9F 1572 1A0B 48D6 0996 756E 4BDE F891 9504 A807 FB1E EDB9 7527 AA14 AACE 4DE9 4138 BF94 800C 998D 0F98 776A 6182 5DB1 1DFD 77A0 64E3 E239 04AF BA28 5048 8689 14BE C949 4D4B A8D3 014B 050C 99F2 FD7B E41D 09C6 1BD7 16C0 5872 E27D 8FE5 9D47 15E5 F75F 7BA6 E9AA FEAB 378D 4B49 813D 2C65 37FC DD69 1786 8DEE CC06 7AF8 647C BC33 5B9D FA6E 3DF2 4551 541B 8B31 A9DC 6DFC 250F 6B7F 59CB CFBE 9EA6 04DC 0EAD 4833 422F A6B8 A45E 78D2 2ADB AC68 69D6 50E8 439C 775B 1E7C 8C51 FDB7 3975 D29D E279 85A9 0AD6 2238 0334 CA7B 799C 694B 1175 7245 B2E6 3213 A607 B299 C4D0 18D0 DB3D 4EBE B77E 69E5 94C7 FF71 3C35 F3F2 27D2 71C2 6D31 D546 C72F 4D62 4501 69F6 97AA B49A 4977 75ED 8FB0 1E9C B682 4972 9DA0 5EC9 E345 15BC 4452 B431 FD2E 5CFB 26EB 60B5 FC60 1937 3D09 C84D 361A 2541 ADF7 308A 7E8C 9211 DA68 F607 2F60 44E6 F142 838D 7681 AB91 07CA 8866 3889 A738 DE91 3AC2 9BFF 6A5E 0249 52B5 3657 D2F9 4E7F 853B 28FF 542C 3B79 3354 16D7 78CA 41E8 6D8A 53D7 E7AA 1290 131E C4AD 0E72 C9F5 04F6 BA0A F4C4 388E 77C0 B907 9293 3F6B E045 38B0 B3C7 74AA 73A5 4F80 DE0B 561A 1D91 582E D49E 5D02 7537 7A2A 76FD 24FE 5B57 DA3A 35B5 B510 2D8E 2D9C 06B3 82A9 EAAD 82B5 5486 2898 F64F 10D8 FB4A E93C 7F87 9B59 2A6D 019D AA29 9305 623C F928 20F6 AD40 F65A DDA7 2FE7 B3F5 5D5C 5BE1 4C94 EF8C A798 2E84 5769 8472 9C90 81EA 4853 11B3 7CB9 CC45 E7A9 CB3D D081 4CAE 3D69 AEFB 5B74 EB50 D1AF D30F 3907 5C96 C43D 7EF3 261D C93C 7B05 A651 89FE 072A D5ED B319 10C9 1AC7 E658 2B09 542A FA08 E182 FAEB 450C F8E5 031A 57E8 E9CD 88FC 296A 5408 3DB5 B484 3187 04C8 C6E4 BC5D BABF 0EC2 5685 F0F9 0575 D06A DC8B 3EE6 5B91 B85E 88F4 1844 8662 4786 1018 41A5 4C54 1C52 9E74 CE18 8566 7A5B 18F1 CBC9 F669 6E61 9068 0370 D0DC DE10 95B8 1712 AE0F 0EDD 8BD4 1333 5A5C 13BB 058E 6940 ED1D 8F5F 4E35 D5C6 3CA5 3487 8956 0B79 1FAE 6021 CDED A6F3 DEAA ECEE 91D7 04F1 C7CC 0CFF 3A13 CDFA 0A10 CCF5 4915 4134 E825 ADF0 B375 22FB 9ACF 38E2 6929 00FE EE6A ACF1 7DD6 3816 B309 26B6 3B86 F4B0 51F6 B310 47F9 609F 590E 735B 74AE 7CD1 1D51 38F7 96E8 9DAE 51D6 87B7 A640 D6E3 6294 33AB 2DA8 2C77 60F2 6554 44E8 69D0 9DF2 D6E6 5521 5484 03D1 217E 5968 8EAA 137F 1F9A 1320 522D 83A7 D2E7 97FF 4D08 DE87 C355 3EAF 62AC 5BA7 D7C3 CF6F D4B2 D1F7 A78A 0830 EEA8 AF06 CA0C FB3E 9941 B4A8 2522 FB71 F7F9 E0E4 700A EF14 AF45 821E 6D27 38C7 7137 0F3D C3E2 EF59 99DB F44C DE7B B4FE 2349 6E1D 3F13 03CF C364 6BD3 2447 AD04 DD1E D8A6 10D4 60A6 CA4E CDFD 99BF 30EA 1F98 CB30 E9D0 DCFA 6F6B 8ECF 9658 77AF E0D5 98EB F1AD BA09 A399 AA03 18FC 8AF6 0C5D 6AB0 60CA 1C91 12CC F973 3377 A612 AE03 06E0 D858 9BB0 7AFD 1AEF B465 6720 BF2F 1EC1 89D1 DCAF 6432 7A3D 23BD 77EE 36F2 803E 4D8C C58C B865 83FF 3167 5C62 338A 2C40 1F05 B163 2ED2 216B D3DF BB43 B2A3 F715 C0A3 AD4E C280 9956 443C AF6B 3313 A54C 1801 DBF0 7A39 85E9 ED7E 147C 85FF 6E92 1AA9 85C7 E389 B606 48C4 10B8 26CF D65F 4A62 7E4A D533 099C 12FF 8A5B 5867 BC94 F8CE 13A8 AE2C 41C9 0E1D DA4F CD03 853B DE4C 9BC0 8DA8 F0B4 86B4 0FE3 515B F310 1E3B 4BEB DFF3 5FB6 5551 DCCB 86D3 4F9F 6CBF 083F 6962 244C 3439 B4EC CB5C 5595 DABE E89A 3EDA 1FE7 4535 B367 FBC6 51A6 148D 2BE1 4EAA AC95 144F 11BE A7EA 7193 3473 75D6 6998 8778 EEF8 9789 0F5D 29C6 EF3E 6D9E 593B 4B43 D9F8 9481 A245 6F72 E734 FA12 E65D 23C1 1189 8D33 27EF EE26 A1E2 80DA 1523 C316 003F 204C E429 F9AF 205A 2E07 A8AB 9DC9 267F 767B F6C6 04A7 4C32 2BF7 AA74 8075 CB3F B789 E131 E12F E2DF 1B44 8AE0 1581 362E 76B5 113F FE44 7123 EBD9 060E 8143 A5EB F2AF 2A85 A739 6B0D F4DC 669C 555C 36DC EC21 18EE 3483 7E1F C600 9EE7 A761 F53A 7FDA B3CC 772E 3FDA 6BD6 2A1F F049 3A61 FE94 B934 5D91 C3AB D4E5 5CC8 8CA9 A78C DD06 D99B 7B4E 679B 467F E99C 7315 CC2C F602 3776 745F 54FF 0899 80A0 70B9 64CB E95F FD72 9E8C 3C9F F87F 21F0 46EC E32D 2E14 40E9 CEED E099 F9A3 418C 4B50 A0FB 4D52 7CC0 2D3F 1666 DD99 E1BD EE57 ECD7 A5B8 268D 4512 167E 2577 9427 2590 527B F666 1344 1B44 73D2 F1C0 6F7C 0814 E65C 45D2 42D5 CDD1 4037 FDB2 3AED 42A1 D970 694A 3265 3D78 EB9E 8289 EE77 E280 AF26 3CA4 6ECF B48E FD0F 16A9 B375 6EEF 441D 2E5A 98D3 89B2 F96A 6F25 28B8 8F3C 8A3E C438 808F 482B E2CD 6CDD B8B2 F59A 9598 BB06 5434 31ED 77DA ED94 29E2 8D4F AE12 8C75 C374 DF96 2B20 1465 00A3 654B 3718 F611 8E8C 3809 CE3E 3029 B722 7FA1 5C6D 86C3 6CF7 4EE3 01F0 9C6F E930 9BB7 8717 8698 0416 203F 401C 2EBC 4766 06CE 103C 3B07 7D90 6559 AA20 1DC4 2A8D 9F1B E621 25CF 47F1 2440 FDFB 7560 773A 2060 5D3A 00AD B5F4 2EEE 3411 AFAB 9F98 AC3B EC0F 1280 FBC2 A952 79E8 80D3 B1CC 6796 4A7C 84C1 DF70 E1E4 E1F3 E34C 9405 94FE 4A12 DB76 C6C8 AD93 305C F30F BA6D E3F2 3086 492B B4EF 7410 7AF9 DED2 884B CA97 33C3 1F6C 6EBD 2E95 B611 700B 9E56 E38B F4DB 3D5D 1363 B1D3 9101 E34C 5512 21DB 1B68 B49B 75BF 2981 9307 67A0 7910 4E5D 2C73 0CA9 1E63 73EA 32E5 5E11 ECB8 886A CB74 ABC6 9B65 67B1 5F2C 341C FD87 6A76 25E5 F1D4 E138 00AD 31BB 89D2 79CF 90E5 98E0 DCF4 55B7 4D2C 33C9 D242 1D4D 5BFD 932C 5EC8 8D55 0A39 9061 B6BA 728E 677E 5476 9A9D 4876 1B0C 1B5A D2B8 9F9B 7AAA 48E9 A602 4C13 6A92 F74B 8ADB 916D 857E B9D0 06DF 3A2B FD15 B2DB 066C 1010 7C3E F136 BA32 12BE 0B6D DEB9 A961 EB35 89C9 8659 9D44 B968 3BDC 3C1E 41BB B70D 4ECE E8F6 27E8 A095 8F86 4E5E E653 58D5 B530 2220 E45F 087D 2EB4 1809 9139 0C9B 8CF0 C309 2275 28FB 6649 046E C824 63B8 2D70 F735 1C7A 37F5 AA44 E6BC DB4A 3820 8048 859A A6FE 49BB 4F57 8576 E859 27E7 9AF8 6FBA 90E2 BFFA 1DEB E081 01C8 FB92 4BD8 6258 B3B4 324D DCE8 5A7C 10EE 1248 B503 05E6 E0EF 6B1B C9E5 E245 B106 AA84 6633 7640 7ED4 16A6 A069 2CE7 8803 7C96 129E 7D82 0B82 5A41 59F6 0DFA 5C23 14F2 3A7F 6393 8156 8216 DA98 E826 15DF AC28 4DCB 3091 0172 B896 83C6 F614 42CF 858A CB55 19AE DA1C 9537 3CA7 9607 E1C7 5230 33EE 61F7 0507 4CA1 D910 B776 B334 CCAB EC1D 1D84 DFE5 75B7 6109 CB60 EA60 49C1 77EA 61A8 4E11 C105 EF65 A782 C9C6 F456 E6BF A374 3ACD F2B5 0107 6DCA F109 0C05 E61E F4E2 C532 4755 3748 D155 A09F 65F7 890A 168F 4D1E 3827 6B0D 0849 D758 9D3E DA55 1D0C 9089 5D37 F485 885C 8625 DEBD 1058 B764 D88D 8E99 2D16 3A9B DA4D 4678 4118 DD73 4712 A8AD 1EAC 150F C37D 3DCE E3E3 E1FE C22F 77C5 835F 909E F842 3D6B B220 9D09 8228 071F AAF9 3F9F 915E D0A3 D026 A9D4 DB99 0941 D55A 357B 9367 E6A2 10CA 5078 87B4 E6C9 C59E C64B D1A8 DB40 6DD7 62B2 0896 6D3A 26B7 B0FF D69E 19D0 1B8A AA0E B5D2 7062 EB52 D817 478B F064 3907 3177 5B86 A9F6 2CA1 F113 0623 E229 7CB9 6A9F B383 26BE 87CC 9431 C6C9 16CA 446D 678B 98AA 2C81 CC99 B783 7435 C2B6 863B 4CD9 2EB1 B6F8 55FA BA7E 1BC0 AC91 8CFE DDBA 3E15 4929 990D 504C 62BA 0AA1 228C 0F37 F173 6D16 41B2 DD34 E774 9F84 8717 1AC0 9498 328B EC65 F954 C9D0 CA73 4C87 CBCA 5F37 FE6D 5F55 456D A909 C0D3 7132 2D46 BCD0 A373 6DB9 B9C1 0445 147F EE64 1733 BC10 2868 6B12 85D5 BCFB 27CF D64D 33DD 2E3A FDBE C5D4 DD59 0EE0 7430 5404 8A45 0D44 4E6D 6D13 319A 02A3 8D38 5BEE 9336 1ECF C3DA EFE5 57B4 C9CB 5F00 A025 B486 9A56 2B04 16AB 8912 2827 40F2 2D5E 3A60 A220 CEF4 F049 FCC0 15D7 3472 D524 37E1 2656 189F A6AB B81A 70F1 1445 5F4A D462 D4F3 8080 7878 5C27 8EEB A67D F875 DF97 9020 09F8 C4EC 8526 D6AF 50FE 779D AF6C 9210 E458 4408 5C9C 0196 3A97 F463 FA8B D7BD DACE DEFF 108A 77E8 D95C 992C 7708 1B3B F9E7 DD54 1270 5757 7E8C 6125 27B3 8350 1797 96B8 CC58 A956 D789 09C4 E341 46F8 DAF9 782B 5DB1 04A5 1857 53E2 1484 B262 A7F0 CC4C EF86 FA91 524B BFDE 0164 8B28 CCD0 26FD 9394 7C11 0A64 C9CA 4A77 5EE1 48C2 367E A3A3 A1DA 8503 ED13 C8B5 F370 8D5F 0D05 021C 7BA9 2D24 7096 81F8 6C1F 8AEC 7F0C 0702 1290 5A53 5E3A 3441 04BA FA43 C9D5 2A27 7E59 A4BF 4296 DC2B 3744 B888 8B13 AA93 B201 1FC0 653B B6C2 2AD2 4C89 EE65 2B88 8E1A 23D3 7D9F 8C76 C51D B88A 8E98 F79D 3F81 D130 FE82 512D 2952 BAE3 4C58 25D2 287A 7F7F 6C49 D5A0 B27C F286 6C0E A4F0 2A0A 6DD5 160B 245F C44B A2F9 D6C2 2B0C 2A06 6838 6EAE 5A9F E752 12B5 1204 A454 A3C6 8D21 86D1 C2BD A0F6 2A6D 9D90 9B92 D8E7 A50A DB5B 529B 5FBE B3D9 DDF3 7287 8E94 CBE2 07F9 A046 5CED FBB0 6C6E F056 EA61 E0C4 2D02 910F 285F EF3C 45D3 40E1 1161 63BA 2741 BB1F 9F0B A7D5 5E12 E2F6 5DB0 BF2A 7A14 3DC4 5B54 1955 BA3B 25D9 3972 D84D E90B 54DD 4E2B 04DE ADAB 2FC0 B740 EDF0 7E6C 9912 67B3 951A 560D AD7F 6FEE CAA8 3862 1340 1E5B 327E D55F 5454 838B 02DC AC65 6872 EA32 5026 42FB 221B 4542 B35D 353E 66BF 396B B181 4880 7861 4133 E1F8 F4A8 5A66 061D 79B1 C040 CB1F F3D5 D310 2A26 BDF0 25B3 D8E3 FC1F 8B19 9153 144F 72D6 CEF1 8AFA 5DD1 17F9 5CB5 CBD1 3EE4 A8D8 6DCF AC49 3FE6 655B A0A5 357C BFAD CC78 14F6 31D5 0E47 2DE6 069B B693 BA23 7B15 3125 8BB2 0FA8 B4D0 B611 5403 D347 3D3D 0C85 3F14 FACF A68F 3094 FA3C DD7C 9730 E58F 1B59 7AA5 98E2 647F 99C0 B593 663F 7EFC 32D0 66F7 2BDB 73F8 7793 853F F324 16AE 5993 8406 D0B3 F7EB E5A1 FC5B CEA8 DE66 7DA4 8AA3 DC20 ED5E C2E6 CC07 55F3 AA7B 46FC 2EF9 020B CF1C F2FF DC93 3F63 DC75 EFE0 8E2E 0AAC E2DA 36D4 EB75 575A 7B7F 3D3E 60F7 78F6 230A BB02 B5DB 412F D8B1 5F1E 35C8 6362 F02F 8E6D 1CD7 D4CD E8F4 997D 920B B8A6 6F6E D877 576B 559F 9BC5 1F1A F053 7136 7233 A361 102B F0F3 64CF EDBF 17ED 6B4A 240F 1FD4 27F5 1ED8 9278 A43A AED3 C858 BB77 8951 F109 319E AB68 7006 EEF4 DAEA 9869 7D9F A762 C991 0E79 9219 FD8C 981C 3E3D 4402 1100 1C9D CA0C F4E2 2F93 9000 D74A 231A 46A8 C82F 1727 3714 5475 D50B 223E 7326 6A20 7402 559C B650 5819 1AAA 671A F55D B3D0 58F3 F6FE E7C7 ED62 D838 50E5 F6BB 6CD4 81D8 F705 DC32 D6DA 73FC 7E5D F35F A355 CD54 08B0 30CC 0031 6322 B9E4 D6D0 7BC0 FEB4 1C1F 86D3 DD07 FDBE 9199 75AD BA7A B913 3DD9 D01A 160B 5225 64FC FE85 B801 EDB5 B2A6 3762 1E4E 8931 1BFE 9C9A E181 0DCD 4E7B 8906 FD0E 35D6 2BFF 9605 9DF2 59A1 F006 BAF3 DC9E 9BD0 0D84 4D1C 5ACA 4F6C EA33 BD2C 3DC1 2985 1CFF E518 BCF6 5BCA E20A 5F97 6984 9738 099E C1D5 2A1E C5C8 DBAB 32BC 063A 9933 0B56 AD4C F7B8 840B 4E9A 975C 5A78 DC81 03EE 4CE0 3952 3429 5C5A 369F 3B6C E88E 02BE E4F5 073A 7C4E AA20 6AEE FFFA A6E8 CA80 BCF1 D788 D1A3 2C1A 34F3 8A8C 12E1 27D5 7CD3 0815 BB53 88F8 F7A0 82B7 2AB5 D069 36BD 16B0 C807 7240 9118 B388 D7A0 5E96 AD08 32B9 CE18 7B7B 74D7 85DE AB35 5784 F5D5 5C7D CFB0 C1B2 D99E 42A6 5AA1 EA7E 7553 14A0 EE3C 53FD 9980 4329 A371 9955 DF5C F461 0342 F82A B369 C81D 22E0 DD8F 4925 8EAE 0442 CFC7 B85D 6A38 A297 80DA 278E 7F91 FC4D E253 C7A6 D39E C47B ADB9 C848 42EC 46C2 C8E3 050F F60B 5AD6 2FAC A485 6830 02A8 B80F 359A 6477 836D DD8A A73C 15F2 0571 48B1 5CA1 2EA8 A236 B796 2E0C E874 4633 1DB0 4EA0 9385 D90F F201 FC72 31C2 648D 41CA 392E FE3D 33C5 57E2 97A1 D046 4C7E 81BB 08E1 E71B 2729 164E C1B3 161E 7B59 70CC 1DBD B27F 78E1 A57F F812 3BC2 6C53 112E 7334 5C59 C9D0 1472 653B 0876 1ACD 54ED 9CAA BE56 9232 C6AC E6B5 3395 674C CE03 AA17 F965 758B AD59 0AD5 485B B183 E196 0A8D FD6A 05BB 4FB4 A9F6 986C 2E5B 606B 040F 92B4 AAD1 286B 9F76 A0B8 56E5 9B21 4C10 3F8F 25CB BB3A 63D8 3852 17F6 2F1C 3694 B4CC F75B B709 09D3 B42C E353 7DF0 CA58 5141 83CF 9099 B4BE B2B1 09D3 13BB D142 455F CD53 A815 F3F9 02A3 7916 64E8 8F10 A67C ED02 CF4C D128 1F0F 0E3F F5BA C09D 89C9 1462 6B5C D2A5 AAFD 9E5E 5FF2 11F0 C638 E681 F127 7765 31E1 5F5F 5486 B39A ADF4 D964 908B 1C07 44B7 1C93 808F D0DF D858 59B4 6638 78E9 945A 6F72 DEC9 669A DAAE 5086 C7FF 7721 D2F4 3301 E4E1 EA59 23BD 87F1 7F5F 657C 5D19 D01D 7437 EB29 3B1D 3EF3 C765 D9BE 39F8 FD76 BDAD 46AD 38A0 D6D9 E130 DD42 2042 96B1 3EF1 E17D D011 FEBA 6B3F 1CB4 AC26 33F8 CDCD 0CFA ECF4 9AE2 F49A 4CC3 48D7 5D63 71E1 7962 F53B 3495 B449 D4E1 86EA 9201 4638 10B4 ACDC EC1E 6DDC 74B9 133A A9BF 29F4 0F7D E33E B2E4 13AD CE41 34C8 4DB9 067F D269 5F6E AD7B D31A F160 97F8 C050 51B5 2B74 967A 8D7D 5BE8 BFA8 0BA8 24D2 AE48 59DD 7B02 1310 A432 CE49 6A62 AAB7 3AD7 13C7 8DF5 04B0 065E E028 C80A 62B2 84ED 167F 9F89 BD52 FFEF 0D7A 309C BAA3 512B 72C9 F4BF 74CD F394 2698 91D3 EE37 2CD2 99F4 7658 E5E1 375D 7E36 8F68 EB0A 85AC C4A2 FE2D 2004 DF0B BCAE 4734 0917 AB8C E151 A7C1 A5C5 BD51 E097 E3C3 6046 1799 D7B8 9E30 59F7 E519 C0C6 DDE3 91B4 D9AE D28E E955 ACA6 D5FC 0C9E 4249 6D49 FC6C 7697 91DE 6788 41F9 35DD EEE0 A98F 7472 0D4F 00D6 A14A 947F 389A 9AEC E907 0CFD DCE0 3892 5812 EA24 E44C 2821 358C 0579 08A4 EC07 4749 6548 095F EEC6 AD91 5DC6 C5C6 E5EE 4F1A 1F57 DB2C 63BC EDA7 090B 8622 193C 6D7F CB94 7477 1622 0367 D785 9D1F DF08 C807 E740 FD80 CF49 F826 68B0 7E33 5156 A3E8 A481 4F3E 7559 04F3 D1A0 131B A3C9 8FEE C961 90ED 9C7B 4FE0 D88A 7CD8 F9CB 434A AFB4 C572 5726 FDED 5A21 940F 568D D7D2 1ED8 104B AC7C AD7C 30B6 1784 5011 BD9F 4C1D 6226 7317 76E6 0B2C DA9D 0ADF AF39 8D21 9379 D25D 4FEB 175F 47D9 235F 8D39 1614 2A1B 6524 39D5 BC9C DAFA BBA7 0021 A1B6 8ADB 69BD 416B 7B97 E7A2 2039 4FA7 B995 5860 F87F C91C E1BF E6CF DBF5 CBD2 A478 4C4C 8006 D51D 698C 7088 8CBA 9029 9991 2E96 F3B3 D46D 7EA2 0EB3 8767 82D6 4B87 3645 7B50 C0AD C5D5 2D65 1A09 56C4 798A 1885 7C9D 8AC9 F660 A581 DEEE 8388 14E1 5CBC D899 63B0 4543 6D2F FE04 5592 73EA 0DCD DEA6 8D5F 519C 461E 5666 A491 D03A CAC3 2C7C 0E6D 8D3D 712B F120 C544 646F 721D 92BF 73F8 8015 B34F AC53 0578 4D3E B724 6D0B B203 0A31 EBA7 93F5 162F 9D58 B610 53E6 A242 8CF6 0DD0 FBF5 E8BE 1454 7332 FA7C 879E 90A5 25DC 6093 D53A DB1C E4CA 2CFE B2ED EACD AB43 79BD F917 D6D6 0BAA BD32 405B 26C0 A574 507F B4B6 3AAE FF68 2E44 82CA 59C0 BBD4 0947 BD0F 002D 5FB4 C360 769D 6464 0D1C 877C AC65 F642 D905 B9F3 6151 434D BD56 04E8 9681 81BD 55AD 0C3E 1F79 4F6B 1A90 7177 27DB 219E E483 C957 19BB 3D22 BF75 E4E0 7289 2F48 149E E680 643B EFCA 817B 9D4E 16E6 B5B8 664A 180B 67FE 8986 D57E 9DD5 FEA5 6572 B60E F52E 5820 F8EA DF3F B19B 867D 4FE3 CB58 6E06 166F 870A 3E9F B2B6 9D15 CF9A C8BA 4E17 4493 3284 8FE8 B21E BA8F 8CE1 8277 D1CA CD40 C078 8BB9 31DE B5D6 2FCB CD67 891B EB2F D5AF 0EC9 B04B A025 9CD1 CBA2 99CE 0DF1 192A 4762 1098 B7E0 7167 0383 0914 E030 59A6 9187 60E8 DCAC 5965 43B0 3503 418B 645B A526 4F01 502B 0F6C 4098 5A7D B06D 7952 D073 ECD4 1BF2 24A9 673D 0933 577A 398F 42A1 2503 007F 0D31 B602 DBD3 70A4 A234 2BA6 7381 B718 B4D0 C5AC A138 EE19 14AB D66D A83C 785B 6E11 6388 9AC2 A251 3A8E E647 7255 B45F B2EF 305D 4FA7 3535 964E 350D 91EF 8660 EE07 BA9F E7DD C29B 89EA 42D2 107D 0249 F3DA 8E74 B1FE 5309 C490 660B B139 A8B0 2561 68C7 AAEA 2A70 079F AF73 AF5E FA1A B44C CDCE CD34 3615 3838 D596 2451 C899 92ED 7052 B5C2 4D25 B8A6 9A8B 9327 AEAF 3ED3 09D2 C280 BCD5 E96D 4C34 713A 845D 5570 1BAE 0590 0027 187C 79D4 2CB2 3BED 775A E1F7 DCC3 F3A7 31DA D845 4DEB BF16 2119 1F59 DCF5 7788 1F67 B09B DCA3 919F F1E5 1C99 45BD 7132 2E69 589D D017 1334 F08D 6A51 8D55 F291 395F CE4F 3678 CD00 20DC C574 26C8 0198 47A1 7C01 E86C 1D73 E305 4613 63BC EACF C006 11BE 6D9E 2155 8E58 F9A0 D1BF E76F EC93 6E71 D06C 9553 7E2A CD8B 67BC 314D FE8F 7480 7A4B FC61 C2B8 EE4F 9918 3895 FFCA 07BE 2636 32CB 01A9 D80C 1232 95E0 A836 EA4E 2716 4B3E D812 41F2 59EB 6341 1964 B89D 3A91 7355 7687 DC5D 602F D7A4 47EA 4C0D 6635 4554 555B B912 9B19 982B CDD9 7E00 8C3F CD3D 01B1 F2D9 1C86 B7B2 AB18 1E55 7CC5 30D4 2689 B310 B3F8 05D8 C405 9F86 F663 A25C 409B EB70 F449 153F 0536 7E67 8FF1 0B53 B04E 3CF9 50A4 D67B 1B40 D55B EE08 1113 5185 0B59 ADD0 AB3E B844 4D40 E9B7 CC56 0B22 E956 7402 E94C 8E0D A27F 14DD 7A39 AC7C 780B A451 AA19 956C D9F7 8381 396C DA91 3DAA B19D 12E9 9C9D 4D76 CCBD B5BC D1A3 86B0 0ECF 34FE F2A4 EB27 BF9E 073E B239 4DF5 14B0 25CC 13C5 641B 7A27 0063 9A8B E437 5007 5E1D FC2E 8ADA 7B2B 1672 E9CE F028 2F18 6942 91C9 D2B7 C938 842A CF84 2760 2475 0DFE 1F21 EDEC B537 33CC EA35 B4A4 CD59 B76C D498 305D FA73 1564 6C4A 13E4 36E4 2F16 9A1C 3193 A134 0EBD 95AF 86A2 F8A4 13D9 2F6D 71B1 56B8 ADC2 58B1 ECD9 4BFF A865 D946 A223 8E80 6F9E 1101 F0F1 1D16 D2BF 68EE 616D 0598 7181 F949 020B 0785 31C5 AA96 47F7 814C CAD4 9F12 CBD7 1B36 6E3B AAC6 FC4E 1B46 F648 CFF5 2AB9 D55F BFED 0EF8 0961 55C5 35F2 D886 25CE F39B DF2F 48C5 C85C 4722 D411 9774 473E ED91 5829 CA9F 0170 4B4B 6BF3 D326 CD29 A3C5 0658 1DC6 EBB3 4D1A 7D5E 26CB 07B9 7CBE 9589 2AE7 7460 D534 0611 2B93 F92C 6976 006B 3FD3 E362 4AC3 8DD8 ECB7 7DE9 0D76 2B6F F178 4ADB A46A 76F4 1202 2BF3 C4AF 4981 1ED8 F883 6C40 E434 EF06 3256 1EE6 14EF 44C1 080A F9BF AE7D 0375 C715 F89C 895B C7D5 5CF7 C167 AE32 2E41 E2E8 2C12 85B4 AEEF BA0C 3EC8 09CB 5E22 D2B4 D282 816C 74DD CCDF 06D9 4250 7078 4C34 EDC1 F814 3C95 8B27 3595 0DC3 CA99 103D 1622 1BDC 2CAC 0E1C AF1C 711D 63E7 F221 6A74 A0C9 DB27 14E4 C552 2A22 9717 37D6 3D7A 263E 30A1 ADF6 0AED BD0C 029C 78A7 844D 8E4D 9D81 AFBD D26F E516 5AF9 2F9A C0AE D4F8 5FC6 FFFB 3CFD 1AE3 B2AF 97D3 2033 5B45 BDB0 C8E4 A178 F0B2 AAC0 6D9B 9790 6615 B88A 37DD 3EE3 084C F4AC 0833 1A96 EB2A CE48 C9C4 D74F 133D 1F59 45E2 7EC6 B87A BFF5 5754 1E7B 9B07 D06A DD81 1ACA 46C9 1D30 7A30 3445 8512 1A92 6D2E EDB1 0ED8 FFE2 167F 67F1 61E7 D422 6061 62A9 E86C CCB6 5C50 A817 DD5F 0DDD 9C94 8B39 BF39 FA2C 3725 0E26 C814 FB08 846C 3BD5 6CF2 F276 C2E3 C926 ABBF 3A49 B88D CD0D 57F5 E6FE 0E30 0B95 37A5 6AE1 6A16 14DE 7528 FB1A 3EDC CDC4 E5AE 01A7 62AB 160C 4E85 7D4A 42B7 75E9 77C3 49F8 FF14 7FC5 C3BB 2421 71AD D20B CF8E 9078 78FC B6A2 6892 3484 2B82 DA18 974A 3C97 1DA9 3061 3900 AC25 EF0B 57D0 F3B1 D73F BD82 346A DFDC 7C0D 8DA7 25C2 08B4 A1D3 B1D7 9F0C B00E E04A 91FB 86FE 3213 56A4 0E47 1DD0 02B6 010F 30A5 7836 5CF4 D5D4 9510 4022 15F1 18FA C2A1 866E A98A 5D97 6995 6852 5ECB 84A8 B0A7 9C2B 5744 943C 7B73 A333 2CDF E7DF B863 08D3 56F4 E73A 68E3 22FB B2DA 808F 8BAD 2D51 5DAB EBE5 1BD3 AC52 3E63 9AC4 35C1 28C0 7C09 D0F7 D75E 89C1 7A84 0068 F4B9 90D8 0AAA 45A8 725A E984 ADD8 2C6D 0D4C 4A0E 481F 8697 9DFE AD7E 3951 EC1A 9C0C DA2B F665 E2F3 B333 7629 116F 7CBF 6B9A BE5C 1178 22DD 79B7 3388 DAA5 2BAD 5260 01B2 DBE7 870D 340E B37A 0C32 8B20 AA99 F2D1 F216 BD7E CB44 444A 1D82 0F3E 4056 DAD2 0102 296B A668 5BEA 53A4 13C8 D0F8 FAD4 7334 31ED 7DCE 98BA 6118 7238 A171 EB99 29D6 92D3 5990 37FB 9384 61CD 0E67 2D0C 8CD4 8642 FDBD 8B90 F051 47F3 E320 59BF ED49 3453 5622 3D79 53CF 3810 0E05 6DD7 369B 2F1F 0C61 A623 C1AF C375 CED0 B11B 4B25 30A7 3C58 4312 9F9B 68EC 8DEE 7693 3CDB EBA0 9A81 09EA 9936 6A4C A995 2C99 CC60 D59B 8145 22CB 3006 392F 40A0 0BAB 25CB 5950 9912 2A4F 5874 84D9 5E23 E86A 941E 7C09 214B 97E1 950E D6FD D348 D40D 07B9 73FB A666 FA08 2394 FA85 7017 0F78 C0F5 F061 5CB9 2758 5945 EFEF ABB3 29EB 6E8C DBA8 2399 650F A484 35C4 43DE C556 A907 4DB7 411B 1161 2CE7 235C BEA9 7B1C 5189 E413 A7E5 F2C7 3CF3 B394 F32B 7E6F 3030 B8B9 F11D 3FD2 BA51 286B 9E41 025C 03AC 7606 54D0 4A00 6678 113C E302 BA10 5FAE 7E34 7625 6C08 E641 55A0 401C 391E 3FC5 5A97 C7AB 3B0C BDCB 0ADB 3CCF 42B4 9BD7 D389 E3FA B6FE F9B7 29FF 949C 5BC4 DADF F9A7 89A3 256C 73CE EB16 3A72 E639 F4BA B0EE 5371 B788 EE50 C12C F262 B616 6097 4E21 D837 EAC1 4F43 69C1 42C3 4B9D 5A79 5B31 C408 9E10 2BCD 8C7D 570E 5E77 8D0B 75FF 27E6 95A9 F1C9 7105 6DA9 0E56 F682 452D 1836 2A1A 9770 582C 01F6 ECCB 4FC6 DBD4 A48F 252B EBA7 23E8 C2CE FD91 20D3 0937 EF97 0FAD DB35 3AF5 3BC1 23C4 40C0 79D5 36F7 EBC8 E437 0782 134A 52E3 32F3 1C58 A8B2 1ED5 46DC 0E26 9C31 3F0A 140F F3BD 9238 D9CE 8980 3051 4515 C798 0738 FA98 EC06 6C0D BA99 096C 1E42 7515 38E4 82CC 2D99 BEF6 D634 E6AF 4232 BBCE A8EB 422F 1670 76BB 8FCA 6FB3 6484 7CC6 966E 5EF1 9674 1A3B 2985 527A 5E7F B2BD 38AC 5FBC 5480 A22F F341 7DA3 78D7 F8A7 52FC E7FC 97DA 8C9E 0F3A 7C8B B06C 88B2 5E3D 9B7E ED40 68D1 CC5C C6E4 373C 0835 4F06 358B E101 83BA 67CE 1AC5 D958 EB65 EFA6 898F AA7A 7766 A511 49AE 7CC8 FF5A 7A55 AAF8 FE64 E4AD AA83 1547 7BA4 4939 DCA9 016E F10D 4D36 501A 5867 8797 7782 258B E986 E179 756E 1E2A D0BD EDFB 080C 9F49 3560 77AD 9508 804B 7D3C CB12 C1E4 FBEA 14B5 50E7 9B0D 70D8 AEFD 089C A28F 1B7B 9D4B FAC6 3AA9 C7B8 8EBD 9341 E4BF 3EC1 7B80 66AB 994A B819 ECAC 0B20 08F6 25CF F6D9 3014 05F0 78CF 6F9A 0332 6653 8430 FF7B 1D0E 5628 681F E827 1380 54D1 5F47 5709 8A9D B47B A2BA 830C AA59 8B6B 2231 A741 9EA0 11A8 ECBA 1582 E6F0 ECD6 CD21 F7BE 0C9C B878 50E8 2E46 77F5 96B5 C46E D136 669A A7F4 683E F707 4264 52AD 3AC8 2CC4 E642 1B74 C104 2E17 6D54 9494 2CA4 4730 C984 5F11 1FCD 6AC0 54F5 D454 4EA2 818F A7A1 E934 19E2 7535 D796 5BDB 98FE F795 B2D6 F320 F030 06F1 023E C3E0 FB4D F119 59ED C0BB 2C12 5323 BA4F 783F 43C5 BCA6 114A 230E 90F6 0150 C058 28C7 E471 EA04 B183 EF7C 6595 377E 3347 63FE F916 3A8B 7B30 4F5C 57CC A327 DB9E E436 0127 09D7 DAAC 7697 2D49 3362 F43E 6A1A 6919 5B4C E378 E625 4881 9A32 B63E A579 3F14 3936 45B5 C64F 6398 8BF2 4DFC AEC9 DDA1 1ADF E0CC 5712 C988 62E0 05B9 14F4 35FD FAB1 3DFE AA6C 2073 A4E7 62BD 817A 8FB2 E6BA 1841 2E1C CBA9 68D2 9D04 5216 C219 3F35 7943 EB61 EA61 A86A D6E5 A92B FD4F 4331 5FE7 FBD1 C2E1 FDB1 02E5 6969 3FB0 591C 1DE2 94EA 0041 21FC 4586 67B7 1C32 F8CA DA7E AC56 9E4F B1AE 0F98 DDF6 8472 862F CD33 027C 403D AD17 3E4A C8E9 36A7 E9F6 5567 9DBE ACC9 82A1 58AD 31C8 5E3A 2679 A7E9 012C 6695 B714 C1F9 EA12 564A 5927 7CA7 7491 E5E6 5475 EC81 3F92 903B A1EA 7FA2 86DA 5693 4F46 D060 6027 4C38 A177 B3E2 FCE2 971B CA22 9A2E CC36 00B6 38FD 0A80 AC54 C439 6A39 36EB 5145 9F6D 9F46 DD97 F14F D56E 500A B201 A608 3A58 F254 BD8B 6438 9B44 FE9B D504 DC1F B990 795E DE28 E408 7BAA 9A88 8E90 A181 F834 5388 E6DE 788B 495D 6A8F EF09 DAFA 511C 4817 41A7 99F3 551D 1C60 8F90 EB4D E196 83E7 C2BA B185 BC66 DD27 65B8 E500 82AC 0427 3532 62DC 2EFE 46D9 25A1 BF4B 8F04 2961 E964 AACD 333D ABFA 9A3C 0577 4ECB D4EC F72B 3136 5F5F 5797 A017 F694 7086 7604 E536 673D 6D85 FCB5 3D7D C212 E5B7 2C32 814C 88FF 5C04 C701 7E8D 2BED 3C64 56C7 806E 24E9 7054 79C5 8BB9 AA6D 40ED 9DA1 7D0E 0B0F F57F D181 0291 A9FB 6201 3318 5445 E080 4C36 3BE6 7B18 E49F 3771 577B 3D17 EEB5 E652 CB9B 4CB8 03BA 64C3 BF3B E31E 6EB2 1048 8E56 6033 9887 9E9C B20B 22E0 9E9E E500 4B5B F867 9DFB D1CF 4EC3 A8F8 E5FB 96FB 3758 D844 85F9 9922 B1C0 0E22 B2CD 554D CEA6 98E8 6D79 277C 65E9 9A05 1DA4 8ED2 8F65 8969 4E2E 0E81 E4E3 0019 105C 6866 8C9D C098 13BE 290A F860 28A4 7930 1007 8284 15AF 6280 B7AC 72E0 965B 3332 F281 ADA7 01FC 1F38 4F8F F9E2 AD3C C683 BE2E 0C1F 5C39 4C53 7EE0 B7C9 D39C 6A6C 6F82 A129 CF13 93D6 187A 4647 34EA EE78 F73D D8B8 7134 E106 BEC5 97E7 1D17 6E98 43AB 1196 112F DE54 8D82 7E34 C122 CBA2 C511 7093 9CAA 9374 E76A 7BDD F03C 6B32 C9C8 F6A1 EF6B FA5C 4A68 CBB8 7D37 0103 EE9A A0B6 D280 998C BAEE FBAD 312A 5E78 EC17 D557 F47D 34C1 E417 681D 80FF D5C8 3C4F CF41 DB1D EA0F C845 44BA 07D6 917B 6127 68EF DB0A C676 229D 41E0 18E3 4D29 8F79 E504 4F87 269C A6E7 6B91 55DD CE99 923C CF7F 0156 6A25 5AEA E069 A2B7 B5BF B7AB 84F8 1FE8 5FBC 7303 F681 7FC2 2E76 E433 859E BF2D 3C14 D082 36D9 47C6 E83D 4C9D 1088 AAC7 03F3 9DE1 A1C0 28F1 3386 1768 CBEB 847D 490B 093F 295E 3B0E 7201 F516 9D98 D6F1 3396 9125 83D9 FA2D D11C 3C2E 0030 114A 394A 3A4A 0885 D2E5 7A62 4452 03BD 7A16 674C FE90 2326 9DB0 82BE EEB4 A35F 3C8A E349 2CAA 77A9 671C A9BA C2C2 F967 C83C 616C E2FB 2FA3 5B26 00DE D265 05D3 A044 1EA6 6D41 36AA 2C65 9B6F FAAF E732 2D64 AC55 554D EB72 478D 9BD4 FC0A 8C21 D47B 571B 45D5 E491 0E1F F8B7 1E97 A253 5E8D 039C 77D5 3845 A1EC 8876 6BCF 1FDF 8A61 356F 21E7 76DB 8D9C CF70 6961 DDB0 5564 66F4 680B FD91 BD3A E4D4 CC51 7781 947E D0F5 D730 5675 A480 A9DB FF9B 591E 40E0 20E2 24A0 26D9 3F9A 5348 F85E BFB6 B8B3 3FEC 6D55 DD76 7FD9 FEDC 7D8D ABE8 6818 D65D C7F3 F319 3F43 86C5 1CDA 5F41 7EB9 B858 C8A4 B0FC A476 7956 D86C 89CE 121D ACFB 612D 8A90 3BD9 370C 3FCB F40B 464A C9B4 2FCF E30D 66FE 290C B2B2 E497 ECD2 31CE 2ACB 94D4 109A C1AC FBA3 9B74 93DD 9166 AA88 46AD 1E8A A624 D3AA 6564 0E9A C625 2CFF 9ABB 5277 E47E 6D71 69FE A7CF DA8C 39FB 6F31 01B9 BADA 058C DE7F 1118 3E47 EFC9 0A6E B8F5 8386 82C2 09EA D0FC 88CE 4482 7A07 4EF4 C314 56F3 9D5F D1F0 E1C9 8460 3EC4 8181 16E8 68F4 109B E0D5 3FEB 1A42 BE6C 16CB 2F5C E719 1497 6E0F C271 492B A154 9861 B579 9DC8 5881 07B9 E2EA BBF8 E24A 95C0 FA08 9E9F C433 AFBD 65ED 759A 4C2C 7348 1FBF 98A3 CCA2 10A3 17D9 334C B7BE 0869 6202 6B41 7A47 701D 0A6E C98E 613E 2FBB D221 FA03 DD9B 5E58 84F6 5E6A 0E68 E9C7 4D07 56DE 7BC0 12B8 4434 9E8B E6F1 E114 9866 FA91 2FAE A253 AB43 79A4 CC3C 9A54 5303 0DF5 53A3 074D A126 366A 0C42 9EAF 7255 22EA C2EF 4C55 349A B599 06C9 8C6A C40E 470D 9E88 FF11 15C0 B472 A8DB 08C9 C67A FDA2 A422 EE4A 8225 00B3 8607 F44F 2B19 4E6C FEDC 9496 8571 91F8 C2E7 C248 2406 EA13 05F8 1EEE 872B CC9F D3B5 CCBD ABE3 29AC B6DE ECA9 92AE 5956 2083 4025 9C98 250D B177 B9CE F3C4 B4BE 4925 0933 67C6 8E5E D75A 385A F78F 9DC9 601C 4591 B40E C721 3EF2 3BF3 5627 34E8 422D 0C2F 84F4 9209 412E FF05 1EF0 5E05 3B1F 7068 5416 237B BF9D 45F3 5BB8 7500 6A82 94D1 E723 91E7 7C1D F48D 40FA 1FC2 CD10 DAF3 2671 77FC 5DE1 9EA8 27EF D323 AEFF 025F 043D 13B2 731F 1EBF AD94 0C5A C323 C5ED D1A6 1F7F 2B42 61FF 68ED 9953 D36A 6EF4 0AC4 DDDA D3A7 CD68 5E4F 71E7 CD12 7D9B 404D DFA8 B6AA C229 AD6C F122 3FD9 6654 C838 18D6 0C01 19F0 A59B 35C4 B8C8 2773 A6A6 837E E93B 8181 6DAB 950D B012 C329 9219 BB35 157B 0E2F B891 08D2 7270 A35B 59CD 37AC 35A5 D621 09DF 7D5C 4F95 2AF4 9343 4E1E C5EA 2725 DFFA 8365 831D 65D1 B1E9 694B A776 F222 343E 5863 E4DA 88AC 98F3 45CC CB54;
