memory_initialization_radix=16;
memory_initialization_vector=0207 030D 0A08 0407 0C0B 0108 0C05 0201 0D0E 0B03 0501 0C04 0606 0209 0D03 040E 0408 0D01 0706 0D0A 0B07 0D0B 0905 0708 0002 0A0E 0A00 0E08 0004 0A08 000C 0501 0101 010D 080A 0400 0606 000C 0300 050A 0505 0908 0103 050C 0905 0C05 0209 0D0C 0204 0403 0B07 0607 0A03 0605 0103 0E0D 070A 0208 0505 0C04 0E02 060A 0600 0A0E 0004 070C 020B 030B 0B07 0308 0D0D 060B 0304 070D 0201 030C 0D07 060A 0D01 0A0C 030A 0606 080B 0503 0008 0308 080C 0A09 0704 0D08 0102 030A 060D 0B06 0A07 0009 050E 0D06 0D00 0C02 0501 0303 0702 0E06 0B02 0201 080E 060D 0A04 0C0B 070B 0A0A 0D07 0503 0904 0E09 0605 0A06 0001 0600 0D02 0A06 0E0C 030E 050A 0B03 070C 010D 0303 0D04 070C 0704 0006 0207 0709 0C07 0C09 070E 0200 040C 0A0C 090A 0105 000D 0905 0400 0201 080C 0006 0C03 0B09 0A03 0507 0506 0209 0602 060C 0102 080E 0004 0A02 0208 0908 030A 0A08 0C08 0E05 0808 0C02 000A 0402 0D07 070B 060B 0D00 0A0D 0B08 0909 0207 0505 0802 0508 090E 0200 0408 0802 0A01 0904 0C02 0608 0608 0C01 0901 0500 0903 070E 0106 0700 0706 0703 0507 0A0A 090C 0100 0600 050C 0C03 0E0D 0501 0305 030C 010D 0A04 040D 070E 0205 0A08 0108 0109 0906 0B00 0A02 0008 0405 0908 0B0D 0D08 010C 000D 0008 0906 0003 0700 020C 0103 030C 000D 0205 0D0A 0D02 050D 000E 0401 0C02 0E0B 0808 0609 0A01 0305 0003 070B 0001 0B0B 090A 0807 0403 0202 0A02 0A04 090B 0B00 0605 050E 040A 0C0D 0604 0702 090E 0C03 040C 000A 0405 0E00 0A08 060C 0103 000E 010D 0708 0305 0D0C 0909 0208 0905 050C 0409 0C0E 0903 0B00 0700 0404 0E03 0A0E 0008 0E00 0A03 0E05 0406 0100 060C 0001 0300 0908 0B0D 0C07 0804 0909 0403 080C 0A08 0B01 0A08 0B08 0808 0B05 0A06 020A 0403 000E 0A0A 0909 0705 0901 0E00 080A 0D05 030D 0509 0002 0702 0800 0707 070C 0B0B 0E08 0805 0008 040B 0506 0101 070D 0E09 0D0C 0803 040E 0600 0709 0C02 0A09 0005 050B 0C01 0300 0700 030B 0D04 0105 0B0C 0706 0000 0406 060D 0203 070E 030E 0807 030D 050C 090A 0D08 0301 0505 0A05 0504 0708 0D0D 000D 0C0B 0C05 0B01 0109 0101 0D00 0A0C 0009 020A 0509 0607 0A0A 000D 0903 010C 0A05 0809 0405 0C05 0202 0901 0904 0A09 0706 0D03 0C0E 000D 0705 050D 0009 0905 0E0C 000C 0D07 000A 0709 050C 0907 0906 020C 0905 0E0E 0304 050C 0602 0D0A 0E04 0104 0408 060A 0E07 0104 0A08 0503 0D0C 0D04 030D 0905 0300 030D 060E 060E 0206 0C00 0E06 0B01 0909 0903 0B09 070C 0700 0E05 0707 000E 0508 090A 0B03 0605 0303 040C 0A08 0C0A 020C 0C01 0501 0408 0002 0A0D 000A 0504 0E09 0B01 0208 0103 0A0A 0407 0C00 0800 040A 0D06 0D0E 0501 0204 0C03 0401 080E 010E 0008 0609 0709 090E 060B 0E01 0608 0C05 010C 0C02 0C0B 0502 0B0B 0B0C 060C 0305 0A0B 0401 0908 0409 0300 0A0B 080C 0B0E 0E05 0906 0009 0009 0208 0D03 0B07 030B 0B08 0D0B 0B08 0E05 010E 0400 030D 080D 0207 0209 040E 0207 000B 000C 0300 0E04 0D08 0B09 0E0B 0004 010A 090C 0C08 060D 0D04 0C05 0006 0B01 0808 0707 0105 060C 0207 0706 0706 060D 0308 0605 0008 0807 0D01 060A 0E07 0E00 0803 0602 070D 0105 0904 040A 0705 0400 0C08 0C03 0C00 0A09 0801 0306 0D0E 0E09 0D08 0C04 0901 020A 0A05 000A 0401 090C 0B04 0904 010A 0201 0107 0803 0508 0C00 0007 0902 0C09 0902 0900 0C07 0A00 0301 0506 0B0B 0502 0004 0204 0D0A 060E 0C0A 0904 0609 0102 0C03 0D05 0606 030A 0C0B 0703 0107 0C02 010E 0806 0201 0509 0D00 0205 0A0C 070C 020C 0706 070D 070A 0B09 0A04 070E 0A0C 0703 0E0C 0206 0D07 0504 0901 0506 0E04 0D0C 0D04 0903 0505 0806 050A 0406 0E0D 0500 0A02 0E08 0C09 070D 0A0B 0D08 0205 0304 0904 000C 060A 0202 0305 0109 0508 040C 0707 0803 0501 020A 0003 0C05 0C0E 030A 0205 0800 0907 0809 0B00 0E04 0905 0D02 0C09 0601 060C 080B 0709 0C06 0102 0708 0A08 0906 0304 0403 0D02 0509 0B04 0A08 0804 0407 0608 0207 0303 010C 0906 0D01 0007 0C09 0A08 0507 0B09 0204 050B 0800 0107 0B09 000B 0601 0201 0509 090D 080E 000A 0903 010B 0504 0606 0C07 0208 0500 0A00 0704 0D02 0904 0504 0D0A 0107 0E05 0009 0D04 0D07 020E 0003 0104 060C 0E0A 040A 0B0B 0E09 000A 0203 0A03 0D05 0B06 0D09 020A 0206 0403 0907 020C 0108 0D09 0E06 060C 0E06 0A02 0005 0708 0800 0E05 0403 0403 0507 0B0A 0D01 090D 0804 010A 0C00 0408 0B00 0C07 0202 030D 0705 0400 0D0B 0B0B 0A04 0B04 040B 0A08 0B0E 0703 060B 0401 0409 0609 0408 070A 010A 0E01 0500 0A0A 0504 0C00 0C0C 0C0E 0609 0002 030A 0804 0A03 0902 010D 0A06 0E07 070C 0C0C 0C08 0D07 0602 000E 060A 0304 050E 0D01 0B0B 0608 0804 0307 010C 0C03 0C03 050D 0204 0E07 020C 0709 000D 0502 0C01 0A07 0A09 0109 0602 010B 060A 0707 0A09 0709 0D09 0504 0208 0806 0B02 0A03 0D05 0B07 0D0B 0809 0000 0D0A 0603 0B01 0408 0909 050D 0801 090A 0702 070A 040E 0A08 0B0D 010D 0A0A 0205 0103 0307 0C09 040D 0C06 0408 0509 0E0D 060E 0405 0B06 0005 020C 0409 0D0A 0C07 050A 0C04 0B04 0B02 0A0A 0A02 0E0C 0001 0904 0E09 0D01 050A 0A0A 0607 070A 0407 0509 0902 030D 0205 0A0D 0408 030D 0409 0506 0407 0008 0504 0708 0605 0304 0B04 020B 0709 0509 0B03 0306 0E0E 0305 0407 060E 0B0C 080E 040E 0205 0A05 0003 0E0A 0C00 0505 0C04 0D08 0B00 0209 0309 010B 0A06 010D 0303 0C0E 090E 0702 0C0C 0703 0600 000B 0B0E 0405 0B07 0D02 0700 0604 0E0B 0C02 0206 0A06 0C08 0E06 0601 090D 0B07 0602 0701 0B09 0607 0406 0A06 0E06 0305 0801 0107 0E0A 0300 0A01 0C07 0206 0E01 060D 0B06 0502 0607 0C04 0800 0A0C 0B09 0C04 0100 0D09 0A0D 0304 0007 0806 0502 0B00 0304 0702 080D 0B08 0109 0E01 0D08 080E 0601 0D0D 0303 0107 0D02 040C 0C00 090D 0502 090E 0901 0407 0404 0C09 0D09 020E 0E05 010A 0906 0005 0D01 0A0B 0404 0B0C 0C0B 0503 040B 0904 0508 0C08 0702 0902 060C 0504 040A 0E09 0E06 040E 0805 0203 0206 0E0C 050E 0A0D 0A00 0D0C 0B0E 060D 030B 0D0E 030D 0D0C 0D0B 0804 0E06 0C0B 0706 020B 0506 0700 0404 0E09 0D09 060D 0D08 0909 0902 050B 0C0C 0205 0301 010E 0604 0401 010A 0C0B 0504 0401 0302 0106 0E08 0903 080D 0607 0C00 070C 020A 0300 0608 0104 0A01 0104 000C 0C09 0A00 000D 0001 020D 0A00 0300 0E00 0A00 000D 090B 0A00 0905 080E 0302 0203 080C 010A 0B04 0C0B 0904 070D 0908 050B 040C 080E 030B 0A05 0B03 0309 0800 000A 040B 0D0C 0C07 0C01 0C0B 030E 0C04 0701 000B 0607 0701 0B07 0C0D 0E03 000C 0301 0202 040B 0A06 0C07 0102 0004 0C05 000E 030A 0600 0E05 0E01 0C0B 0406 0B07 0E0C 0304 0D05 0701 080B 0306 070B 0E0D 0C0A 0108 0B03 000B 0800 0E01 0109 070A 000E 0002 0B01 0901 0C0B 0103 060B 0E04 030E 0C07 0B03 0C09 060B 0709 0E07 0D00 0509 0004 0604 000B 0703 0401 040B 090A 0501 0807 0A03 020B 090E 0405 0A0C 050C 0209 070A 020B 0809 0A02 060A 0503 080C 0C03 060C 000B 050C 0506 0203 090B 0403 0505 0205 0802 0801 0D02 070E 0A0C 050A 0003 0607 0E0D 0100 000C 0802 030A 0801 0105 0201 0E0D 0303 0206 0703 0008 0102 0501 0001 090A 0A0C 0008 040B 0705 040E 090A 0B04 0201 0A02 0800 020E 0203 0A07 0A01 0709 0304 0E04 020E 0608 0500 0C04 000A 0106 0004 0204 0403 0403 0706 030D 0509 0006 030D 0C0E 0C09 0A03 0E0C 0706 0E08 000A 0903 0B0D 0902 020A 0E0B 0B0D 0D03 060D 0303 070B 0A01 0005 0306 0309 0D0C 0201 0E03 0B09 0106 030A 0007 0E0A 0E03 0304 0208 0606 0207 0E00 0408 060A 0002 0E0C 040E 0E09 010C 0802 0007 060A 0903 0608 0101 0E08 0D00 0C09 0906 0106 0D0B 0A0D 0907 0509 070C 0A05 0602 0904 0A0D 060C 0A0D 050A 0509 0D07 090D 0905 070A 0203 0B09 0305 020A 0909 0009 0E08 0003 0104 0C0C 040B 0106 0A00 010D 000E 0D07 000E 0908 0103 090E 0C05 010A 0104 020C 010D 0507 0200 020C 0005 0A00 090D 0D03 010D 0900 0D07 0D00 0008 000D 010B 0405 0608 0809 070B 0C0A 0603 0306 000D 0E03 070A 0105 0408 080B 0E07 0209 010B 0006 0E08 0105 0509 0902 040D 0B0D 0A08 050E 0A04 0901 0108 0605 030D 0603 080D 0C09 0207 0405 0300 010C 000C 0406 080D 0602 0507 080E 0B01 0402 0209 0704 070E 0B09 0206 040E 0801 0C0E 0D05 080A 0E00 0E01 0E0E 0506 0C07 0D05 0406 010C 090D 0D07 0E0C 050C 0005 0E0E 090D 0B05 0A08 0904 0D01 0800 010B 050C 0C05 0304 0500 0105 0D00 0B05 0409 030B 0A0C 080A 0103 0509 0B07 0D06 0406 0605 0206 010A 0707 070E 040E 0A02 0302 0809 0101 0302 0A03 080B 0609 0E0B 060C 080E 0309 0907 000E 0507 0B0B 0402 0500 0303 0209 0E0D 060B 0B05 0601 0D0A 0907 0705 0603 000C 0800 060B 0609 0C02 060D 0206 0306 0305 0D06 030D 0608 0305 0C00 0B08 0C04 0E05 0201 0507 0908 0403 090E 0804 0D0E 0501 0703 0900 0D0B 0500 060E 0C0D 0E06 0105 0A0E 080B 0C00 0D01 090D 010C 0C08 0B04 0902 0B04 020E 0D04 040B 0902 010B 0D00 0E04 0802 0605 0207 0E04 0B07 060E 0A0E 0B01 020A 0A07 0909 0407 020D 0B0B 0009 0A05 0C09 0C0A 0A08 0306 0305 0C03 0A0C 0B0E 0E0E 0C0E 0C04 0B0E 0B0D 0902 0E0B 0E09 0602 050B 0B0B 010B 0D01 0909 0E0A 0A00 0500 0E0C 020C 0C0B 0D09 0306 0306 0C0D 0805 0000 040A 0707 0309 060E 0907 0A07 0608 0D0B 0D0C 030E 0D08 0D08 0B06 0102 0501 000C 0407 0B0A 0603 050A 0E05 090E 000A 0B07 010D 0A0C 0C0E 020E 0107 0208 0901 0205 030D 0C0E 0B01 020B 0108 0B0E 0700 0E08 050C 0E02 0A00 0806 0A03 0500 0204 0706 020A 0B06 0601 0301 0702 010C 0E06 0D00 0304 040E 0002 0202 0703 0303 0705 050A 0209 0A0A 0E05 080B 0602 070C 0D09 0A06 0B0B 0A0A 0B05 0005 0A05 0401 0501 0505 0B00 0100 080A 0001 050B 020A 0D02 0B0C 0E0D 0806 0302 0508 060E 050B 050A 0300 0B03 0204 000E 0D0D 020A 040E 0205 0C02 0204 0D03 0B05 0007 060B 0D00 0D02 0007 020D 070E 0B00 010A 0503 000E 020A 0908 010B 0A05 0904 0C02 0D05 0204 0708 0108 040A 000E 0904 000E 020D 0607 0908 0401 0201 010C 0301 060B 0900 0B06 020A 0301 0106 040B 060A 0902 0600 0C0C 0C04 0E06 0C00 080D 0B0A 0B0D 000B 0C02 050A 0A03 0C0E 0D0B 0C0E 0105 0909 0609 0704 0500 0802 0509 0500 0D0B 0302 0308 0A07 0D0A 0301 090E 0C05 0705 0E0C 0E08 0204 0E0C 0906 0E07 0002 0C07 000A 060A 0E0D 0305 0808 0A08 0803 080B 080E 0906 020B 0E00 0B09 0406 0008 0907 0005 0807 0C09 020E 0E04 0709 0A09 0300 0E03 0208 0708 070C 0B00 0303 0904 0800 0303 0701 0406 0B0E 0B0B 0D07 0D01 0E03 0504 0D0D 0A00 0C06 0609 090D 0806 0009 0C02 070D 0D0E 050E 0606 0602 000D 0B04 040C 0008 0C02 0C02 0108 0907 0C0E 0307 0205 0901 080B 0807 0D0B 0900 090A 0A02 0D01 0D04 0001 040A 0704 0701 0002 090D 0201 0D0A 0D05 0A01 0A0B 0B01 0701 0700 090B 0E0D 0609 0B0A 0E04 0700 070B 0B0C 0B07 0C04 030D 0E00 0301 0505 0B08 0903 0D06 0304 0705 080A 0D00 0D0B 0E05 050B 0A02 0700 0B05 0401 0800 090C 030A 080E 010B 0E06 0B0C 0003 050A 090A 0809 0107 0400 0B06 0B08 0002 0500 0D01 080C 0901 0A04 090C 000A 0905 0209 0D0E 040C 0B0E 0D0A 0D0B 0105 030D 000D 0907 0901 0E06 030E 0502 040B 080A 0902 0E0C 040D 0C08 0C07 0A0D 0002 0D0C 050E 0104 0305 0706 0C0C 0404 0705 0304 0008 0907 0104 030A 0103 0D00 020A 0604 0504 060D 040A 030C 0E01 080D 0002 0C03 0609 070E 0501 080D 0A0E 0404 0606 0E0B 0A05 0205 030D 0E0A 0605 0D01 0704 0D0D 000D 070A 0B01 0603 0E05 0B05 0306 0C06 020E 0B0C 050E 0608 0E05 0E06 0B07 0706 0306 010E 0803 020C 090C 0300 050B 0504 0E0A 0003 0606 060B 0907 0A00 050B 0300 0D04 0C0A 0D0A 0C06 0B05 010C 0303 0004 0E02 0B09 0901 0B05 0901 0406 0102 0E06 030C 0500 0304 0800 090E 060A 0D0B 0C05 0202 000E 0A06 0900 060B 0C0A 050D 0A0A 000C 000E 0400 0909 0E00 0503 0802 090E 080D 0D0B 0500 060E 040A 0804 0406 040D 0308 0D08 0D00 0608 0406 0C0B 0B03 0103 0803 0001 0A03 040E 010C 0103 0302 060A 0503 0E0A 050A 0708 0004 0A0B 0500 0008 0B03 0400 0506 000E 0E08 0A08 0202 0B0C 050B 0000 0A0B 0000 0706 0C04 0103 0D00 0D01 0E07 010E 030B 0B02 0D0A 0804 030B 0D0E 0E04 0008 0400 040A 090D 0105 0B0D 0E0C 0808 0605 080E 0102 0204 0803 0207 0C03 0D0E 0B08 0D06 070D 0100 0105 0404 0C08 0B02 0D01 010C 0E00 0A03 090D 060B 0E03 0D02 0903 0507 0E00 0201 0602 080B 0701 0006 0C05 0409 0A0B 0A08 0A09 0009 0509 0409 000E 0401 0400 0505 0C07 0C0E 0B08 0B00 0D0A 070C 0501 0104 0109 0E0D 0E02 0903 0B0A 0507 0504 0105 0B0D 0A0C 0308 0008 020A 0304 090B 0906 0C0C 0D0A 0303 0805 0D03 0D0A 0D0B 070B 000A 060D 0806 0104 0302 0E05 0D0E 0404 0E0E 0302 040A 0C02 090D 0B03 030D 0B05 0201 060A 0206 0D02 0000 0501 0E05 030D 0103 0500 090D 0803 080C 0305 0109 0C02 0903 0E0C 0401 0C04 0008 0905 0D03 000B 0D09 0806 0E0D 0B04 0901 0B07 040C 0909 0B09 000B 0206 0705 0905 0600 020D 0800 0E00 0603 0D0B 0C0A 0C05 0D04 010E 0801 0002 0C07 0702 0C09 0300 0B0C 0403 0B0D 0B01 040D 0E06 0A09 0000 0101 0E08 0900 0D02 0A06 0507 0C01 0C00 0207 0608 070B 0A00 030C 0505 0B04 0805 0B08 0702 0B0E 0C0E 0602 0701 030E 0B00 060D 0904 0C04 0C02 0009 090D 060C 0B0B 0507 060A 0404 0209 0205 0101 0405 0301 0C01 0306 0508 0402 0B08 0A01 0203 0E02 0E07 0401 050E 0102 0005 0D00 0804 0605 0E0D 010C 0303 080D 0606 000B 0007 080A 0606 0203 020C 0602 0E02 0903 0B03 0308 080C 0909 080E 0300 0309 0E00 0B08 0A01 010C 0E06 0C0C 0409 0403 090E 0201 0908 0602 0E08 0E05 0A00 0408 0606 0B04 060A 0001 060E 0C00 0201 0C0E 0101 0A0B 0407 0E0C 0A00 020E 0904 0E03 0605 0D01 0C01 0E01 0006 0405 0809 0D0C 090D 0D03 0203 0A07 010A 090E 0608 0109 0E00 0C02 040A 040D 0C00 020C 0507 0208 070E 0405 040C 0D08 0800 0907 070E 0606 0605 0E0D 0508 0D04 0608 0200 0C07 0D01 0909 0501 0B0E 0205 0E06 040E 0803 0902 0E09 0203 0304 0D0D 0101 090A 010A 0608 010D 0A0D 080D 0E0B 0505 0C03 0509 070D 0105 0306 0703 0502 0308 040C 0604 0A0B 070C 080E 0709 0D07 0B09 080E 0507 040C 0402 0C00 0C0C 030A 040B 0701 0E01 0802 0B0D 060C 0006 0802 0304 0908 0102 0805 0A04 090E 0407 0208 090D 0C0C 0D03 0403 0108 0D04 0A0C 0305 0706 0C01 0007 060C 040D 0103 0700 0006 0708 0B01 0A06 0605 0202 0503 0201 0203 040C 0B0C 0205 0805 0507 0C0E 000B 000B 0206 080E 0E0C 020E 0B00 060C 0D02 0D0C 030C 0E01 0407 020A 090D 0C09 0A04 0C00 0608 0D07 020D 0503 040A 0105 0B09 0405 0A01 0D05 0804 0001 0B01 0E0E 0901 050B 0008 0009 0208 0A05 0603 0B06 0604 0208 0701 0502 0B03 0E0D 0E0B 0E06 0E0A 0503 000E 090A 0806 0406 0103 080B 0D06 0C05 0402 0E06 0501 0600 000D 0008 050B 0B07 0603 0E08 0301 0908 0305 0206 0409 0308 030B 0C0B 0204 0708 0A00 0E09 0609 010D 0808 0A0B 070A 0700 0702 0C0D 0303 0D06 0804 0402 0000 050D 0105 0808 020C 090E 0201 0E09 060C 0D03 070A 040D 020D 0405 0D04 0B0D 080C 0C04 040E 050A 030D 0C0B 0707 0400 0D01 0506 0007 0309 000B 0108 0D0B 070E 0C09 0E06 0409 0000 030A 030B 0608 0B02 0002 0C0B 0C07 0A03 0000 000B 0804 0205 060A 080A 090D 0D08 010C 0101 080C 0A02 0907 000A 0406 090D 0E0D 0B08 0B02 0902 030A 040A 0D00 0D0D 0103 030D 0D07 0900 0B0A 050D 0501 0B0B 0701 0603 0A05 0101 0101 0104 010A 020A 0A09 0E0E 0804 040A 0707 0203 0D07 070A 0501 010A 000B 0307 0B05 050B 0604 0500 010C 060C 080C 080B 090A 0301 0802 080A 0C05 0904 000C 000A 0D00 0908 0300 0602 000B 0C02 0203 0B08 010A 0902 0403 0808 0B01 0B07 0C05 0D0E 0604 0805 0405 000B 0205 0A09 0806 0C0C 0E0A 0B05 0302 080E 060D 040E 0507 0008 0005 0C07 020D 0C0B 0A04 050E 0005 0704 0704 0003 0609 0A02 090E 0D0A 0703 0A0A 0002 0509 0908 0209 0D05 0E07 0404 0C01 050A 050B 0704 0207 0102 000B 070C 0B0E 0D02 090D 0303 000E 0105 000A 0609 0100 0A0B 0B0B 090C 0E02 0800 0B0A 010C 0E05 0B0E 0908 0E00 090C 0005 0609 080C 0401 0B03 0700 0803 0A05 070B 0902 060D 0B01 0E08 070B 0605 0D0B 070E 000B 0A07 0108 0706 0A0C 0B02 0801 0C09 0107 020A 0708 0E0D 0607 010A 0B06 0A04 0B01 0A0B 010E 0305 0C05 0606 0801 0E01 0002 0106 010B 0B0D 0E03 0B0A 0C06 0C0E 0406 0300 0108 0704 010D 0307 0E06 0B01 090C 0D06 0009 0B08 030A 0802 0D03 0007 060B 0200 0802 0D03 0306 0C07 0800 080A 0207 0C03 0C02 0704 0506 0108 0E0E 080A 050C 0B09 0605 0E0C 0503 0106 0B01 090C 0500 0008 070A 0A08 0204 000A 030A 0002 0C07 0800 0402 0E0E 0308 020D 0D06 0B00 0400 0A0C 0B0D 090B 0206 0503 0504 0802 0D02 0700 0E0D 0104 060A 0902 0904 040A 0E0E 0705 0B0C 0204 0905 0B00 0009 0803 0300 0E04 0403 0202 080B 0A01 0D0A 0105 0404 0D09 040C 0602 0C0C 0905 0D08 0C09 0905 0600 0709 0607 0607 0A04 0D0E 000D 0B0A 040A 0700 0002 050A 0A0C 0808 0C0B 0301 0007 0D05 0202 0205 0109 0909 080C 010C 0001 0000 040C 0600 040C 0D0C 070D 0A03 070C 0B00 0508 0902 0E0C 020C 0C07 0608 0E08 090C 0C0A 0D02 0807 0801 0C0C 0B04 0102 0206 0700 0202 020B 000A 0B03 0005 0C0D 0D08 0A0C 0B04 0E0E 0401 0405 0E06 0703 040C 0D01 050D 0209 0B0D 0D0D 0E03 0705 010D 0D0B 050D 050A 080E 020B 030E 0D0B 0B0C 0B05 0C0B 0D0A 0507 020D 0B08 0204 0005 080C 0B06 040C 0E04 0C04 0D0B 0D07 0603 050D 0009 010A 0504 0104 030C 0E09 0609 0801 0E05 0A08 0E0C 030D 0300 0C04 0205 0602 0109 0106 0A0C 0705 060C 0607 0905 0C07 070E 090C 070C 0705 080C 0400 0506 0B08 010C 0D0E 0505 0B06 0C02 000C 0E0C 0E0D 0207 0601 0E01 0901 0505 0C0E 0E0A 0904 0604 0C08 0107 0C07 0407 0402 070D 0B04 0400 0205 070D 0408 0808 0102 010D 0C03 0000 0900 0102 050D 010E 0701 0007 0E07 0808 0E08 0901 0E03 0C01 0A08 050C 0200 040B 0604 0204 0C05 0E00 0C0C 0603 0107 0E09 0E02 0E06 0406 0107 0906 0A02 0305 0000 0D0A 0709 0606 030A 0504 030B 0606 0007 080C 0606 0105 0E08 0406 0008 0B04 060E 0C0D 0302 0109 0804 0D00 0D01 0701 0800 0308 0901 0E09 0001 0008 0500 080B 0001 0D0A 0A04 0709 040C 0207 0108 0003 0307 0307 0001 0B02 050A 0801 090C 0000 0303 0109 030E 0A0E 0C05 0002 0608 0309 080D 0006 0703 0604 0300 0C03 0A02 0703 0D0B 0B00 0504 0804 0208 090E 0903 0E02 0D04 0C0C 0A07 0E0D 060D 030A 0B00 070C 0506 050C 000B 0505 0C03 0E06 0804 010D 0500 090C 0E06 0B00 0903 020B 0B02 020A 0104 0B03 0203 0B06 0405 0C0D 0602 0909 0709 0A05 0C0C 0807 0A0A 0808 010A 0B0B 0308 070A 0008 0209 0703 0D0B 0401 0406 0307 0508 0A0C 0503 070D 0D00 030B 0D05 0B01 0207 0E0B 0400 080A 0604 040E 000A 0500 0401 0D0B 000A 0B0B 0607 0B0C 0E0A 060B 030D 0C0E 0207 0B0A 0E06 0003 060D 0806 0605 0703 0204 0A0D 0800 0406 0002 0A00 0209 0600 0804 090E 090B 0D09 0B0E 0B0C 0A08 0708 0E01 080C 0008 0301 0904 0C04 0503 0808 0A0E 0806 0608 030B 0905 0508 0409 0B09 0D00 0403 0E02 0B07 040C 0B09 0609 000C 0C04 0901 0D06 0300 0304 0E00 0D04 0503 0205 070A 0102 0A0B 0B02 0C0A 0B09 080E 0406 020E 0D0C 0E08 080B 0805 0008 0501 090E 0101 0705 0B0E 0409 0C06 0002 010B 020A 0106 070A 080E 0A03 0200 0D04 0100 070C 0E09 0802 040B 0B06 000A 0104 0C04 0801 0B02 0D02 0106 0706 0608 0204 0208 0C0B 0C03 090D 0B0B 0B03 090D 010A 0106 0508 0A03 030E 0904 070C 070E 090C 0309 0E02 0505 0E0D 040C 0007 0209 0B01 0402 0D06 0308 040E 0209 0C05 030E 0D08 0B0E 000E 080B 0E08 040D 0609 0900 0C0C 0E02 0709 0701 0E01 0A04 0503 010D 0007 0702 0B00 0402 0B0D 0204 0200 070B 0508 0807 0007 0B0C 0709 0C03 020B 0309 0106 0001 0003 0C0E 040A 0807 0A07 0500 0C03 0205 0909 0002 0407 0E0C 0B05 0708 0809 070C 0D04 080E 0C0E 010C 0C08 0907 0D01 0300 0A07 020D 000E 010B 0900 070C 0301 0506 0E00 0502 0A0A 0003 070B 0506 0001 0D06 0E01 0005 0106 0E0D 0807 0E0E 0E02 050E 0E01 0009 090E 0D08 090E 0C04 060E 0B03 0B04 0500 030D 000E 0904 0800 0709 0103 0406 0402 090A 0100 0D07 0A08 0708 060C 010D 0D0A 080B 070E 0303 0C0E 050B 0C0C 0803 0D0C 0809 0D0E 0705 0803 0A0B 000A 0504 0C03 070B 0305 0401 0206 0908 0207 0C04 0A02 0A06 0B0E 0C01 0207 080A 0207 0406 0904 0403 040A 0603 0E04 0B0C 060A 080B 0E03 0107 0709 0008 0A01 0A07 0C04 0307 060E 0700 040A 010A 0608 0006 0D0E 0B0A 0704 0708 0303 080A 0907 0306 0E05 0E04 070D 0E00 0C08 0009 0409 060D 0A07 0B01 0107 0700 0405 0407 030C 050A 0202 0A01 070B 0502 0E09 070E 070A 0504 0508 0E0B 070A 0901 0D0C 0501 0608 0601 040C 0901 070E 0A04 0901 0D07 010B 0301 0205 0800 0908 0107 0C07 0C09 0905 0E0A 0805 090B 0C00 0D0B 070B 0407 0B08 0302 0508 0300 0409 0401 0E0E 0707 070C 0806 090E 0B03 020C 0B07 000E 0104 0502 0200 0106 060E 040C 0305 0209 000D 0700 0207 0B02 0304 0900 000A 060E 0A06 0705 0707 0A08 0509 0607 0009 0D04 0B03 0D03 0507 0708 0700 0109 0C08 030B 0202 060A 050D 010A 060D 0201 0203 0802 0A0B 0A03 0B07 0800 080D 0B07 0101 0E05 0403 0E01 0005 070A 030B 010C 0001 0E0B 0302 0D03 0A01 060B 040E 0802 0D0C 0506 0002 060C 010A 0106 080E 040C 0305 040C 0102 0101 0A03 0C09 0306 0D08 030E 0206 0402 0601 0906 0304 0602 090D 040D 0A09 0B05 0D0B 0309 0000 030D 0603 060E 0E0B 0C0A 0B0B 0109 0A03 0306 0907 0308 0006 0D08 0004 040E 0108 0502 000D 0D03 0C08 020C 0602 0709 0B07 030C 0201 0E0B 0803 0E0E 0400 0709 0B05 0805 0D02 080E 080E 080E 0203 0603 0004 0205 0101 0501 0509 050E 0604 0300 020B 0505 0C02 0C05 090E 090B 070A 0D0C 0408 0B0C 0301 080B 0102 060A 0406 0703 0902 090A 0201 0D04 0008 0009 0508 0409 050B 080C 0A00 0803 0E0E 0202 0A07 0B09 0B07 0E04 0504 0D02 000E 0A0B 0D0D 0D0B 0003 0C0A 080A 0D0C 0A0D 0504 0606 0201 0A0C 040E 0B0B 0E04 0A03 0A0E 030C 0805 0205 0205 0D0E 0003 0506 0408 0704 050D 0909 030E 0B0B 0900 0307 0401 070A 010A 0307 0E07 0A02 0100 0A0A 0D02 0B00 020E 070A 0805 0409 030C 020C 0607 070C 0003 0206 0D09 0E0A 0001 0A06 0503 0206 0800 0404 0A0E 0A04 0C0A 000E 0909 0E0E 0208 010E 0B09 0A0E 0301 0208 0B09 0A0A 0600 0405 0C04 0808 0D0E 0500 0B08 080B 0909 0104 0D07 0507 0801 0303 0702 0909 0102 0503 0C06 0D0C 0C04 0509 0904 0B06 0405 080C 0A07 0D0B 060C 0202 0C08 0301 000C 0A06 0E04 080E 0606 0502 020D 0306 0B0A 0409 0006 0B05 0600 0D0E 0006 010E 0C07 0900 0E05 0309 0B01 0605 0405 0D0A 0402 030C 050C 0B01 0A09 0B0C 0403 0300 0C01 0D03 010A 0C07 0B0B 0502 070C 0005 0108 0704 0D0C 030C 0C0C 050B 0D0E 0309 0805 090B 0E06 040A 0505 0706 0702 080D 0B07 0801 0D0E 0702 0409 0805 050E 000A 0800 0309 050E 0404 010B 0807 010A 0404 0E07 0504 0B05 0805 0E0E 0603 030A 0309 0308 0803 050B 0C0B 0708 0804 000C 0E07 0B00 090A 0D03 010A 0606 080A 0903 0E07 0D04 0503 050B 010D 090A 0C00 0C00 080D 000C 0E00 0605 0003 0204 090B 0C03 080C 0702 0A08 0A08 0704 050D 0D04 0600 0904 0906 0704 040E 0E0A 0A02 0109 0803 0506 0D02 030A 030E 0704 0308 0606 0D08 030B 0B05 070A 0D04 0601 0405 0803 070B 030B 0908 0A08 0800 0E04 050A 0303 0805 0104 0801 0309 0200 0E02 0B0C 000E 0407 0701 0E03 030D 060A 0C01 0E06 0909 0607 0402 0B01 0B08 0E0A 020D 0205 0406 0C0A 070C 0907 010B 0700 0600 0108 030A 0801 0B00 0508 0C00 030B 050D 0B08 0B0C 0506 0C05 0E02 0602 010B 0009 0D0A 020E 0C0E 0C0E 0301 0906 0D01 0A05 0107 060C 030A 0D0D 0302 020A 0102 0707 010E 0A0E 0501 0C08 060E 0C06 0703 0606 0302 0A02 030E 050A 0507 0E02 010D 0702 0B0C 0503 0701 0608 0A0D 070E 070D 0506 0601 040E 0500 070C 0908 0901 0309 0204 0103 0701 0A05 0C06 0109 0B04 0206 0C09 0C06 0E02 0908 0207 0508 0603 0504 0001 0203 0303 0907 010B 0204 0003 0404 0105 0B0B 0700 0709 020D 0E07 0D02 0203 060D 0407 0102 0802 0A09 0709 0E02 080B 000B 0507 0804 0D02 0E07 0603 010B 0D00 070D 0E0A 060B 0409 0A08 040D 0205 0B09 0C09 0603 0502 0D0A 0B0D 0400 0905 0A08 030B 0408 0309 0C00 0905 0D09 0001 0E05 0A07 0A00 0600 0503 0908 0307 0006 010D 0E04 0B04 0808 0C03 0C0D 0B03 0609 050E 0A07 0A0B 0C00 0D0D 060C 0205 0703 0806 0001 0900 0B04 0A0D 090B 0502 0203 0505 0300 0708 0800 0B04 0E0B 0E05 0B0D 0A08 0003 0C05 080B 090B 0E04 0B07 0709 0A00 0106 010E 0E02 0402 0A0D 050B 0D0A 0807 0A0A 0901 0C08 0900 050A 050B 0B00 0503 0C0D 0D04 0600 010A 0C0A 0E02 0101 0B07 0507 0B04 0404 0900 0702 0304 0201 080C 0A03 0D0D 0B0D 060B 0201 0805 0A0E 030E 0A07 020E 040C 020D 0805 0301 0D06 0101 0806 0007 0909 0C0B 060C 050C 080A 0E08 0A06 0B09 0205 0607 0802 0202 0E0D 0505 0803 0A05 0B01 0107 0E06 040D 0504 0C0E 0C01 0B06 0B09 0E09 0A00 0B07 0C06 0D08 0B01 0708 0C06 0107 0D0A 0901 0107 0003 060E 0709 0904 010A 060E 070A 0408 0A03 0003 0A07 070A 0707 080B 0603 0E06 0603 0208 0A0E 0D06 0405 0005 0501 030B 010E 0509 010A 0805 0203 0604 0E0D 0B0D 0904 040B 0109 0900 0802 0903 0C04 050D 050C 0E06 0D06 070A 0103 0C0B 0B01 0A0B 050A 0205 0C02 0403 0202 0608 060D 030A 0208 060E 0E0C 0208 050A 0A0B 0403 090A 0505 0204 0E04 020B 080B 0A0E 0808 0707 0807 090B 0201 0E0A 0603 0808 0507 0D02 0B0A 0B07 0808 0C06 0504 0C06 0907 0006 0401 0C00 0D00 0A07 070D 030C 0400 070D 0301 0103 0A02 060A 080A 0201 040D 0702 0607 0C00 0C02 0303 000B 0103 0E03 0E0A 0900 0807 0E09 0006 0C03 0D0D 0B09 0B01 0B06 0C01 0807 0207 0C0A 0503 0D0A 0801 0A0E 0C04 0709 010C 0500 0706 0208 0204 0909 0A04 0C05 070E 0E07 0C0C 0D08 0306 070A 0D08 070E 0101 0703 0709 070D 0004 0001 040A 0208 040A 070D 020A 0C0B 0A0D 0400 0906 0402 0004 0A06 0102 0D0C 0E0D 0705 0705 0602 0703 0208 0607 0C02 0104 0603 0301 040D 0A07 0500 080D 0D05 010C 020C 030E 0606 0405 0201 0A0D 0801 070C 0709 0B0A 0506 090B 0C0B 070D 0107 060A 0907 0D06 010A 0901 0A02 0509 020E 0E03 0207 0E0B 0E03 0900 090B 030D 0D01 0904 0807 010E 0808 0306 0807 0C01 0109 0B0C 080C 040B 090C 0209 0A09 0208 0700 0D09 010B 0100 0708 0101 0600 0D09 0701 0A0A 0400 0206 0C05 050B 0707 0B0B 0908 0607 010A 0904 0E0A 0901 0404 0305 000B 0C06 0700 0C0E 0D01 0A05 0A09 050A 090E 0C03 0609 010A 0600 030C 020B 070E 090B 0405 0B04 070D 040A 0605 0D02 0103 0604 0C04 060E 0709 0900 0007 0709 0D03 0C0E 0206 0B0C 0A02 0406 030D 0104 0605 0706 0E0A 0502 0703 0603 0006 000A 0006 0E06 000E 0B05 0C03 0602 0A03 0000 0B02 0703 090E 040B 0C07 0C09 0E03 0C00 0B0A 010D 0E01 0002 0802 0407 0D0E 0E09 0D08 0405 0109 0807 080E 0E04 0204 0101 000A 0804 0B07 0204 060C 0D0B 0901 0805 0105 070B 000D 0406 0703 0A09 0D0A 0208 000A 0800 0705 0107 0D06 0005 0903 070E 0009 010D 040E 0D04 0008 0206 0C01 0B07 0104 0903 0B0B 0A03 0005 0E00 000D 080A 0E01 0A0C 0703 040A 0905 0000 0D04 0704 0005 0704 0207 0E02 010E 0100 090B 0300 0206 090E 0C05 0300 0705 0B02 0406 0D01 0A05 0C0B 0C0C 0903 0D02 0306 020E 0B01 0706 060A 0D00 0C0B 0206 0303 0B04 050E 010C 000C 0500 0905 050A 0007 0D06 0D01 0803 000D 0807 0304 090B 0E0D 060B 0209 0C08 0207 0C0B 0908 0401 0602 0903 080E 0D0A 0D06 0204 040B 0007 0902 0007 0107 0B01 0C09 0808 0202 000A 0102 0107 0505 0009 0A00 0B08 0104 0500 0901 0A0C 030E 0509 0607 0D09 0501 0501 0D07 0A04 0701 010C 0E0D 0805 000A 0B08 0701 0A08 0108 0A05 0D02 0406 0C05 0808 0608 0404 0200 0A02 030D 050A 0D04 0609 0C03 0900 0500 040A 0C0D 0306 0607 0B08 0009 060D 080A 080A 0D01 0307 0506 0E0E 0403 040A 080A 050E 0402 0B08 0D07 0E0B 0D06 090E 020B 0B04 0E08 0307 0409 060A 0703 0606 0801 0300 080A 0A0D 0A0B 020D 0400 0900 0207 0105 0909 030B 0C0E 0607 0D02 050C 0401 0503 090D 0806 0005 0E09 0508 060E 010D 0E0E 0009 010E 0E07 0204 0E0D 0103 0402 0507 0C07 0300 0005 0D0B 070C 0005 0C0D 020B 0301 0408 0C05 090C 060C 0209 0507 050E 0706 0B03 0904 0705 0006 0401 0209 0607 0E08 010C 000B 0001 0904 0C06 040A 0706 0C0A 080D 0908 0B08 000D 030A 0605 0906 0408 0608 0405 070B 0B0C 0A09 0708 0D08 0302 050C 0C0C 020A 0307 080C 040C 0A09 060B 0101 0707 0C0E 0A0C 030C 0804 070E 020B 0C00 0502 0E09 0100 0007 0E03 030D 0209 010C 0C0D 050A 0D00 010A 0C0B 0C02 0404 0101 0205 0604 0D04 0106 060E 020B 0308 0805 0403 0E00 0E08 020E 070D 0209 0801 080C 0003 0203 0E0E 0503 000C 0602 0003 0E0C 0A07 0B0D 000B 030D 0100 070A 0102 0700 0205 0B08 0900 0E0E 0C09 0A03 090E 0E03 090E 0900 0606 0E03 0D01 0A0E 040A 050D 0507 050D 0D05 050E 050E 0A07 0207 0006 0805 0007 0D04 0A0A 070C 0408 0E09 0703 0508 060C 0405 020A 010E 0705 020D 090A 0800 0A01 0D0A 0001 0E0E 0701 0203 0B02 020D 0807 0D08 0E0B 0704 0601 060A 070B 0C00 0C02 000D 0504 0104 0A07 0809 0505 0105 0A09 0A02 0E08 0406 0A01 0A0D 0901 050B 0204 0D0D 0409 0B04 0B0B 0601 0503 090C 0009 0C0C 0000 0A0C 0E03 0D07 0807 0208 0402 060B 090D 0809 060D 0807 0503 080E 0C0D 0E0D 0C0C 0509 0B0A 060B 0C0A 050B 0A07 0C08 0607 020E 0B0C 0808 000B 0303 000E 060C 0B06 0C08 0202 070C 0A0C 0901 0B0C 0B0C 0908 0002 0801 0205 040C 0A00 0609 0800 0601 0C04 0605 040D 0809 0E09 0605 070E 0508 0202 0B04 0000 0D0B 0209 0D0C 0504 0C04 0E03 0A0A 0C05 0E02 0709 0D02 0D02 0105 0701 010E 0A08 090B 0C07 0B00 0100 0401 080B 070A 050E 0801 0C01 0D05 0601 0103 0008 010E 0607 050C 0204 0209 0202 0409 080C 000C 0803 0309 0402 0E06 0907 0405 0A04 0A0E 0502 0601 0804 0904 0D07 0903 090A 0409 040B 0003 0D0C 0D04 0C05 060E 0902 0C03 0203 070B 0B0E 0500 000C 0C06 0B08 0801 0407 0606 0B0C 0806 050B 060C 0A04 0A08 0402 0A04 0305 0C03 0C09 0B0D 0909 0604 0306 0808 0301 0208 0E08 0502 0705 0700 0804 0300 0A0D 0501 0901 0602 0E03 0804 0409 0D0C 050E 0605 0304 0001 0A00 0506 0E0E 0705 000D 090E 0B07 0703 0E0E 060E 0303 0502 0108 050B 0307 020E 090C 0B02 0300 010A 0707 0E00 0C07 0906 020E 0E0E 0901 0B08 0306 0000 0509 0B0B 020C 0E05 0302 0C01 0304 0908 0C0A 0A05 0604 0A08 0009 0304 0908 060C 0204 0D02 0A03 0E04 000D 0D0E 0507 0105 0A04 0401 0A05 0706 0308 0801 020A 010A 0A07 0408 0900 0A05 020B 0D0D 0007 0D04 0406 070C 050E 060A 0901 0203 0606 090A 0E06 0D04 0700 0A05 0D0E 0309 050C 0B0C 040D 0D01 090D 000E 000B 000D 0D0A 0908 0002 0405 0303 0807 0E06 0D04 0409 0703 060D 060E 0005 040B 070A 0C05 090A 0909 020E 0E00 050D 0504 0602 0701 0206 0C06 0105 0B0B 0503 0E0C 0406 0805 000B 0A0A 0B0A 0A00 060A 060B 0202 0E05 0206 0A05 0409 0D0B 0400 0E05 060B 0703 090A 0B07 0406 0509 040E 0005 010B 0B0C 0D00 0C0D 070C 0600 0C0A 0200 0101 0003 080B 0401 0E0C 0400 0E0E 030C 090D 0406 0203 0D0D 0705 0A08 0A0C 010D 090A 0508 0B09 060B 0D0C 0E05 0E05 0808 0209 0D0B 0D05 0D03 0C04 0101 0C02 0605 0405 050E 0209 0C0A 0C06 0A04 0600 070C 060E 0206 0209 0D0D 0202 090E 0C07 0E02 0A0C 000E 0909 0200 040E 0D0E 0B0D 090A 0C04 0D0B 0102 0509 040B 0005 0E06 0D02 0C03 0C03 010C 0C07 0909 0C0B 0A0C 020D 010E 0405 0308 0406 0201 060D 0B07 0409 0E0D 0304 0E0D 0D09 0A05 080E 0E04 0202 010A 0800 0209 020C 0A07 0E00 080C 000D 0E0B 0A00 0808 040E 0504 0E0C 0701 0807 070B 050E 0A00 0906 0304 040C 0705 0003 070A 0C0A 0C0C 000D 0B05 0404 080A 0B08 0D0B 0403 020E 0A09 0307 0908 060E 0305 0108 0302 0E0C 0507 0B03 020E 0D07 0608 0200 0408 0A00 060D 0E09 0100 0102 0E0B 0806 0D02 0409 0B02 0309 0A02 0107 010B 0100 0E0E 0001 0702 010A 0502 080C 0908 0A07 0D09 030B 0B08 0A02 0202 0108 090B 0904 0002 0101 050B 0E09 0B06 010E 000A 0609 0002 050A 0D07 020B 0708 0804 0102 070A 0A0D 040E 050D 0A00 0009 0305 050D 0E02 020C 0008 0101 0209 0E03 0C08 0405 0907 010B 0203 0D00 060B 0E04 0C03 0809 0E0C 060E 0709 0E07 0A0B 0902 0D02 0A0D 030C 0705 0702 0B0A 0C01 020A 0909 0505 0207 0E02 0E0B 0E03 0803 0B05 0706 0C07 0E05 0C08 020E 0701 0404 0302 050D 080C 0300 0704 0005 0A0C 0407 0307 040C 0800 040C 0904 0200 0A0B 0705 0B02 0009 0A03 070E 0D07 000D 0000 0403 0306 0800 0904 0D01 0102 0101 0D01 0406 0001 0E0A 0403 0C0B 050D 0E02 0008 0302 0E00 090A 0D08 050D 0A05 000E 030B 030B 0403 0007 090C 0A06 020D 0D06 0309 0E0B 0C0E 0E03 000E 0702 0508 0207 0C04 0203 0609 0007 0706 0A04 0C02 0700 040B 0A09 0100 0003 0E08 0C0C 0009 0801 080D 0907 020C 0106 0407 0304 0E08 070B 0A09 0106 0C06 0D08 0E04 030D 0904 0505 000C 0501 0100 0609 0202 0A05 0A02 0205 0D0B 0402 020E 0404 0C09 0903 040A 090D 0100 090E 0409 0803 0D07 080A 0101 0302 0101 0707 0107 0E09 0803 0600 0102 0206 040A 0305 060B 0B05 0805 010A 0607 0009 0009 0C0D 0B04 010D 050B 090A 0307 0C01 0200 0907 050B 0802 0C05 0502 0609 0C09 0707 030E 0705 0804 0A0E 0306 080D 0C06 0A03 0C0A 0009 0807 0A09 0607 0900 0603 030D 020C 0201 0509 0609 0E0E 0507 0800 0A01 040D 0201 0005 0A00 0401 0901 0706 0100 060E 0E0D 050E 0102 0209 0700 0108 0004 0B0B 040A 0908 0501 060A 0509 0E05 0409 0A0E 0E08 0001 0901 060D 0703 070B 0E06 070C 0304 0C07 0E06 090A 0608 0C04 0101 0C08 020C 0604 0107 0100 0B03 0508 0B05 0A09 0C09 090E 0D03 0307 0A04 0003 0403 030C 060E 0405 0500 0D08 010D 0400 060E 0703 0404 0506 0703 0E06 0605 0B0A 010E 0705 0303 0B04 0A0C 050A 0706 0E02 0E04 0700 090C 050A 0B03 0408 0004 0604 0607 0603 0B0D 0C0C 0508 0301 0E05 0E02 0E05 0A0B 0602 0B0E 0404 0700 0C09 0A07 0406 0907 0E0A 040D 0B0A 0909 0E04 0E02 0109 0801 0007 0906 0005 0903 0800 0E0E 0C0C 0404 010C 090E 0C0A 0E0A 030E 0A01 010E 0D00 050A 070B 0508 0B03 0002 0D0E 0C09 0B05 0107 010D 0100 020E 0704 0E0D 080D 0801 0807 0604 0507 0C07 0E0B 0606 020E 0C0B 0903 0306 030D 0000 0302 0D08 050E 0E00 0503 050C 0507 0E07 0003 0906 0000 000D 0106 0601 040A 0102 0206 0C05 0C05 0809 0605 0404 0303 060A 0206 010B 0404 0A02 0000 0103 080C 0206 0906 0404 0801 0C08 0B0A 0306 0803 0C01 050B 0C0E 040D 0B02 0901 0003 0A06 0807 0702 0403 0209 0608 0B05 0D01 0C01 090A 0801 0100 0A0E 0306 0601 0D09 0107 050C 040A 0A0E 040A 020A 0202 0D01 0609 0802 040C 000B 0400 0108 0D08 020B 020E 0008 0E07 090A 0306 0D0A 060C 0D0A 0E0A 0B02 0708 0001 050D 0305 0A0E 0904 0E05 0308 0C07 050D 030B 0D01 0A02 0904 040E 0901 0108 0104 0A0C 0A0B 030A 0A05 080C 010E 0302 0900 0304 0702 060A 0A0B 0708 0E0C 0006 0E0C 0808 0807 0B0E 0A05 0605 060B 0501 0805 0701 0506 010C 0D00 0908 0B00 070A 0306 0003 0205 0007 0C0B 0003 0C0E 0005 030D 0702 0B0D 0305 0804 0308 0102 0801 0207 0002 0302 0D09 0C03 0303 0B03 0400 0605 090C 070C 0206 0C0A 0A01 0C09 010B 0905 050A 040D 0109 0E07 070D 0306 0704 0B03 0609 0401 000B 0408 0601 050A 0801 0E05 030C 0B04 0302 0404 060C 0E0D 0800 0707 0B05 0B04 030D 0B06 070D 0808 050E 0703 0D01 060D 0E0D 0305 0C06 0007 0D0D 0A04 0706 080B 020C 0B03 0601 0A08 0E05 0D09 050C 000C 0006 0607 040C 0C00 0504 080A 0204 0E07 000C 0E0D 0104 090B 0607 0C07 080C 0808 0A00 0E09 0101 0B05 0C01 0407 0D0A 0306 0003 0006 0405 0303 0101 020D 0305 0406 020B 010D 0A05 0603 010E 0605 0000 0C0B 0704 0405 0203 0405 0304 0407 0A0B 0B04 0306 0B03 030A 080E 0A0A 090B 0C0C 0307 0300 070A 0C08 0D05 0006 070A 0106 0E0D 0606 0806 0B05 0308 0408 0401 0D0D 090C 0B03 0803 0408 0C0D 0804 0A0C 0E0E 0200 050D 020A 000A 0804 010B 0300 0601 0C01 0A00 070C 0D00 0103 010E 0600 0704 040C 0300 0B08 0D06 0509 0E06 080E 0E0D 0C09 0105 010E 030A 0305 0B07 010B 0706 050E 0105 040B 0E07 0505 0502 0D0A 0009 0207 0A07 090E 0500 0B08 0607 090A 0A08 0803 0E0D 0003 040E 000C 060B 0A02 0305 080B 0807 0A0E 0E05 0206 0804 020C 050E 0D0A 0E03 0500 0A03 0C07 0200 0008 0A0C 040C 040E 0408 0402 040C 0B06 000B 0800 060C 0E0A 030A 0809 0706 0A07 0105 0B0B 0509 060D 0707 0909 0C07 0002 0908 080E 0402 060B 0B02 0207 0D04 0D0B 020D 0700 0903 0007 0307 0C00 0702 080A 050A 060A 0D00 0D09 0608 0D08 0007 0C00 0703 0D09 0C0C 050D 070B 070E 0E0B 0006 0700 0A07 070C 030E 0C06 050D 0400 0108 0103 0002 0501 0B0A 0803 0302 0C01 0505 0A04 0807 0808 0908 0E05 0A0A 090D 0A09 0409 0707 0200 0706 040C 0504 0004 0A0D 020E 020C 0B0E 0102 0904 0D0B 0B04 0A0E 030C 0409 030D 0509 0E08 090A 010D 060B 0204 0D02 070C 0C03 070D 0304 0109 000A 0A0C 0D01 0D08 060C 0406 0905 0C07 020A 000D 0001 080D 0509 0D0B 0D04 0609 080C 0D0C 0D0E 0C02 0B0B 090E 0B09 0E09 050C 0E07 030D 0408 0506 0B02 030D 0200 0607 000B 0209 0A0B 0704 0D07 0406 080D 0A04 0D00 0B01 0D06 000C 0602 0409 060B 0E0A 0409 0B0C 0A08 0705 0E0C 0705 0C07 0003 0C08 0004 0A0E 010B 0803 0504 0B06 0B06 0602 0402 090A 0805 0304 0304 0E03 0707 0D03 0907 0A05 0A0E 0D09 040E 0C00 0005 0B08 0807 0901 0C00 0705 080C 0600 0207 0602 0501 0401 0E0B 0C01 0401 0806 0209 0303 0C07 0D09 0907 0703 0A0D 040B 0609 0A05 0603 0206 0A01 0801 0100 000B 0307 050C 0A06 0807 0B0E 020B 0C02 0405 0209 0204 0003 0B04 0908 0C05 0601 0407 0D09 0E0D 060B 0106 0D02 0D0D 0D06 090D 0201 0301 0C06 0D0E 030C 0701 0302 0204 0609 0808 0907 0E04 0C00 0209 0D04 000C 0900 0808 060B 0302 060A 0A0C 0101 0008 0208 0406 0207 0507 0908 0C0C 0E06 0D04 0303 0907 040C 0703 0405 0E0B 0109 0E04 0107 0C0A 0E0A 0104 0703 0B01 0903 0B08 0407 0A03 0D00 0E05 0804 0B03 0B06 080D 0101 010A 000D 0601 0707 0E03 0202 0C0D 0004 0D0E 0802 0803 000A 030A 0808 0706 0A08 0707 0001 0705 0E06 0009 0101 020C 060A 0400 0D0C 070A 050A 0408 0904 080C 0B0C 0206 0500 0705 0708 0D07 0603 0003 080D 0404 0203 000C 0A00 0001 0001 080E 0005 010C 0E04 0907 0302 0408 0C09 060A 050D 0303 0E05 040B 0C09 090E 0907 010D 0108 0104 0907 0204 0107 0B01 0002 000A 0A07 020B 0B03 0603 0E0E 0103 0A0C 0C0C 0409 0303 0809 0905 0B0D 0A0D 0A0C 0006 0401 0605 030D 0104 0407 0408 020D 0105 020A 0104 0A02 0502 080A 0D0C 0803 0B04 0307 0908 0609 030A 080A 0405 0907 0406 030E 0E07 0E0B 0801 0606 0207 0505 0B03 0B03 0D0B 0203 0305 060C 010C 0706 080D 0706 000B 0900 0C0B 0804 0D0E 0306 0509 090C 0A05 0701 0209 0605 020A 0901 0600 0205 0205 0B00 0A03 0303 0706 0802 0705 050C 0302 0203 050C 0100 0A0B 0D0B 0302 0001 0409 0A08 0E00 0207 0803 0609 0601 0000 0301 040D 0906 0A08 0B03 090D 0502 0505 0708 0E01 060C 0B01 030B 0E05 020B 0609 0000 0B02 000D 030B 0E0C 0C0D 0D0A 0605 0107 0501 0B05 0B06 0E0C 0304 0302 0702 090D 000E 0C07 0708 010D 040D 0B0A 0200 0205 0200 080D 0D07 0105 0C09 0806 0C0A 0A09 0407 0C03 0204 000A 020E 010A 0C0D 0E01 0309 0002 0E02 0705 010A 050E 0C0E 0809 090A 0203 030A 0603 0207 0B01 0B03 070A 0908 0B0C 0008 0200 0605 080C 0107 070B 0508 0106 0007 0702 0408 0908 040D 080C 0008 0204 0304 020E 0E0B 0E07 0B04 0602 0C08 090B 0E06 0B04 0A09 060B 0104 0C05 0D08 050D 080C 0604 090C 010A 0A03 0102 0E0D 060E 0C0A 0306 0205 0C05 090D 040E 0E06 0A03 0301 000A 0C08 0A04 0205 0D0D 090B 0500 0701 020D 0A0B 0703 040D 0E07 080E 0107 090E 0A08 0D03 0D02 0604 0E0D 0101 0B02 0C01 0B07 030A 0000 0902 090E 0603 060D 0101 0C05 0001 0902 0804 060C 0A0B 0300 0208 010B 0A02 010D 0D0E 0D08 050E 0B0A 0601 0804 0B05 0C03 0505 010A 040E 0809 040D 0706 070D 0D03 0400 0905 0106 0907 0D08 070E 0906 0604 070E 0704 040E 0B05 050C 0905 0602 060A 090A 0302 0D0D 030C 0A05 0806 060D 0705 0D08 020C 060B 040E 0009 050D 0A06 010C 0E05 0D02 0104 0603 090B 090A 010C 040D 0409 0105 0A0C 010E 020E 040A 0506 0A08 0109 0C01 0402 0100 0302 040B 020B 080B 0000 0E08 0B0A 0700 0308 020A 0D0A 0B08 000C 080C 0207 030D 0707 0309 0A0A 0E05 050C 0408 0808 0200 0A01 0D03 020C 060C 0B03 0E06 0902 0604 080D 0E01 090C 0D0D 0308 0E07 030B 0005 080C 0808 0D0C 0009 060D 0A01 0201 0A00 0D0B 0101 0C0E 0C08 0B04 0A0D 0504 0B0A 0109 0E0D 0E00 0507 0A04 030A 090E 0C01 080B 0E0E 050B 0704 0E0B 070A 0B02 0107 060D 0400 0A06 020A 0301 020A 0C07 0100 020E 070B 0601 000C 0B02 0609 0D0C 0B02 0C0C 0A03 0504 0808 0701 0307 0908 0D05 0604 050A 0301 0402 0303 0409 070D 0E04 0809 0708 0806 0E05 070B 0E0A 0800 0401 0502 080C 050B 0407 0307 0205 020B 0508 0206 0601 080A 070A 0900 0B08 090D 010A 0D0B 0905 0905 0D07 050C 030C 030E 0E09 0004 0101 0D06 0B08 060B 040D 0007 0305 0D0A 050B 0B03 0804 0001 0B04 030D 0902 0D0D 0A0B 0706 0C05 0B0D 0302 0806 080B 0907 0801 030A 0D0B 000A 0E05 0309 0705 0C03 0D0B 0B09 0604 0105 0D0B 0908 0601 0800 030B 050B 0D03 0C05 090C 0307 0706 0603 0E05 0C04 0001 0E0E 0C0E 0905 080D 0C00 0204 0808 0703 0A09 040E 0703 0A04 0E00 0308 0904 0401 030B 0D03 0104 080D 000B 050E 0400 000D 0A0D 0200 0303 0C06 010B 0904 0507 040D 000C 030A 020D 0206 070A 040A 0106 030C 0303 000B 090C 0D06 0405 0201 0007 0E0C 070B 080B 0201 0506 0C00 050E 0204 0D0D 050C 0703 090C 0401 0902 0507 010D 060E 0609 0200 0307 0201 0B0B 0508 0C03 0A08 0C0E 0107 0C00 0905 020C 000D 0703 090D 0001 0B00 0E0B 070A 0002 050E 060A 0A0B 040C 0C04 020C 0108 0501 070E 000D 0D09 0601 0C0C 080B 0902 010E 0700 0C07 0D03 0909 0007 0509 0B0B 0504 0E0D 0A03 0B06 080A 0607 010A 0800 0300 0C0B 0207 070D 0307 0005 0B01 040E 0A0C 070C 0B05 070B 0B02 0205 0900 060E 0500 0209 0601 0A07 0205 0505 0101 0308 0A0D 0A06 0807 000E 0809 0503 040D 0D0B 0D08 0A02 0E05 050B 0102 0708 0106 0502 0D04 0308 0301 0603 040B 0907 0C00 080B 000B 0705 040E 080E 0C0E 0503 0603 0208 0E0C 0D09 0E04 0B01 0D00 0100 0509 0908 0104 0004 0B0E 0508 0704 0D05 0402 060A 0004 0D05 0808 0908 0D03 0904 0806 000B 0700 0902 080C 0807 0C00 0608 0B0A 0801 0D01 0103 0408 0A02 0400 0C0E 0D06 0603 0101 0003 0409 0207 080E 0304 0200 0B0D 030C 0406 0C07 0408 0904 020B 0E09 090C 020B 080D 0B09 0707 0B07 0205 030E 080D 0B0A 0901 0602 0802 080C 0705 050C 0500 0B08 030E 0A01 0908 0207 0502 0805 0204 0602 0402 0A04 0D03 0706 0C0D 000C 0009 020C 0305 0A08 0A00 0201 0204 0101 0C0B 0106 010B 0507 070E 090B 090B 0003 040B 0506 0701 0408 0201 030C 0C07 0207 0E0A 0D09 0708 0006 0708 0C0E 0B0D 070E 0B09 0C0A 0E08 0403 0205 0104 0C08 050D 0502 0A08 0A05 060E 0A0A 0509 0E0B 000A 0707 0005 0A08 0109 0B0B 0A05 0602 040E 0405 070D 000D 0D09 0D04 000D 0101 000A 060A 0904 0202 0E08 0C0D 0E0E 0D0D 0E0D 0C06 0100 0B05 080A 0D05 020A 0C0E 040B 0E05 0A0C 0308 0802 0809 0A0C 0A06 0401 0D0A 0B09 0B0D 0607 0A0D 0C0A 0305 0E05 0302 040D 0200 0D06 040C 0A04 0600 0007 0D01 0101 0702 0506 070B 0A01 0005 0B05 090B 0301 060B 0B08 0309 020C 0201 0208 0A0C 080D 0B02 0803 0707 0E03 0506 0101 0C08 0607 0901 0E08 0001 0700 0B02 0207 0802 0B0B 0D0E 0C0B 0C06 0108 0D07 0809 0104 0A07 0A07 0601 0605 0C02 080E 0B05 0508 0707 0307 0B04 0D01 0C04 0209 0903 0D02 0A0A 0E06 050D 0B04 0809 0B09 0808 0A02 0909 0B06 0903 0203 0701 0101 0500 0E04 0606 0C09 060D 060A 000D 010C 0905 0A06 0203 0D03 0A08 090A 0308 040E 0600 080C 0403 0509 0009 0902 0C0C 0B02 0609 0A03 090B 0D01 0D0E 050B 0202 030D 090B 0E0D 0108 0A06 0D05 0204 080A 0E0A 080E 0A02 0504 0B03 0400 0A03 0104 0E0E 0000 0605 0904 0C09 0402 0005 0C0B 050A 030E 0809 0E00 0106 050C 0800 0C04 0805 0A0A 0907 0009 0601 0C0D 0D02 0705 0C04 090E 0901 0A04 0102 060B 0B0A 0A07 0D01 0E05 0E02 0702 0C06 0701 0809 0101 0C03 060C 0E06 0408 0705 010E 0802 0D01 0B03 080E 0D04 0E0A 0B07 0502 0E05 0604 0504 0201 040A 0D07 030E 030C 090C 0D01 0606 0907 0805 0C00 030C 0C06 0707 090E 070C 0C04 0403 000D 0707 080B 0405 0E0C 0D01 0E07 0308 030B 0B0C 0909 0A05 0D09 0606 0002 000C 020B 080B 0300 0904 0E02 090E 0B00 0C01 0008 010A 0800 0E04 0506 0603 0E08 000B 030B 0E09 040A 0A03 0700 0403 0608 0406 0405 0A04 040A 0E0B 0708 0B0A 0C09 0205 090C 0605 0400 0C08 0C07 0205 0008 0C04 0A0E 0E0C 0D08 0403 070C 0901 0D09 060A 0909 0106 030A 0208 090C 0B00 0E09 080D 0A0E 0503 0D0D 070B 0E00 0205 0004 0506 040A 0D0C 0C02 0B07 0D02 0007 0C04 0500 090B 0A08 0601 0C0B 0B04 0105 0D01 0C0B 0509 0307 060B 090A 0209 0004 0400 0A06 0303 0509 0C03 030A 0E00 0B08 010D 0A02 0A05 040C 0A08 070B 040C 020D 0700 0303 020C 0E0A 0501 0D03 0407 030D 0909 0303 0606 0006 0803 0C01 0309 0D08 0701 0E01 050A 010A 0A0C 050B 0C07 0101 0908 0A0C 0902 0700 0B0A 0307 000B 0905 0606 080E 0A04 0302 0C07 0C0D 000C 0006 0908 030E 0E06 0802 0409 0A0A 000B 0700 060B 0108 0407 0803 0209 0E0B 0A08 0004 0B0E 0B0B 0405 0408 0B05 090B 010A 0608 060C 0001 0B0E 0D0D 010A 0D08 0404 0600 080B 0102 0502 0007 0702 0E00 0A06 0D02 0909 0307 0902 0E05 0E0A 0408 0003 0D01 0505 0107 0A0D 0C05 0300 0E04 0E06 0505 0208 0606 010E 0803 0306 0907 0703 0D03 050A 0806 0B05 0E08 010B 090C 000D 0C02 0403 0906 0B0B 040E 050E 0008 0E0B 0404 0302 0D0A 0104 030B 040D 0E0B 0C08 0D0A 0206 0106 0909 0609 080E 060B 0505 070B 050C 070B 0D07 030B 0C00 0E03 020B 0409 0C02 0903 050B 0406 010D 0402 0D09 0B0A 0807 0905 0107 0807 0602 0900 000D 020C 0C02 090A 0B0B 0D0D 090A 0B09 030B 0909 0104 090E 0E00 0206 0409;
