memory_initialization_radix=16;
memory_initialization_vector=C90EBB3A D33F58FB A6042B58 7B41EB64 D08A43C5 4439A1F6 12DEFAEC 100655B0 D14E1117 AD2F793A 5AD0D4C1 05C249A0 08DDE0D5 2C13423A B631A557 B08EF873 C0FBA82C DDC81871 8C6248E3 264D062E 11D27BC0 CB533F0D 5E0FD47C 8082F966 B9E39150 6826B1BA EAEDEDA5 5E54715C B4FD6D14 04730DBC 06782410 0A24FD00 BB92B07C ED17A592 9B1B8CE0 EB450177 82054B23 E28A5747 D0E67145 7EFF5ECC 20EBA22C E2FB78E7 98AA7002 81BE9627 B006EA43 4407E24F 509E7237 26B84381 24A2769E BC38544F 4FE7F889 E54C4737 EF99875D DBEFD34A 34D3C191 BE6A0CFC A5FA8232 F34D33E6 89C30FDA 25350EB4 BB1AF8E4 7B5D645D 39B80ABF 4B0DC8CD DE36A3A5 842EEBD3 C3D4B59E 39765154 31DD64DD E5FB9D0C 7AB7BCC4 C7836F0E C4F5306F 20DF8EA1 659C895C 019E641D 65E7DAF6 13A30BE6 448AC067 DA4E8694 C6BC5167 6DF16B56 33F50A53 10BCC685 2CD75DDA 9E7D8598 2A3DE17C DA1D399A 7C5B645F 2D325E7A 17163306 EF133BE0 628089E7 BAE3EB7E A6599F5A 07F3D800 E9363AA2 A583BBE0 A7F79C21 68C248E4 FCAC1EF0 1C448623 040E7953 ED443370 D821B1F0 E2B65B57 E56A158C D11D0182 C51B5832 D357394D 2F2C7E73 F67DB083 1BD57944 E1C0780E AD53978F 98E63E38 7D406CC0 BC7F5A56 DC7D974A A834C6B2 EF7C0D57 F15D8FFB 9A5F225D EC2B30C3 333D86BF D9951AFA 9625094A F4F4A944 047BFB15 A72B627A 4483C462 AB55E297 3624E020 9945B203 789B454D 9FAAA613 FF70280C 491D7A9A CF06EC79 B73AA7CD 05A47A30 18FD77E3 B4546366 AFEB4A4B E777A03D C2F14364 5A2F76BD B3BC39BB DFC06D05 E8ABE14E DF477087 0E7DDAC4 574DC412 48237FAB E546EB16 98967250 141F459F DC642D4D ECAC7EA4 805B65AC DE1A0930 65B1EDC9 574DB9DF CE08A081 FDD0BBB7 A5DA05DC BB814199 C73ED5BC 70326A9D DE8A67CF BE609D71 17944DD2 9A76608E 132645F9 FA6B3E41 24597C67 1928DA47 0F5F70D5 C75D0FA4 1B073725 0D682CF8 87B690DB 8365445C F5202F4C 6D545418 27F80348 60BCDA4D 76666252 0F6A36C2 245951DE 7B14C11D DE501F02 3C4E327E 4A091578 8A3061E8 46866EBC C964F391 052DDEA1 97F5884B 835767C2 406E450E 65891AA2 3B823FE0 67523467 C1247813 08FBAFA9 1D4D9975 5347F601 E9FCF1AC ABC362B6 40ECA3D7 85F3B7D9 986A08C8 7DE9771F AE56143F 2833AFB2 76A7DDFE BF8AA7DB 1C9460E3 B1BA8849 F0B465AE B5C234EB 74054838 A3EB7CD3 656059F8 4750C06D BE2C5C8E 9AB69106 2FDC16D7 72549762 957206F7 98313529 244A0730 D5531211 DB0B97A4 1B211971 345C569C 13E814A2 3162B8BA AB77B2EA AA5909F7 49071BF6 648A8C29 AFD124EB 9D20408B 79001253 DF0B9992 8EDD0A2A E99C2AD7 3C9E76C6 5E1E80B7 304E720E EBA83E48 A1BF730D 4516E9D2 3A8EFD27 A8EDAEA0 CF625FB2 FF5E7277 F0645398 01DA0E8A AC6C85C6 14674764 897527FC 7C30CC68 5FADDAE4 EFBD9DBB A4BF94F9 DA68FBAE EFC53838 61BA0235 48757268 42F57981 FA3B50EE C5186D84 27509907 D3A446F0 3B58556C 1AEFA4AA 6621525E C35F105B FF0E379E 9C484D08 B3BC9974 6D5AE0AC EE4FD204 F5653D3C 36F6B16D 999E0031 53783C95 4FFF7C6B 2D604880 3BD9E04D 4CBED977 E575C433 662A8B28 800BED32 3DA978AD CA157027 0D28EF97 511500E4 81850900 4862F318 B2687118 57703461 FA55EB89 89B7610D 7F05F942 D9B793DC 4ED6270F F4C37B21 7D7A9B75 AE2EC180 792D10A6 289B625E AEC915B6 87511571 C0F15704 9252FBF7 F8A63E18 5DA98450 1A7676CB DDF6BF61 7A904C2F D96F86FE 5A27B0E3 E8CBC9D3 BB106F89 B8948E5B FE2970FF 440634C7 7212F359 6C6715FF 481D72A7 1D418D6E D53F81E8 BBA3CBA5 35EEF72D 92AD08FD 7D6AC5FA ADCBCE33 7AB1E48C 86CC6E24 B222C3A8 7B4ED17A E35034A8 A97059B2 7B048B2B ABC4E77D 3280D283 91AB4EF5 95760663 A797D06F 9CF346DF AFC7D65B DF7B9A95 BD13A25F 97523748 BDB717DF D3F68B19 7357777B 5B18DA43 861C6D76 41F209CC E85793F7 5CA21BAF 4FE3B201 8BED0217 02A6C89D 233AFA36 B79354BF B132E498 A9C040FC 76EA085E 2245C2F7 9A60B1E7 7373D51C BECFE5B8 1A823618 52328BD8 1FF63EBC 9B638FBA 7325DD83 53D09678 4DC45991 2E36CC0D B02DB682 D26312D7 849DB9EB 8A6F3B12 5CCE0EE4 F225E5B4 509A2126 3813B6E3 646CF518 3D3F206B 199F1462 69AEC815 7F0C4C5C 3AA8858A 0472B476 FD2D81CF 682276E3 8D1F8F93 20245149 DE5E4E56 E490FB60 5FB4E729 B9542633 7235F686 19866495 47C4B6A8 3795A3ED F45EB053 CAEFD713 D53F839B F16809CB 408AFB98 B1E61EE3 B99D0E50 450C9C11 85713EC2 D408496B DE34354D 112E0C55 450ECAA2 C0E76BB3 5D0EB269 7521A4D6 DC1FA0E0 A14CE648 E7E950A7 8040F97F 5508C271 9276F088 95CE077C 78F3AF03 8C6946C0 F3342C52 4F47D62D EBF39077 3B69BD18 4AF35A1C B533200D 6BBC8C95 156E7BC7 C7002CF0 4C8B8B76 4F5AFA77 0D0B2CBF EEE8A6EE 7B7D89FC 627F5B87 FE00E0EA 120A30E4 48CB270E 63D789E3 9FEBD62D 6D2AEA88 2306A7C3 B30EB01D 23EF42F1 A91A8748 63BD288D 18750FD8 A3CBC8D4 757F6B78 6077B1BD FEA7103D 8D305BFE 89D3DE23 035AAC0B 65022D88 575D8ED3 24D5FCBF 9369CB6D BFB4111B F174C298 11B15EE5 73408F33 46543A50 13028A2D 748797B1 CE16F003 F27C1F8A 8E16027F 6087F724 F067AFF9 062DFBD1 E88E346D 6A1AF803 AAF76666 088FC628 63D1309C 9F84025F 557FB255 241D06EB 0292AF2A F3EE98DE 913CD64E 5737A1AE 6C254452 C87CDB73 CACDBA41 A4CD2628 A41E769F A7CB2A28 04A36776 05E605E9 B7D00ABA 5B63E39B 2A7E1C04 D3DD00EA 2357AE0E E1E48356 D2124826 413B7077 707CBD9B 4E61384B 41910B50 B3A1BC4A 80487AD9 FD50696F 66C2E5BE 37672CF1 D9D2546E 7BA05CE8 AA3E8EF8 F50A2D92 6F815E59 C090F4A8 0F9FE90B 92C3F5B1 7101735E A10518C5 0AA135A6 DECEF3C1 1D269785 B09343F5 1FD21874 DD5DE5BB 820FA8AB 09B5D50D 668FCC21 E4F2F364 3CCD8A22 06D3C283 F883B2A0 DC82C491 069417A7 232C1490 AF02FEAC 60A68DEC FED94BFC BBF05EC9 A6EC393B CF2B4720 555C8656 BFE187EC 3A6D5059 E44ACFFE 056A3CA3 961C7E79 66F990DD 55ABA765 EF43E699 61D8B8D0 5B2E6218 A08364C8 E71056C4 A283E349 9634CE0E A74CAD10 70BB56D5 09CBCD08 C3FF9EA2 43B786A9 4E890F21 7EE00EA9 83E96E12 5CF9D67B 9C63191C D9FB4968 DC7A0627 00B4424C 021A2296 238AD687 C4328D96 0AE5D175 2D2B303A FEF3A597 BE853FBC 62DCBDF4 876D163A 7145AF57 BB8C5B07 C391DF13 5766FFC1 2696CEB9 FF8F102C 668BC64E 5600EAEB 071A7102 C15247BB FDC6A608 9E97E2E8 3F2451B6 3145922E 75AEB924 411AE712 4B40DD41 EDE3D657 FBC0996F 039CC1DD 6B5CEF1F C517A72C B697DAE8 19F79509 09B9FE5B 3AEDF523 2B94A31A F8B82021 E414CE8A C744FF3D 452DAE7A BA93F192 B676FD25 516DA9DF 8193E82E D02B7CDD E6CA4AF3 2AD3E99C 9679C269 34F7B7C4 00ED5543 71542BD4 1BB61BE8 C95FDDF4 0901B9CB 97308892 FDCD7FDC C40BD441 3B77CF42 D71E3B4F 839D8DE5 CD45E975 06D5EC68 01D9BBAE B293B48C 2C33F4BE A23FCB35 947B7673 30068D53 460D6914 44A39630 47D88D11 47E7C109 3E6EEB06 B8B03EA9 5116FF46 F56AF6DC 5DD956EB 85B6F5A7 5A4DB60A 383E03E1 67383DC1 ED8801AF 70552C2D 9E9F5AF0 16D45E7C 973E412B 71301AE4 CF7ECEAD 7233904C E06C0DA3 A73B0627 6E25A80C FC538F85 3AE60B22 BDA68346 C37C8522 75C4905B E319C9FF 0856EF33 3D19A5C2 A6C251BF 74108466 FEC85BA5 CA927B92 9AB2938A 71C1E43A 3F003624 D3CD461C 74603FED 92295C6B BCFD7F84 FE0786C0 425B8F2A 76530C8C 3ACFD70A A52EBEA1 94FED160 70233568 F8F77D43 85E74599 5E9F0894 95B7812F C167902B 7A97432E E827A1E4 6F539451 68BB9AD1 144E576F 23A326D5 35B3E23A 3A17095E A5C06D5C BA421972 CA992EC6 D9BDF721 DC0EA010 A171FD79 B28602AE EA66E604 FF307121 3106A915 FDA2F9A7 4F3860DC 44BFEB70 A98E0698 7B2DE269 3062D6A3 7A8F417B 78CAD87B AA0732A7 09180C0B 17F4A30D B3DDC7B4 85C20073 BEE85586 A744F491 07E6BB46 93C9D02E 76B77837 5892A6DB 00C71737 0A9C7688 A61FA97B EEDE018A 8AC5C9B8 FD548C99 6C0AD771 C429B6FF 62CA8DD6 8418F55F F19D7942 FDD02C2C 159567AD 1FD776D3 1027D7CE DE6F86E4 FE20F3B4 05E6C74B F34F6727 6D136B7D A65D9FE6 EA9AD960 CC87B843 E99088AE 97CE1E59 5FB5E52F 26BBC394 2DD1AEB9 41F9F280 17DEBACD 1D7A380A 6DE68212 139F1E35 56E26078 4CF8F82D 3D019E4E 75391745 77D5229C 45CFA09A AAD8F87A DCB5D4F1 43CA8D01 3C8B4CAC E97726D2 63DAF22E 23864B26 300800CF AC457011 F9201C37 6F0F88B3 94545D2C 3E22A881 629C666B 7C3E3DEA A3259B67 C23E835C F280E6F5 7199DDDA D309DC57 EE46A2D9 A53F833E 22BD0346 52E00020 E01C1F93 28B53EE5 78995520 4C8E1611 197F7923 916BD348 9650EDE4 3B838FE0 6B901127 03099AB8 8E0788F4 1BB02E6A C3216DA3 3949FEB4 8251D288 09CF6387 B7F81823 B91716D2 5DC3D024 41755FEC CE139C5A F69D67BA A6F2004B 2B0E27C1 2DDDD11B 446DC33F EE9CCB2F 878CC644 AC94B457 417EDCC1 92426D82 4C468AF7 F938F6DA F60A10F8 CB264011 23DD96A4 A079A1A9 120ED82E 11116E34 7C2C38AA 9617D620 7FEAB59E 5FED5FA6 32F280A2 E8BEBA7F FF426061 C0CD9E90 5388CE7A 21417E73 F8D47E3A 6E4E1386 79EB49C2 C4E4A67E 41321A99 0CDA0B28 47AA2D30 BD1247FE CD14C521 066C37CB C0977435 78E551EC 969BFAEC B43B3660 CB05E117 A335AE4A 93E274B4 63609C20 45817C75 E35B7764 E830F696 3B79CEA1 AB53599E EBC4E47C E3573D23 2993B70D A958FF49 AD51205D 7400ED78 85601F23 810A696E B598A783 0ECCA29A AD634DA9 322C37B7 355F4F46 B42A7895 7E50D925 9810377D B5CC299A 1A555697 6140B023 D5E92EC7 74345F33 642B2222 91F04C2F BC5C46A5 300A3184 9F96AF5A 809ACC6B 18A57A4B AF1DC9A5 2EA6AB8D 75F38DC3 77313EF7 19A1198D 39D2EBE4 ACDC1B2D 1D89B394 9B31B6C8 60FA1046 6BBB39EE 6C8F8396 DA9A77A4 0B0E21C0 5A56741D 914F4B7D EB2C3D23 9CBADB48 0E0FFBCF 137C6251 F8BC7E27 4EF3035F 8CDA184A 25B803E1 55826175 F10A4861 23737C04 8C3BA828 8B856B00 E1B32F7C 3A58CE05 6F9D5574 6760C0A4 3D2DEE18 9BF3C3C4 867355F0 83A4DF3A 0BFEF74E DC8C29A2 25B584DD 87F38883 1BA73261 2E4FFFD1 F6F259C5 455FFDBF 36F48745 2FC3AECB 309424B0 27122593 A13058DF 23E262D2 4389D14F 90510697 A2B199CE 64F5AD81 8FADF65F E408BE36 981DED6A 48EB1F2B D38F460C CB1E0993 128968C9 58E98032 4FEBF472 9D72233A 5C24AE77 FB12E32A FC1C5B35 10AAB48A 48B2F0FC E3579C7A F7F1E494 57E03FD1 61192EAE 1C08F353 3976ACDD CCAD9CEC A3832545 F495D807 AB7061C3 634A33BC D3FD4F8D 6FAC5DCD 953034E7 BB23B13F A060C4F9 15A23AEF E153E2C5 81AE7C4A BC4941E2 053CEFC0 7749C4A7 2BBFC9E3 F24989EC B83C8E11 F206E2CD B920D6B0 6F5F0F24 C3F9D78E 6FB0B90E 807529BF 8874EA86 AE417F38 F558F965 447DEE3C 2BD32079 E00E605B 69330998 B7AE44EC 0DC6DD48 858AD8C6 3DAB566A 9DA902EE DE4DC237 B7F53E05 5DBD7758 6F0AC2B5 EC457CB5 C59EFD85 63ED231D F1A7F62E 6A5FA06F 7DBC6B6E 574233EB 69EEE242 25470B43 E755AD68 478C0CFB 9ACB94C7 68235C80 5148E8C7 E3B1DAC3 AC027140 977B88D2 BF4C4831 DF31B3B8 524BCF6A 9F791C8B 7268E052 21AA2339 58D0184A 1C3A32F8 E8A2D7C6 BDC64D92 8BD099A5 D2B0F5FF 3427C0F2 77063665 A61FDD1B 9E178388 32492508 E1AF02BB CF38EAB9 CCB050F9 03B88FE8 06B53728 1E126FCD CEB6C33C 6C25B7CE 121357A8 7FF6E29C 1FF8BAEF D32ED45F 8FB2D42F C3545BF8 B5A5ADFF 6DCFEC07 CF1FAFCC 1D87BDC6 17BAA8B8 88C969E0 268E4CE0 293CC4B0 AF5DB62D 5030D699 229C65DD 1A4C9847 B597091A D1C48804 2D58CFDE 3BDABC86 D9685B11 193C33D3 B1C87914 81D3F0E7 E82868FD 3118ED06 7CB5FFD5 CA2942BE FB7BDF71 441E6CDB 379AFB9E FAD6F40B 95E91673 20F7E62D 685633E8 9E5F1572 7C67BDCF F82A6478 E7B6E088 7693AB2A 91AD7091 83F475D6 0BAF5120 DFF0BE19 72FD4731 709E4B66 395A4B9F FAED4A3B 475E8C45 2CD6EF37 30E40D55 E32BB0A6 1BD38675 DEFB7934 C6224ED3 D367E198 F9E84E18 2A560ABB B966A26F 4BB22784 84DDF399 44DCE7E7 5D6AF19E 555FC3E2 492E83CA 7D892C8E FAE8A5C2 CE5429E7 9A00E016 15FB9C2B C89EBC95 A9EA0395 4EF885D8 EEFAF57D 54CEBEB1 CF6FBF73 0D6A1258 20C72360 D8C57755 F211904F D1F3A56E A94AE012 436C055B 4EA6AA1A 7C18DEA7 A92F6301 80EEA1FE 3925E197 056B8892 CB423FAD 30FE9479 0B4F2C2D 394DD864 84DC0DE4 40727F2C 728BD1C9 F0D8591B 5EE25F75 49BD0412 6879FFF3 4B04B714 C56B6407 1EC4F466 1988C820 C5B459FB FCCD0793 6417A451 AAEB396F F83A2397 F0B91BE2 A2E1E7C8 53856B8B FB764EAB DA199B13 D20FD002 FDA0D481 F29B5138 54972EFF FEEDDA6B FDDCA906 17289076 2CB97E1F 7A6B9D6F 0160F9DB 2C9045CA AB75D609 28F2531C E80E1D4E CFD7C94E 6A7D6874 BC42C7EE CB67D670 D9A5B00A 68F6BBA6 F5DF0E32 7B4394D8 497D798F 4613F63F 49BDDF1E 4DD7F3D7 7BC3EB99 4386FFA3 684D6739 9C5D6694 793C156D 7F2A1929 6FE22D5B C3916326 E676282A DFF27AE8 ACC01F1F E8817DD0 315892F1 971C067B 958D3FC7 3EF14CDA 1A934356 7BE88C59 DAC2C35B 68BFEE57 3B8E60ED 3DB660C5 7429E7C5 BD108A40 B0AC9184 D486A503 1A1844A3 F1D3E875 4EB3C283 7810FF49 07647EC8 0BE4C7F1 82E7D33D A6518126 55611DB7 1BD90B2E 307A25D7 F6CEE52F 333120FA D5383169 1B715367 5A5940AF F657D099 25C1C24A DFAC2BCB 40950E59 16614228 5041A027 0AAA56DC B79308F5 6F5BA46F EE1AC155 70588DAD 42D2AA72 2EE2D3C5 B05D9502 2F0E03E3 F723E400 2474C212 76B0F41F 514DCEA6 EF4FBCFB 255CA363 0F5D997F DFCFCEA3 CE5E3D48 72124213 BEB36277 C30A1E9D 3EE99E75 C332D99D 32CE55C6 D7014786 C7FD37C0 4E089435 FB9F97D4 668B1DCC 84322CED 66EE783D 601758E5 96C2A804 F9873122 CA5D9225 30C34A7A E9AFDB81 F52AF931 88301FA3 9D9398F8 17BED5EC 311596D1 DC2B9031 CD52F1E4 97FBA45B 4FE0EC30 27B90187 33D665FC 83B06B2B 1287E4E5 CC30C9C8 66C381CA 679D8E35 0FEA7D8E 65948D3A 78C0EEAC 52D0A2A2 8AD70864 617B2BF3 97CA6A75 896BFBD0 62C48AC3 C7719B3C ED651D5E CB43488B 7F22A1D5 A525F936 13368313 391BF56D 4A8C5BA5 27FA650A 9DEE65AB 9880C186 38A65401 22691815 0D959E97 E80D2938 FDE7DA42 C775A8D1 0A18FF57 563E7FEE 745439BD 3B76061A 40547A8E 0DC46661 700A3819 E82EF655 FDE2ACB5 9BAC15EC 680473C1 739B2ACA 2542B768 816F97CA 0282E686 53CFFB8C 3E85E2DC AF60D68A 3689654D 67DB1509 CEE12E1B 820CF870 54095116 8D8E93B3 6936902B 80E7D133 FA5AC8F6 C76D965E 8A5695F7 93934F9A E0C953E4 EA2A238B E638C9EF 6C074DC4 A974DF42 3AC0C6A9 85729D9B 95308C72 342D2DD5 A390825C 002D1A33 6E66E151 A96A2AFD 05E0B1D1 B0FD17C8 BC268E22 EC802C32 CD295741 5E45E0EB F749F345 EEBE8ED6 6F0F17D1 9B58FAF0 B0066488 A8CC0F70 653F4C6E E549CA03 8D6BFA4F 89ED920A 634432CB 3693AF51 6CCBD98D 01C5C9EE 50BF0682 83839FFF 92CB4671 FC6EB0F6 DC0A11C7 5943FA81 D2F5E1AC 7C87B1A7 2F919F7F CBE80D86 BAFC5A87 1E95841A 12E3C154 75146E3E A93A59F4 8480D3B4 4CA2626F 86EC042F 839B428D 2B8CE64A 96B292F7 1AC6AAC6 F1EDB5D8 F07E3709 AE7031C0 866A57B1 EB617AD9 8B226E4A F5982F90 4095AEAC 5DD633F6 892752B5 0416E7CF 408726E6 41DA25D3 464D061C 93760C6C 711C17EC 40A0FBC0 E92A90FA 6DE6BF80 13DC3B12 DA75CEF3 A7E65480 23DF5EE9 ADFD2441 6EC7B549 3274F5BF 0F0083A9 39D8395C 8EC13CE7 57E0B0CF 5A54D25B 1A14A199 6719DA94 259FBC00 19AB45C0 919258ED B90626EF 12A5482A C810822B 97B5CDA5 58EC2F7E A63956EC D3B11A7A 902C4F2C EA80DBC3 2B530CBA 2FED1911 773395FA 36476554 785B0E04 57A5884B 570B56E7 BC8E7029 EDF3263C 7EFC0063 0A32490B 0096295F 994C0131 81D46F07 E2997B7F 44550ADE 6A7426F5 A0EAB533 6DF5B3EE F3225DE1 2CEAE6DF 041DBFE1 FBFA86C4 F37FB6E5 3D2F5B73 FB1BDCB1 CC917D24 7DD94C74 86EFFBA9 9EEF5CCA 49E1DB4A 8E0DBE59 69E9B6B1 47ED9686 7A7F15B3 A9E27D5D 55F827B5 2E510FB7 228254AF E3F05033 C41EB6C7 4E5F4471 90DDD15C 6A2A4701 2F78433C AE617DB9 B5B32F81 9CAAB974 B5E0A0DB CE7B3F5E 440F9EA5 76DB5727 B672B9FA 049A59B5 1F850F72 04560B9E E6593D50 E1B9CE0D D7442B5D B15D4151 18D6B1DF 6EC692DB 9ECB6DAF 8BF90032 D4564849 CB95641B FF819611 9E24427E A26F662F 9EAC5DF1 1917239C DC83A0FA AD5EEB8A 453DA46E 768BFA8A EC164DC8 18F64D1C F825FC82 C42D6BE6 2EEF6EF9 29B46DEB 4A3FD823 4D1CC6CD 9EDCCD56 EB7E3345 54FA408D 7AF023AF 4CD49D7D 3C088819 A1F6FF4C B0F8F8EF E3EB0D99 D7D3C9EA FF7DBD0C 1D9E8D44 13818347 C7F5BECE 19F508E0 F7E4B055 8E3340FB 8914329A 48713AD9 378CF1D6 B87DD531 21895E48 C24BFDC9 7302887F DC821465 21C18EA2 9D49CE95 D83C5CF0 17EB90B7 972AA151 68F34361 F7D4E92B A13F79DE 55FC1A64 60D71CEA 73771496 D373FC79 03821988 5807DA29 50814274 EC356C0D 1FAACD7C 7E6729C6 2523123C 296C935F 5F3669C3 A57353B5 0E53CAA4 B38F8FB2 461A1D79 BE00F3F5 2643BCEA 0F20B96B 009E21BB 4CA957DA E86D0074 A65A371F 9F8BF445 BEF3A336 05E09584 0445B659 FDBA710E 68104742 ED4BB248 B8074FE6 88E8C958 BED184B1 A76D200C DD5BFE8C C173BCE7 3C318669 3B54A745 50189953 703F7DFD 59DA4CAF D0653AFE 4532F273 39D25CDD 08010EA9 AAE93C44 54848B7E 595C5F31 73F78A02 E2199682 9C43BE40 6738698B 8F06CA35 A55CE8F5 32FE982C BD8046F2 0018B67B EC52EBD0 FC38BB17 FC067F86 1A15C1C6 A8A70E8B 8E4710A9 04D27D6D B35B8F8D 232D8424 8FD708E6 222D6E7A 6EAD2BFD 73D16D28 D6841D3B 2043615A 1365D146 E2F7E9F9 C014D9C6 CADE770B 4A45D233 B6950ACE 26DFD710 3E240F10 D839C8F8 F1472BEA BF8A6C3C B2289B53 C0B3B112 12425086 B61F0DEE 3D9A2237 1740A1DA 1E17CEEB 32811D2F 7405A418 FDA1890E 5DE48321 5A598E0C 4881413B 19C04C46 0296BDEE 564A9D35 6F253DA8 99A449D8 46B385BD 0EBC7FAA 1F11D8B4 707511CC 0BAC06E8 0694281B 47F421DA 65B5AE1E 94137A40 AD2226CA 90D8BE97 6537B0BE 969A5F0B CEA73F6E 04CE0261 EB4D431B CC4EC81A 9E5BF4BC 0B0D7B1B DCFF091C 03E47481 3831EEAF FA03FADC 8DE43E33 BF25A37D 5B364278 5726CAF5 DA8043FD 926FAA58 6E626A15 A24A9277 B14F670A 4A5507AF 1675DB99 75312E9E ACD6BCC2 B4A0618F 186F2295 1598C17E CB452998 CDD25CBC 6CAFEF66 9798DA18 5894AB07 7D31E186 A3F8C8EC 84A4A8FF 2B0C6B0A E9AF7E97 22322D42 3096A8E9 2DC493BC F9B468E1 A879A31E DE8157C8 BA3269D9 082D6E04 579FD476 3AF0D320 9CE0322A EABA3065 3B9F7B2E 8008C8EA F4F36E95 FA335CE5 8E692A72 32B505D0 6CEB9125 AFD38401 7B2ECADB 23EE86D9 FEEEED22 0FC1E59C 47449977 B86DD2EB 8860F2DF 9F45FD00 55FBA294 FBF9219F 4B1435A7 541C4A94 47D79063 175761B8 DC50F298 4E8543E0 851B2985 3B91F77A 891B2A3B B2CEF2BD 66DC8110 19C6C897 DC5C3E50 554C7BC7 37410E52 10ACB144 CFD6C126 8B279A42 ECD43D53 AC702760 8424EE57 8BC52B46 BBE72533 24A54AE8 7E1F4674 195A92E6 5D1E73F6 B00FAE8C F76E3594 EC942ADD A939541B 5579ED4D 6298DA2F 029797F8 4D6DBD46 9772B2BE AE5AD683 78B010D4 4A8AF611 66D78BE8 14E91039 4570466B CB335954 AD8FBB67 0ED5AE26 F686AF64 186806EA C8723CC7 81BBBAD3 62E312C2 C4CB1523 04F73983 D734E94A 7A1EF684 42006722 7633B396 CD75712C 7087F7A2 7512E0D7 698B0704 B02B0AEB 28209BDE 0625AB57 E76756ED FE01B0D0 A9801B8F 6CD82DC3 34825DB6 257E2DEF CEBCB337 B369FB25 30F74D33 36D038DF 8B787EA1 7F616844 E57888B0 74AFFC61 A19F8E37 85577255 DEC11928 6880874A E1AFF7A0 F5AE1F2D 7457AB3B A7D16EE9 D7068EAF 1F87641A B32C554B 2688C6A7 03EF5433 BF734382 68D59E72 D79456C8 9346B9D1 CED53144 FF5CB5FC D21C0861 D91F975C 328F6214 C38DDF17 6E5C2DF5 809E64B0 369B7BDA B2B52D7C 2932F1BA 55A1A882 AB83A1CF 9C545DEB CABFAB02 332F9F15 8E3D6273 E36DFD40 51B674B6 3B4E2C59 C20377CA 590E399A F39E4A0E 287E8179 05B3D1CC 25E58B97 7E77F035 FB887F45 27D96062 D7DA81AD BA9D9537 AF15746B 0F5A317B AF786CF4 5C7A1BC1 63697EE2 D8FB4F80 AA485F7E 786D63CC 0CAFCCA6 6A3FC55D D9361478 11C1A3B1 748ECF28 1D94C3F9 7397FAB8 C8AAC1E3 30D3BE9A 9C78B17C C2297356 584578BE 06D1498C 326B3EE6 18F7AA9B 1B7F0FCA E91D1104 AB837964 E18750A0 67194112 EA1F5A42 B9CB5EAE E53CEB25 18458240 92579C36 6CDA36FB 717C9C68 190DB48A 87301955 A6EEE105 DD8FE444 1FB04054 F109AB32 5EFCB00D CF263558 8466A738 5F3DBB45 8E4EC252 7354F57A B2602630 5CBA51AD 75D638DC B69C0453 1C103446 8957C5C7 38D56912 B6A65662 26C2380B 3F3A1C90 F5A60D87 677FB00F 1BE46BFC 5F8514C6 56E34718 AB3348A4 08A81B0E 3BDAFAC1 D494ECCE 6391EF38 1A9CBF44 11C9D79B 9A59D7DA 06E4C2EF 207EED40 D1B01009 24780B7A E9AEDAD9 24ED76CE D1C31C93 024C9420 E81B4065 07EB38B7 5E8BAA11 60A13D43 D1EE7AA9 ADDD105D 984DF3EC 1756C1CB BE096141 C67EC5F2 B427DCE9 02612CE5 695D2D0F 32126641 EBA25FA7 494CF19B 6D253159 6B79A389 DD6B5EE0 1DC4C1B0 CE1C38C2 1B28EEBE B93D0819 80F3D326 1744CB0E F6590BB4 A4D5A92D CB7AEBF9 2E738EB3 4E58643A EE11AEFB 52E92F9D 805467E1 51461EA4 B7E45DA8 1E763626 1DDA9E07 ABD7B40D 1FA52270 E4DA15DA 08B0F6D1 F5F2163C 9033009B 9EF4B71A 9CC5BF24 D028F594 1558DF2D 760F8DCA 1544E5B4 34208A3D AC62C951 297990AD 4FE80D3B 883BD51F 0946AA1E 5018AA18 9E74CF23 98CD4E1F 8E5FB891 12153EDC 00D4041C 90BF96AE 2B55A18E DADC92F3 8A1A0940 49AED1D0 09DAB365 6D29254C 970F538C C4B954E1 0E41070D 709CFAA2 5DB3FE64 A7E21F08 A5732F56 7BE2514E 235FEF93 AF67A18D 4064B872 2FA6926E 303F3910 5FA75B06 A151077D A3F4693D 5541D1BE C12464AB FF2DE1E8 93A7BB60 ABEDE7E3 EC24C2AC 5A2DB2EE 35FC2B5B F9085EEE 2A5DFEE9 547CCF1E B1148C40 D7CA807A 15CC310F 4D8DD3E5 27CED780 A7A63A51 9FC9B693 08276FF4 1BADA374 D33C728D 3A97BE7F 6F48E167 5D30B312 465C154F A4C06D61 85AFF76A 86BAEA8B 2FC8CBB0 1F6E4FEC E8701ECE 0BD9DB13 F005FB93 EB5350F8 C0295129 A428FE4A 62A5B25A 40CE5CF4 47D4FBD4 704846B3 4CF74A2C A309A547 B7242535 1D1B9A07 53478FC6 C4D25E08 9FC16A76 F847EB1C 1F644F6D 1EEC234B E4B95CF0 27F476C6 E85A8A63 36F2AE98 7B285005 4446818F 40EDC7EB F445F2D3 8D301C09 CB2C26EC 3CCD1F29 9DF6EEDB 270EBEB3 29BD0CA8 4826F3E4 EDB0DABA 3CA58DC9 D381DAC1 50F6A3F3 EE66C741 9CF26A53 45591A1B 9FC30D48 64ECD568 E297B954 8B29A881 EB2E1927 9465B960 9227635C 0DACCE8D 6768058E 868DB711 46DF67BA DE2D3E19 B3B94CF1 E42C1C4C EDE597EE 59B13B4A 89998B93 FE2E85AB 43120965 B6E4C3E2 1F9CE731 50623E9B AFDDC308 C8C337F5 4F09D67A D857DA06 AAC1B988 303CCC79 5268F666 8ACA7E5E 4FAA04DF 4E3EA5D1 C0826D36 3F455FE6 F02F14DF 9AE96AFE 66CA83C1 085A8807 00A155AA 138108A4 913A29C1 31D51414 CC549C34 79029297 4485E34E 7B1D15CD 97601553 19B989D9 1497571A 12129275 598B4BEF 09F3A87E 76C8C0D0 8D297BB0 467562DB DCB80A54 EF2489FA F53F7B01 E899C1E6 F71B4E6C FD002266 9CFE974F 734CB5C0 7FEF1196 C052B11D AC6520E1 54FAE5D7 7A9D7846 8C9D2808 12B46206 ED84C4B4 08A58FF0 E5614249 E0BE13D6 B9C84719 AEDF76FE 87EB8AF3 6ED239EB 083CA232 24B35904 65AC739E 7D2EA930 2507ADCF 1F0FEC07 55A251D1 7BB6AF24 FA3EE5D7 DFEA0C10 F492A3F0 7CAFA514 1FC32722 F2464079 BFED0DBF F94DF2A0 AD3E05DB E07343A7 ED06D144 39D5922D 112AF755 440CE3F0 3A5E4203 DE6A9B21 F2C3E2BA 4C52BAEE 6FB73DC9 DE81B488 38202C85 A8F7DBB0 AA425C15 B8753DA7 BE4468DA 4F97E9AC 3417DA1F E5736C90 7677E22F 47AE4B4E 1A11D34A EA8F4586 5C453872 8EFDFD89 1B52D12A 5C137B3B 930812F6 FA595143 30F433D3 96810975 94001013 D16EC7CF E04A04EF D711D9F7 2FE46CDA A2CB8DCF 8821D6EA 4E3A7742 0158BFFC 258365DF E6328612 05AFD387 6CF08A6E 4D9F25A4 682E4D53 5D6CB37E 4A2E6BFC 5B5C257D 5C9D85E3 AB6E0AF6 DE64247D 0FD5F883 74777D73 D0C31DE4 1E3023D9 1B2E9E44 F07D8017 B3169B07 12CEF5D7 C3FC53A9 755CCDE2 FB75914F 75163158 7F173574 84382354 C9D23175 517FD6D6 7BA284CF A67C5BC4 5E5C13AC 7AA7472D F7F317FF 8BA82D0E 92679238 20BC4EFB F08A4BC8 A12E51D8 A2AE74B8 ABE627D7 99EE2ABB D34418CD 86E0DB9E 2F882739 8D495C00 F1C54227 B8432A12 8932F01C 74EEB29F 7F4B3A31 73C4D48C EB03CE54 F3210CAE 2F3A4588 E32F90C8 6FE4117E 342B2DB1 2ED3FD2F B7474CE9 ACB46050 A554031F C256CE37 2FB38BAB 5E21EF08 ACD93DDA FC19E89F F706E2B7 88845759 34A16246 F0EACD90 DBF18E35 A57DD72A 92C994FF 7C5589DD 0E0E38D2 3523241E C73AFBC4 1F5244B4 5EB7DC45 0A2E4105 1B139A26 5B693B36 C3ED01E2 AB876847 F6D9394B 83FB52DA B4EFB12A 83E5604E 06102EAF 2F0BA82A C4766155 12B728B3 A2B7C026 77A7AF19 1DF5BC0E 9E1E41A0 1A65D5A3 52335CED 7A36B291 D3C0EC4F CED1E17E 3FF5E317 547B4AB1 7ED55D99 E2F4B2A6 5A259056 E0097E62 CD24A6BF 3DB0CAA6 0CA4134A 04B9A9F0 9BD83155 D31F4CC1 16524F09 632CF771 815290A9 D7F5D4FC 9EE9D2EF 236581B1 5D2CC3BC 1B7A2ADB F80CAB1E 134A29C5 CDB8352E E3C65FD3 BF1A82FA 49DC1029 B401E01A D7DDF895 2C2C82D6 00F6C37F F2652E59 DA2F0779 4A794F2F 64E7DBE1 B7C58E39 CE716176 DA60A2FC E7A05D08 C140734A 8216CCBD D97A5FEE 8186613B 51F7CF5E F79FC147 EFBE294E 0BE26E1B 6864A4B1 DAA4A58A 856EACD0 22E963F4 66BC7F7B 44B41494 2C8FCC25 48467035 560E47B8 034CC61B 9AD81164 C463126A 39F0CC9A 6E2E4938 784F1B17 59B25AF0 8EDB43CE B1F1D6F3 309BDE13 1B769147 77101FF6 23C85C77 9AB33B92 C35166BB EC87E59B 1E1EAAB9 A4B6253D 632FFA57 2D5106C5 A208A8A7 DB8010C6 48DB930E D11B9F3D 55C81993 437E4FF1 E3009BB8 8C21CD17 6A57EE60 2FA4C750 97BDD97B F5E06DA5 2174F517 5AF55ED9 9C72F931 67B74B70 C9BB73B2 B5AFE830 FD5ECAF4 68997950 382A1B05 D03DAEAC 4418A89E 59478F82 14B77327 61FECC4B 82B23912 7596B359 37E6696D 4F5B9C37 31DDFD80 74BAC33C 4EBE2D8A 4A5B0359 47333DEF 25DA2BAA 24A02DE3 8673F27A 196DF080 909A1D93 2B01EEF1 90D35A7D 888697DF CF25EC4B 8AEBF001 ECBE9A77 C64C4D64 B3429F0F 4F3BBE22 05EF38D3 983C2E6F 9959D9B6 C8629DF8 381514FA D24F5BDE BEC958DD CC18E191 2F056840 927A47FD 99B55933 7EAC48ED DA057F98 13985A51 63AB005D B7CC30CA 377C644C E063AD0D 672A8402 F435CDBF DDAC6863 4C2747A1 EB1DAA9D 2CC85F1C F1C01109 FF71505E 62B26F43 C8D92A17 C660F741 40237F73 5739DAD6 36138A72 7A640D5D 993FE0B8 18A66348 FB1AB5A6 C786FFD9 D001DDFF 8F51AAF0 EDB1F9F5 D1A72866 80865002 60D5B167 8BAA1D22 76E10A3B F2B1620F 8BA74C23 0C518787 7F0918CE 9E1D2C5B DBBB8615 6FF96BAC F76474EA 05C3CBC2 69C00B30 68335FBA A47237E4 542969D5 CE330CA5 F6B9B576 977DDC80 D44C789B 7CED354F A8F6118B F0368F95 782D71D1 1DB3EEEF 48B51C6E FA4B2B81 228451CB 7A4A561E 5D21D9B2 6BD5DA0A 48674EBA B1A8575A 5D56121D 56F228D4 62B3C1D0 F0B22AD3 74F1BBC4 97DA6C3C EAF57645 DA12E2EB 9A98F31A 91B5A13D A73A3C74 4B59CF2C FFFD2384 297894E1 BD0B29CB 8AA1E543 E565875B 590B7FBE 90125C60 9B815982 64AFD20A 60906BDB 59CDB71A 01CFB952 A8C50957 8C901A8B 8BB23765 9B34FE69 B1B74187 C123CA30 83848414 4C387B71 B128DA5E 1D699AD4 E4B0008A 35251570 0899B624 3B812610 30B7D377 67CFEC7C 037C93CC 5A3A1812 59B32D67 15E93A42 0797CD18 C32000C9 4E5A2570 F8018EAA A00B0BA9 301363BF 922D7745 55DB5C4A 96E64DBB B5EEA766 EC49C900 1E69AD89 3844600B 562CAD4A CA1720C1 17027A5A 1ACE7B1D 50040587 67BC7B65 3283C610 32434202 065C1970 CE934B7E 1877AA8D 69C7C952 A53E287A 7E2BE046 785A2E8E A112209C E98624FC 9E72DDA0 92138D0F A424F4F9 8C84ED49 A8FD2941 0DD8BD06 7789F975 F9E06DBF D5A32DAB 55601979 60832826 0D7B94DE 2E703149 3092F3B2 C725E9D2 BA7F8234 9970551A CC3A1DF3 A2664129 E30150B4 274706B0 93695A09 A736323C 6A10D089 A99FC2F8 7D796B0E 86C1A99F 87017845 59CCAC83 CCCC3BE3 844CA82E CD614651 7BFEB43D 811B5958 102F9822 CC42471E 199D23FC BA76A2EA 8B79311B 956E0C9C DE3D7F24 C8F33618 D14EC790 114720EB BB19DDD3 C7DFE09C 247111DC 77A5C06A D9154978 64259A30 37CBE37A CDA0E465 4FF21DB3 F8E456E9 4A4AB483 C71A97DE ECB6DB38 7A3F84D6 07C52B1D 3DE5D3D6 9CBD6A62 C4A8CB4E F3828D7F E555BDA4 9C594084 0FABA283 82BDD594 0A56EE00 DF0DB4C6 B1B028B2 A45C246C FDAD4A69 B75BAC78 D2AC16D8 024B5948 25DB58A5 3C2C8BAE AFB6889C F2C2CFB1 6ECE1807 E42B02AA 7540B0DE 740F8E1C 36CDD78F 2E1B1A9C F03C5C55 0D95B828 1270A165 71C2F5BE 72E89606 646B25BF 0974B8CE A504BA21 C5BCD845 63828F4D FC377D30 E3974499 69F2C226 89EC9FD6 2240362E F4843C63 8DFA259D 9ABFEB54 9C4702FD 3F15A57B 924B88D7 C20A0375 882853C8 B3F6B9AF 22B96D53 AD0510EA 94D26461 2878988C 8EDF17D5 E6E66109 B2B3FD79 B3B1F39B AFA211CC FACF829B E01AA2FE D54442B6 E55C7271 5EF5C333 B5C41061 FCB6E44A F5FC4CAC 061F6A38 02D2F222 699665C9 B8D7C7E1 A7BB3045 E3044581 16283550 C394BCFE BF9A2628 2D98C530 F663A987 F721D7DA F6F9CC48 2CD302B3 F91616C2 94762D3B 1A28B400 AFA7DE5E DB753D2B 5419A625 E636DA27 63F2250B F554D741 7E57B14A E92AD579 D2021D42 22279946 D598F7F3 41D88ECC 2D2A76D5 D20ECD02 F88A7C31 22F5BC6F 5AAD682D C694BBCC 9B9FDAE5 763F9994 3BA06798 093E01B2 DE648243 5140A45C 7A1BE022 B67949DA 6B827993 093C6CC2 C552F02A B4E84594 16DB25CC D3DBE5AA 716E5DC2 E97A53E2 B21322C1 AD7AD576 C07BDD66 54F5B00C A10BC48D FF09C710 2488571A 588EC51E 577FA8E7 FDD25CAC 0D2E0BB4 17B7E0E8 3932C6F4 FF15DEB1 54BCC8EE CD1CDC54 14C652D8 0A8E0727 2B66844B 639D069C E6C61E30 BE20DBB4 9322E4DA 12D7CC30 4FEA5E9A 0695FCC6 ECB7F17B D17D46BC 61B699D3 829FB60C 67F7FD7F 03D456CF F65BBF9D 43448C32 9E413AB2 0D039854 D21C6E9F AA67D42E E6E9DCE1 E5B237EA 2677D696 B3E2B533 F25BC5C7 35A7B09F 3B3E9FF5 6252E782 2595E3DB A899C16C 268881BE 97EAC061 86736F8C BB44939F 2C7E8ADB CC00144D 6AF5810E 798BB92B 3188553C F78ECE17 274349DF FABC2503 5984172B 6092B27B FCFF3611 4855AA37 2B2430E9 B7804438 1FF2032E 2754D10F FEF4B6E6 CBF01C7C 92D2DB26 3E8402AC DE7A481B 108799F6 4BBF2F76 DFEA83E6 1C0AC834 C2EDBB27 7F2148A2 4FA762DC 5948BC22 5607F439 72CAA7E1 983B6E94 64303AF5 80A5EF84 B665978D E087597B 7CC7ED5C E97AE696 EEF7566D 7723339E 23E16B27 FD33EFC0 DE2E0C45 66C97A72 80E8F134 006F3EE1 5D793E0F B1391D55 ED40470C DA4F2B50 80446022 D17631BD 642F1CBA 0591361C 96323500 1C3571E5 2E754FCE D2C6DF4D 7D7EFA7C AD8C53A8 84955A7E 3A5C7904 7D3FE74E 51576C28 5A391B5A 767A26B5 AFC98037 5162E1B1 BBD6B0B9 4F4A5EFE 52E75FA4 7AEA38EC 8E530861 6CF15C6F 6EDEF84F 72386A31 41ED655C 6A74CB29 06E0C75A 0954B9C7 07601E3A 560B27A0 58A35361 263C118E 1ED1BA0E 455521F5 67B043D4 76D08209 ABCD959F FF9D6A97 36A85411 833FD7AA 00CC9FB2 C407CA16 EC0E896D 5A1C0796 C7199548 1284C59B D3938FE9 6E2EDAF6 6AB31519 FE92F169 B7744039 0163075D 26933769 C5ECFF09 E767CE5D 985CA711 0E18924F D382D2EB BA8B3E8D 6C407428 944D33C4 0B20338C DF7CC300 DB13EB12 ECE45F9F 4E317B54 98E426ED 937DAC36 9DB4DF8F 5C4A48C9 57D66408 D2FD0AA1 6B2D0547 5852C460 4FC783FC 8234CD2D 24F27085 63935C6E 7D83A8F1 A2673F4B 0F7AACCA 1D67BBC9 9ED81EF2 65CDF8A3 8C5B14DC FFC8092C 1450F62F B6A8C15D 24406C7B A8916AAE 1CCA1CFE FC9DE8A9 CC00D534 B4400794 D6570DCD 4091BAC7 F6582501 8AEBED58 FE90B8A3 45648801 1A9FA1C0 5BB2C5AC 6BA9DEB2 C6061852 AC6C31A7 8FF85F93 EED850A2 736F0F1C C1B90D2B C0C2BA36 368D14CB 9B475CC0 C648CBB9 0F468D78 1D9E3773 1261CCB4 70A37033 E78D0542 AE4EFE8D 583FCE1E 4F8343A1 4CC26F0D BD049A46 4B9BA673 5FA00D80 CC953398 27A3C1BF 90F9537A CF30113E 2838E408 B4A36291 6F39E82B 363EEB84 A74B33AB D3CF6094 AC317858 26F68DC6 C8B27AC4 4BA09039 7FABE5ED 78D85159 9589726F 4AC4EEED 6A8CBA27 B19D896E 5C97DF60 D5D4E7EA 0C51883D BAED5965 714060C5 7445E837 06087A95 4D2865B1 D78AF69A F374CB4D 6641A2AE 8410924B C61BE739 CE2BB9AB 9E386462 B514F170 3BEA4F11 1E542995 DCF48316 F8AED01E 27C09039 D81528C6 9F2C43B9 54CCDEEF A4DA4738 92EC89E3 189B05F0 CDF169C7 9D8D2C55 362166E0 42EC16F4 5C7E2F5C 4A0853C5 76ACEEDF 32CDD8B3 F1A849E6 DAE51DD3 3F49BB29 CA460440 6E3B4180 FE638025 21D79BC1 38E44E93 F4FA6948 FCB790F6 4C2FCF37 B17B50A3 474A7F25 8454411B 89DC6CA5 7DDE7D3D 8898DF3F 9A5744DC 54FBF3C0 CF35FA8E 92B7CF67 9E09FA34 D0816AF6 74BB127F 4397DCA6 E8B0EE17 E5FBDF28 4CE1F240 D1A5832F 1AEAB51B 2BAB99FA 210EE375 A1FBE466 AD14E2C9 DA3B2B7D 7E1FC545 608B85BD 5D74055E D831B27A 6A243126 6F0C7B5F 3F1A8BC8 5A59E33D 97BA267C 7A364E06 748311A7 4ADC1DF1 200235F9 CC5C86A7 2A39FADB F1110794 BD2F0990 FCAB71AB 8451A89A FAA13E63 51E7EE4F 94D88409 8F275DC8 1497BF72 E9EBA156 4F11461F B66FA232 208E051B D5285FE4 1ED77251 93AC268D 61087C9C D1CEC64A CA60BF57 3E293B9B 0D3E0B10 1640EC66 4D862B8F 25BB8805 EBF7B0EB 032C3C03 89B14BA6 F0F6F525 E2DE3729 5F92BE82 BFD4F1F7 7C1B6C01 46997DC5 C3D96E84 EC2823BA FDDB84D8 AD2D50A8 19B68272 FD8E1E06 FE0635B5 84481115 7F853FC0 F30FB967 102F60B1 C5967C72 B85B27B0 65FF58C6 7FE290A3 FAE951A5 592B3EDE 9BBB5DD3 4EF623BC 320183BC B7DFE0E0 6645BA08 071F5A2C 9BB119E6 BDA6F6F2 A8676290 C5AA8AD7 85B6F54A C0DB1A23 92FDF361 13BE88B1 3EFCBD9E 0AF4A58E 8957A4FD F32360FA 05E91A06 329CD59A EA8993B4 4A844D25 5C507C50 B6F46B64 95A4F059 ABE521E5 767BC5CC C6BDF22E D2F71545 C298765C B5024E48 92BDEAE9 2D1357A2 CA2440C8 8CDD85B4 D486E1CB 14457636 128F7919 DE853ABA C7891364 ACDC7CA1 D123648A 11DD78CB F204BF4A 158D2871 20920D58 1263270E DCD62113 5471C1F3 FD06EF08 8A4BD9C6 19FAAF37 00C177B9 D8AEBBB0 CBCB1CA2 DA649CAB 12EE556D D2805D1B AE69FF14 ECD79F05 BCCF3021 D86823DC 744C6C98 6E3D4B27 B721A284 BD4C39E9 39771F8D F88EDE12 E3E1AC6B E183CB51 2B5A4B30 8F6FA981 CF03034A 2C301C23 1229750B 22A3C8B9 B3323730 6BBE3516 17A28F41 AE3F216F B3E80ABB 15461951 7DB66776 B71C9B87 98C16215 F0EE8C63 BC7A9FC4 22A0A8BA 84B1CB1A F6CA34A7 4E315F27 75223789 FBB78D6C D5BA84BB 0FA65187 354ADD28 D81D0BFD F5584875 36699951 C2F9F883 11048465 5058F795 87B3B6C4 CA429BBC A0F52637 27F9104B E2C671B3 2874E55F 89768444 735D2E28 5FDB3AD1 79AD8C68 37AB07D4 77DBEB17 1824A106 DEF37557 17DEF89D 1B1E4AD4 2A83937C 35532015 EC22B5EF B5FA1326 1887F98A F021CA9F 5B3D4A6A 8D28883C 091FCAFF F32A92CD 6285A988 182FA47C C50B6850 CAC25F89 18500C17 AF06EB5A 7F5C59AE 6B9E4A04 03D662D6 F54D9AF0 9F10B360 D126F639 2D2313E0 ABD49EDD AC06C2E1 6FC65F33 8BA861B6 7E9B25FA 7081E070 68D63399 55CC344E FC972F37 A6D88A5E DCF0448E 9B1239DE 0C4929F8 535808BD 80B70420 919EB7B2 4EE36C5B 6B9990B4 FE1D7318 BF735418 D3F71207 73463A8A DD75AE91 3DEF10CB 8486F1CC AD5E7A27 E0714037 B0301B90 2A9E86D8 4341CE15 0448F4BD A826DB96 B5A9585F D1B48C94 E5617A8F 0F372F60 16F52521 1836BD8B 0D7AAFAF 422E0E90 202D240C 15038774 F539534D 456087D1 99729A8F 2478DD00 AAB4EB81 A31417C4 0FE09A0A 5F3DA35A FB41F3A5 06B00901 5C04709F 2B3FE28B 733B2086 07173A67 86E7719D 27E414CE 7495C8E3 7B0A1B8E AB609965 C07BBC6E 79C3B1BD 123D3456 B16B6E40 3F4F4D53 E23FE4BE 2D5CEC18 95B0F116 A7703D76 10CF552F FBCF6F19 CC69AFFC FBC56407 36E07C6E 411DBC1B D4D1CCF4 8594A863 736D0BF2 7AEF0FA2 D322C113 A2F9D58C EB0C68B0 EA3BE385 8E65C3D1 EDFC9548 D97F97E1 357C1CB6 7CE76254 95574D32 9B7AC3D2 2FB8F7DB E793990B 8318571C 2BD326D1 0C3A75BA 4C882A07 F627F598 FCACFE78 BFC5ED93 D730147E 7B7F1FB2 DE91A72A B4893345 333E1A38 5F8C1281 79109CF5 646220DC 56C9D1F5 53E1BACA 3817EB47 341F83C9 E67403A0 1C5798ED C5742616 95DEC87C 9B014D17 857BDA6B A89C5D89 41CC7EFC 49FD0ECF FA706AA4 4601B22C F1B1C4DD 58C31390 4F6AB8A3 134F9BBA 124AF20C DFDBBB76 7A6C36FE 9287F42F AE2D7C42 91C2776E 81104726 41C53EB4 11EF792B CDB1E1FF 2B6115E5 3B92927A B60A80A3 EE6390CA FA7FEC8E B9F063AB 4823C6C3 85F58B6E 80563776 D5FFEFD9 486FE896 1B0551F2 D9E77CA5 C99ED20F 9223213E F8F27D5A 5D1C2392 FC88D7F9 1B5E372A 6731CCB6 A408063B 88D4BC7D 98610851 BB61D935 B01B726D 5C51EBD6 D2A7BB86 2BB2FAB4 CCEB71C4 E48250F2 81DC84F3 7624371B 6FA45FE6 9507DBB1 4B8C529D F70526F5 53498EBD A5B12F8F 1BA176D9 A15AC4C8 01CE2EEA AC0BA452 C1B2E6E1 009A67B1 834826F9 09B785C7 A45E118B 6BA35206 E1BC5388 26F29F05 5FBCCB37 CD12A155 4D59A0EF 0B9C32E7 3EEEFCCE 208D4256 5E3D851E 1CB64A4D 0220D7DD 2DED8345 CAD40DC0 13D9EACA 7F895859 37330F52 95C67E3D E65A3A1E 381DCA26 81EDA84B A19E9068 F172252F 50B434DD 810FE291 AF55C75E D61CA07C F8F5A07F 5D38EA42 9C8F8204 5FCCCD5C 80CB8B9F 1A64C129 27D025D7 C0482818 73AED8D3 AB8A4872 86D796E8 BEE58378 E535A317 5DAAF396 1C598424 3FD4C63B 95B52823 1E9DF58D 2E836ECB 2A1D9D49 33FAF18A 4AE6C1DA F0515FE0 16DF1533 7A668896 74E4638C 1A4F3CF4 D834A796 85FEA836 DB47874B 9347B169 E7CA4B9F 1C7A83EF 725FCA46 09DCD68C 807AE68A 4D78B9D8 6B3301A2 C2EA2F63 792393A0 205F36D7 111CA14B AC42496F 55EC3A8A F78A03A9 CA662D68 EC1405E7 1249DDBF 548B06AA 773F638F 4FF1E13A 078763D7 AC1688AD 20DC7897 51EBD61C EEC690E0 94A83165 DA1770E8 58A50F4B 7AD158E9 CBA707A8 12C88A00 4D169FE0 B3FB0BF3 E84D0A1A C3FF77D8 DC6411AD 7AF5E180 2EB31737 C5B60D92 0B7D46FE 83AA85D1 A03BD580 6271384B 1709B1B2 FB82A9BB 2AA639A2 50819F48 888A2350 66D7EEF3 5D7458E6 F6E06AE8 270261AF 912A76EE A574A2E7 D3E7F249 8752C2FB 803FD544 A018E8E8 108A5D0E CF7BEAA8 663BBB21 BAC7F465 112642CD A64D8EC7 74127A9A 8CF013AE CFBB606B 6659B336 E3DA2AAF ED36CC40 EFA3E0A7 E62A260B FDB7C943 60E19C04 A8D61CB3 84F8FD27 DD7AA9F7 A8CDF662 607883A2 6C4CB592 1043DC46 37AA750D E319A45D 01475BA6 B2BA50BE 10E088CD 3B6C4C60 9DE83EF1 D93A7BC2 A09FBBDD DBA11EA7 61D23E20 6354819E ECBF4FF6 D81A5A14 CB9DC9EE D8FB3F5C 50099974 9FA07145 7D586AE9 4E1214A8 A35C7E9E 6CFDEEDC 3856CCAF F0178636 AD633ACF 2BB61365 C875BD86 EB30993F 5B4AE197 DA2F61E8 07771754 0EA2F14F 9B70A5CF 259DA872 AFF63A7F A56AEB11 466A0228 C5A14EAC 9C0D27B2 A46039AD 53FCDEB8 6876BF09 C52B59EF D48493F6 CE19F441 049DE937 70E2B28E 659DBD3D 0718AF9D 45809B56 C6C2D430 B8E12DA4 B4330AFF AFEE4D87 66E6C7FE 71371253 03BE3A4D 8B661EB2 ED052A60 B54596EE BF12E4A7 DBDFE289 9E933C52 AADA7B50 5A9EBA6C 72FF98B9 70E02EE4 5BDA514B 136EF09B FF5DE6BE BAFB8D69 5775C362 7842AB24 C25A7289 8EE234CC A4358E65 C097B03F AA606DBB 901E291C 69FD58A3 069D6793 1BA6BB78 FF892199 D9E6857D 57DAF4BE 5D35B4B8 788D6175 9C9BDE9C 66D30817 F2FB6BA1 60E8E1BA 4746A5D3 06F9156F E7156FF6 1A19316A F16CE5DB B73AFF6F 8FF38B6A 8C93515E E50704ED 8C6B0725 10D389E8 9FD3F663 82022EAA ACCD2A64 C87544F1 86982B9C 5C82340A 20490B88 246FCD9C 1E986851 2BC75909 4C57F927 5AB73F5B 4EA5333E 93752E8C B357FEB7 C7DFCB1B 75A08B6B E7F74BA0 127FE999 80ABC595 0DA73B8B 681AD76E 454BAB16 151A4854 03671303 C5D6D752 276CAD52 E07D69FD 836E366F D60C286F 326FC038 BDCAC5BB DD32E5C3 9C5EA7E2 9512545B A4390C82 FD697280 4F8F92B6 7C487ECF 92E4D361 95E22B31 0BA25578 F5B10164 E95678AB CA4AB016 DE51F2F4 0D025EA2 146E1301 9ADDC49F 0A4E24BE E71EBEA3 CBA88A16 386F835D 6BAE45E4 D888BEB5 13813BE4 586578B7 C142DE17 20CD5C5D 983E181B FF15744C 3D3AFFE1 A9BE0C0D DB08152C 791298F4 5FDD16DC 11822E5F B1006D96 04111345 9957FF40 AC232B5F 3A1AD97D 3652CBAF C8F4C717 AD03608D 18D1BA77 6701641F 50B2C957 04145266 6E175A8C D188E1C0 CAAF50B3 2B30A0C0 2E805F8F DF034263 55B8EE32 A35615BB 1E4EA551 BAD64420 BE2AD111 4501D4B9 1D791F23 6ADE0577 B34F9E69 BCD16EDD 185DDF63 9BF071BC 3F55AB88 6B98D9E1 9B794D50 819E836A 2F2BA7F2 0FC12667 BDAAEC49 AEA0823F 44735B95 F15F168E BC9B6A8B 114E08B2 64C28F20 A6217553 232838BE A25BFB66 A7996664 D2C7D37C DBB16A6A 52803D92 ABEEAC4D 8A420F69 CC454CD8 8BCB5B71 74F91B8C BF6D6787 D5285DD8 0692715A 3943413B 1DB5AFD6 5BBB683E 45D6F282 D1657BDF 5FAB1AC7 4D2B9688 5430F71E 91E16B02 562A64F4 9346E6D1 D5976124 CDC1BE94 4D977865 FF81E16F 54BA622C 59460398 00C63786 E8ADB5C9 DCB7C45E D4DB2AEF 68D4A1B5 AC5DEA41 7F9D8ACD 6AD437E4 91235588 801607E8 91C4C0D0 AAE5A4CE 4D02A9A5 5EDCB42A F71DC549 1AD8197E 8B9667ED ABC62D86 C9A4D821 31FC6069 864918AD 38002883 2D1E618E 674E24C8 3105B929 A341DDF6 AA2F54D9 61CFAA2A 0086E07A F903D21F 352AF19F 9E1B3629 80E70D3F EB8146C6 53990548 2B132352 C158507D BD5A2E7C E26F729A 099812C0 81D9391B 6F91774C 49F8F9A1 BEBF3D7E EEA9B7E2 2E232712 603BD73D E98F4BD7 7213945E 6127F8B3 BC691411 5C59E23C 34CE7DF2 198AE5CF 6452C495 988D9A84 135C0E8C 21F2B1FD 32EF5B8A 5DC821A1 9074E084 AF4AEF5A 66597E72 50255658 7D02047B 16FE44CE 32AECEFE C7CE0C57 7ED0DE13 991102E3 8669C44A F66A56C2 1C4B39C1 F5866C01 11AB6620 35EF108C B7506F92 9BE9D493 B0A340FA 2AA6172E FFA77292 0F2FF252 5A3D948D D413FB65 8A1104E5 13B6DE35 3775375D E8917BAD 0FD0234C EBA2A48C C4160B69 618233ED B4EFF67B 2E8DA9F7 807C56F0 95046C2C D5541004 4AE7B531 CFA067F0 729F414C 71AE171E EB4DACF8 63AB6D80 964F15F2 FDA0A6BD 982EE6EB AD5EEFB4 BEDD3CE0 59F8992B E5451C97 FDB02846 07D1B59F FF0D5E75 F5C23929 3565A0C9 6480421B 379BB34B 55E1A5B5 C679B1CA 520F30CB C3ABFF81 D1AAB644 9DCD24EE 6AC56226 D83D0049 56F3E33C 80334E8C FBE96296 5DE4D73C FF85A31A F8889371 8E6ABBFE 2EC4A230 EF484164 132E99BC 21BB42D3 AFA9C9B0 8E483BFD 4FA5D437 20837338 49FA5C2E AA479F85 093C345C E36EFF19 1A7010B3 550E7920 A19D4FB4 57182B1E BB1EFA4D 5DC95249 FC19918C 7113F78C C09DF3B8 DBBC8319 7B2A7055 DF9FBD83 25A95654 B9279EAB AF1EE34E 1127A075 392E6855 5EB4D615 A3FD543A 9AAB41D1 A9358533 F6309471 460AE752 8525E0C4 2DC2C3FA FDB2F9FA 6C42C558 F2AEBAA1 154C2AB3 A4159C93 2AC950C2 BD56EA54 42007595 056B3556 198C9496 07066E38 124512F2 5AB32A55 275C17C8 E2A2F2F0 966187B0 6E669F7A A80CE435 BD9E31F2 78D50C43 773B72AB 06329A4E 8DB34C3B 9A116168 52E2A69C 6D6435F6 31AA82C3 334214B9 457AC4AF 9FDB22D4 5B80C3FF 39307F89 AAD6810A 749D654C 12D65A9F 5FA9B959 888313E0 4DDB456F 375E438A A7D8F5D0 DFE39BD7 D23E26B9 65379DB7 4658B83E E68E482D B0CDDD38 3FD7E0B4 79868DA4 ACB7BB2E DF11A686 8F2BC768 2C63E724 047B7EB2 FB2D4928 05E82F15 EAFF0F12 FEE9046A 3C486043 B9880DF2 CAB6B0C1 961B51F8 0A1541AF 606153A0 161BD81D BF7EE9A9 097A7C44 842590A6 FB71478A C8AB8D08 B70A095F 8EB5C39B 49A2B5C7 A4040EC0 23C16421 7409BEF3 E5994817 244D5D2A 85E60D57 271010D4 0CBDFB46 86C54F4F 8D748145 7FCA06B6 D59BD15B 58100A09 B365D71D 2E411FF5 FB8A8286 8BA8DA8D C966413F 153BDB4F E587D994 6BBEEA22 D162CAAF 25FF5823 6B8487E7 A6472FAD 0AB2EEBB 39983CD9 D9350C5D 11EB82AB D220E6ED 34F14A73 40FD6EB3 DE11B1A8 101889BB BFEDEF59 3565B1C9 89237433 DE1207E1 7B842A20 7B205151 A078E494 75910DF9 989B2DE7 E3AB1165 4EF3DAA3 4ABE092B F9737DA4 62EAE7F2 80043A2C B8C6FBE8 1B9E8391 1A0EBF4F 257B57F2 9C60D7F8 4AA2678A 3EC92F11 FB957E64 8860C4EF 1CD4CDF9 6D60D0C3 044CB86F CEA74252 7A16729F 311DFEC1 1B83C0FB 11BE5B1E 9D784A2B CA33245E 55010F55 A06421EE C1A7AEB6 4B799FF1 7BEA8D1E 85534092 FCC1AC50 FD807448 A9CC91EF 617604B9 D7150E3A 75527BA4 5093D573 9F8B4EF6 FE061094 CBD12D36 27E112CE 66545544 0FE22CE4 B0007183 D780A4CE 617A7C8A A333648F 767FCABD FC99D270 D56DB82C FA56A701 6BE09E9D 8FD3A67D 45FD86D4 25EF6C6F 4CCA4CC4 D5844F80 DFEAFE05 4A385BAE 8D9D03DB 136AD24D 18F45DE7 8CC11DCA 3331DBA1 F567253F F11B3CDE CC08E105 41DC5162 C09C5104 FC9C93B3 EE019967 AC7DAD31 76F1D032 80331E9A FCA5E008 912E1B28 59E89149 5DBF156C 25AAB23E A4500001 31B4622F 216DB191 F3534F35 BA020803 E37BC2E3 55C9DFE6 A08AEBF9 D9174EEB D5662F81 62D2FC98 4B9E4C5F D1395878 80A7BD8F D310A505 C956A508 E9B0EA89 D460B96D 5F25D81E 75164543 9ACB09B4 A9E2ABA8 0734C6AA 75A8A72A D6588E94 69742929 668C6244 4877EADB EE833DB2 EDCF781B 15E76C04 15C89E15 847B7903 68AB3564 4E4E9CB5 A0F6AF6D A0F60005 78E83113 1C6EE489 6028C13C 47189195 961D0FC2 D0B20C4F 755C73F9 09507FB8 9ED9D231 B7B18D4C 14DC7B45 2E9C2D46 3E05D1DC B4625E9D CF330A82 2C0E0FAA 0E4B6D40 D87B23A2 EBBB955C 27D965BB 1EDEEB80 D7C1BA6E A7B2FDEB 9578A918 96E3DEC5 6CA69C48 42533A51 519C0AD9 16CC7092 3568D4B5 080B318F 3E95C0A5 C285C682 ACFC05BF C4A1278A 39DAF4A1 E57E1087 8AAED1BA AB28CC7E EA3CE9C0 E67E57E7 11D2CEBC 0F424812 C814FB63 F1045580 7AC9FB37 DAFD3D32 87989A14 AC35BE52 B880BBA6 1F98194F A3AA1113 1A5E2F1C 3D53AB9E 062C89CD 621B6215 F9DDA5E1 68AC548F C616B8E4 B90BAA68 8929C41F 77EEC950 AB806CD6 0C5E07C6 9E772F89 A6CC2717 D1A3ADD1 C0F7A4B8 F1A981DE 0ACA28F9 662A97E6 E29F0FD0 F0087561 67E5671C D67BBAA7 A8AF71F3 F762B359 3F11217E 5B780060 6899D052 C2B7DA22 0D8029B8 21D8982B 4131B1A0 57B8C4F5 F89F1901 A1C152D4 F71FC795 06197838 586FC481 1B0C4763 D85BB7C6 9FF49DB9 E69ADF4D 01AF0D5C A16FA327 AEF100D4 4EF0BEB0 49EBE318 B2DC94BC 1BFACAA0 1C8C40C9 FAAB706B 8A03FC3A 5A233F1D 09317C27 EB86FDA7 7A97C16B 71372544 2C8DA160 3EB20007 7A418627 0EEC15E4 9D316D6F 9B48D333 1365DEBE C1BFDA97 B8043A5C 65063E5A 1A5675B2 0BEC640D 25FE907F 52B89065 554F8B8F 98FA3302 745ED315 6291F968 4719ECA8 21E93D48 1336A893 ED2ED90A 8FD04E38 83E8DA3A 04A529BA E5A3C751 CE320A02 23CB4F50 D1FE68B9 E250D308 2BDECB5D 842A1E23 1F3B1B3B 30848608 4BB28C75 089E1855 04EF6C89 8AB1BFE6 E0CFADF1 3941D46E 4F21D044 3937DB82 47F75E7E B3F76B72 8891CD09 0D384017 7B97A1EE AA79F171 43EA1C67 A8BDCC82 2DC26F0A 032C1472 AA31C217 65FA5483 43108426 197B869F ADF987DC 40F4233E 2C75325F 6DEBCAC0 AEE7B2C1 507B70E2 60167287 6BC4F11A DAF7B8D6 18313D7B F812AABA B0AF00DA FCFB9A42 5318935B 60F0A20E 8C7BFB7C 6982A3A3 500F4941 911D31FC A32F2F47 790D2C42 456B5DC0 E9A13B53 BACB9CB4 FC1A9B46 8F93D8C2 6F6DD74E FB343B32 0F181255 F8DA7444 AA0498B5 EA3D78C5 F6095D14 EC45B9AB D10C00F0 61D4398C A1CC92F0 8D65A515 B83EFCC0 2E8D6079 6D0693E0 D895FFBB BB784514 80C18AE2 132417B6 F2876108 F28F04AE 657904D3 4C43B4F2 C4088374 AF0E66B1 98461521 357F6436 7120E2E1 190F867A A1FA6D3A 7B285FAA 87CD4F93 87ABE99C FE4CBF93 02937357 5826629B 33403CF1 B76BEFBE 3D059859 8260DC0B 346C7316 FEC9E973 62FB7199 6483E385 BD6C04C2 42BC7993 FC76659A F40ADAA7 EF6D2717 E4973013 74C2517D CC03F89F 8599D5C8 F0D76590 ED7C2746 5F700F9B B6CC7235 3AA815DD 82BD94BD 3ACCC0FA F0CB72FF 8898BF82 FCD9D619 01493E4A C6E66DF4 DF4BDB76 464F0A39 CCE0470E BE193C19 E493B496 91BBD764 1CD98099 85EC84B8 6D5BFE9D 40814BFD 2B35B4E9 629F4EB0 D66A4369 73D9422E 51F1C966 7F101FA6 1639930A F0801CF5 A26B6693 4C879640 DF610A95 DDEACEE4 001D1CC7 21E98D38 79A06171 890DF1F4 74707DCF 4340F435 C9222AF2 05BA76D0 D173ED17 51BF2E88 FFD3283D BC9B10B0 1DDD0214 0E4709F3 6DB6C401 A1C9240B 5DEE1A63 0B58650B FC35199B 7592242B A8782B6D F1D28642 2B50FFB0 1C20776E 3414D62E 6EE7B2CB 33CAEC15 06540A44 6A08777B B1B12853 576ECB46 9946918A 15CBCDB7 A623C560 CAE9CB33 FC804C44 A736C591 FB0D374F E23D8BFE 1CCE584D 64BF5BB6 CB5C07B0 0603AE18 7A39A39A 2D35EB6A 1E77ADE8 5C01A548 96B86A4E C0F9EC95 3ABB6EEF 3BDF9663 50793D2B 2C1A88FA 45BDAB77 D2ED81B1 6CC2142D D35E128A 9DCB7A6D 5CE94E31 C7F54577 EAA3B6B3 B29CD78B 5CDF674B 6F88C3BF 690B3921 D6B7DAEF 1306208C E6CD177A 335553E1 B3E2F89E 5A3BA417 3E8AB0ED 7F1EEFB3 8E93EB18 C4265A86 F7409B83 8D9BA351 331E1370 538710B9 2F74F551 A59745B0 DD01E8C9 966A3BDE 3C6C6517 54CC0212 120F7BB6 59F21E0D 0593C1E1 79E5DF0B BC028724 FCA74A82 E7959CAA CC5D6AA2 67CFE47E 41A0EA8E 47161D75 51D8F152 B658760A 726DB469 88A38190 96B1D420 916C1FB0 50574BAF 71C41C3F E35156E7 D07514FB 3C279BBC 57261C79 0C5A34AB 52FAB585 7992AE93 52B3AA9F D3D275D5 59BF7423 490961D2 46E28372 69C31FC4 BEDD2EE5 6E2E7925 3110F332 9EFC86F2 B059A2EE 62B52F85 AFD197E4 9AE64E1D 46656619 54BD5603 AD47D8DF 61B4B098 2518EDE4 E9D2DACE E993EDB4 4BC6D1CC 40AEDE9A 59DF60EE 2B0B48AE F1D79BF4 9D84D274 9761C04A 3D8F05AE 59F97D56 DC499E99 71488177 647BBDCB FF1470D6 4AFD58EA A93C60FD A333518A CE40C940 71908261 D2F9837F 328F344E 6BE01B20 3D7A1A8D 9C913A1F FA97C2A4 E1ABF6D3 B249FAEF D6B1D227 F5AB9655 0A1DEB2C 2C221E6B FBD42135 661B2AD9 F7DC56F4 9EEDF712 CF35CC65 CDF7BAA2 26ECD611 5FB23D78 4319E7DA C11C9B8E EEB2E09C B6E343BE C6E45552 B668FA50 2B04D59B 4765658B F6915475 93D98977 6E9CCF19 6D2B8A0D 7BD04407 F0753444 53B7D02E D6A64BEE E34BC4B7 7060C164 AFC6B5D4 7D7B37E4 8DE7CD53 5A040CDC 947DBE31 53BC805B EF9404F4 1647349D BE3FBD81 F0305A95 4C8271C6 8331FD66 A59C2A93 3934163B F39A7B77 87903B6C 3B46F98B 92DFBDAC A54BCDB9 A1F3F282 7957E133 E28DDB6A B7CF781F D0C7F9D3 94BA34D4 AA600110 79C9BEC2 78F36F64 F5106484 CF47D597 2F1371BD B4F2CEE1 F7379B76 6FDA5D92 B7D2D50C 536B5B88 942ED720 070E220A 3A0CCF95 DF4C6804 1DD67CB9 A9A30EE4 D8BAA865 00F4EDF3 3804752C 05ACD1EC 63429526 A550937B 3C8B45B9 54786822 67232FDE 0AF3BFF9 1E20AA9F 1504C97A B49C34B1 723EA27C CDBE86B6 C76FF064 106A274D 570C8B99 ABC3B6F6 C019E33F 04161EA8 9383BDDD 3D8A1960 81DD85A8 2C3F7859 9836D504 7589B6B3 A33D9047 4DE2B7FC D8B3B338 E977621C E5F9142A 0E1FB942 C060DFA3 A9200A28 321231FC 000ADBBA C81272FC 6D4D0E5B 5575D121 BC5EED1F FE69E099 FA809854 77576DAF DEEB4A6D 8B67BFAF 8CCF381C BF0734E5 17C29629 2E2FD828 8604108B 45775445 D69095F9 2B79093D 656161C5 F55CCF42 82960167 6DF0AA91 0D9E88F2 68460A1C BED0C50E F8B65880 EFB1A8BC A510E3E4 09F5AFF8 2F4374FF 28744436 A27C9B17 CA279C46 03E0B2AA 6E0628DA DAA944FA 12E0A9B4 E71F4199 53BC0C51 D08598F4 BB7E9EC0 9AB2A1A3 3F99D445 FDEEB2E4 6C560028 4695B869 4070E6BC 038B6369 72892C64 B0B9C6E3 5C2C81B1 E40B7B40 19A98FFC 28880A45 C4AC2E2A 6509A988 6E48D4C4 FBAA1584 671BA910 05A9C939 DC900E26 8E971EE9 D39055E7 5670AB58 B108DEA7 4C2293BF 0801347C 78983A71 9BD88FEE 7EC7DDDB E7AEB8FA E8C5E9CC 80004A65 2F7D8A2C 4F94666A 47A1EC2A 57912E27 0FDBCCA6 DC097D18 0FB51FED B9B8B006 0ACE1411 8E505B76 A7E08BB6 97AC0BCD 7A005CAF 394692E4 47D097AD 421C17A0 C09EFB6B 8D73717D 9C272B4C 902E3358 02C7CD55 5588E360 D6D0AFCE 27315899 130829BC 7A4276C8 51BC31D9 F2B8A9B4 5EEF20CF 3442CC52 5DBE500F B541C88E ED572911 6924423B 6625718E B57897F9 3385DDF3 0D6E313D 1B21FDDF 42B54654 BF6FED8A 07FF51C0 51D8260E E620C974 E218D77A D36771F0 1C8F7F10 A70E749D 25D5F2EA AE5D06DF C62D313E C7888CE1 6C543B7F 863A1F0D ECE396BC 0FCC3D18 0A1E694D FE367011 F007F9DE 7A762AF2 1681BC2A 43ADBC8D 0F93F5EB 35DD51D4 59B5F69A 17F9AFF8 C910A1CF AF1BE1C5 9CE093B1 20C8B49A D486E626 B1582253 F28854CA 0EF96CEE F7C2889C 3A73972C 31E6F6FD 61341EB7 95B45061 7C18F1D9 72035F5F 34A355E3 5A00ED33 2F652B2B 891AD52D C336A0FD 12CB4012 492794CE 8F2116F0 FB2A9572 32A680DE E3C58914 361E962E 613234E4 D04D4553 257D1307 22439CA5 5243ACF1 18EDF0B9 4CFFAF59 2DAFF72B 3CDA03B6 D87E3490 89EA111C 205F3DEC 611F116B 9E7F9312 9BC4C3F1 7BD6A15E 4B2E0CC7 66B33290 44763ECA 5867E191 DF6B07A9 74066295 38CC5E52 D2C0C874 0B72DC1F 59B56269 C86A599B 301A1F00 AA5943FB 6E4BAC65 905E0F28 076E3DAE 44B5B54E 0EA1D665 C6CBB648 81693505 79FFDE8B 55F5F1FB 522F38D3 9C721CFD 7FA820D3 AEE2ED6D 836E3B89 228140F4 A6220C3B 558ECCA4 4F020135 2A892DED E2AF1421 174425F0 200E2D25 2AD37012 BB202C86 DFBD6B56 717E86A0 7F4FFD0C F9C808C2 0EE160C3 34B07221 7F9491E7 01AFD748 D246A53C 94D6574F 2D9E13C5 54A8BE02 2B43A329 9D5A51AE 12133480 269F67F8 0AA67B21 69402D30 647CC0ED B1386EBB E804C216 4F196E38 E2341F73 2FFC0E8D 7EF4E3DE 360627A0 60AF6909 DC0E95E4 02A1723C 3334B288 7937B769 D237D3EE 14551981 63184F7F 77B21DAC 5389441B F182F804 1C28B54F 3ABD4CC5 BBE4B89D F19FBB45 82926314 A44E3A6E A6D9CC4C C9887313 65CBDC2F FB10FCDA 2242E0D5 CC413EDF 0EA5F9B8 EB12417B 021AD01B FD419AE1 EB102069 3516C6C9 F2F44B25 6D3CF05D 2F8643C3 258D29B5 EC6FF0A3 9B217D8F 6BCA5BA4 AEAED53C 4F32DCBC 8920046D 2212CB78 DAB1B6DA F13A62A8 DEB70C16 685E6EBE C793ADB3 A06B3427 7E969508 2323AC1F D030E970 EEC3ED6D 926260AD 098326F0 2453C995 38BB6861 5F25D1E4 65486545 6336B284 419519B5 EB42FEB8 FF38AE44 5944BE57 25D31D25 2F2C28AC C5BE926C 3D2DC16B C2160066 9B431EAE 617C2A91 6C440538 A706D380 60A8F404 10124104 77746B33 473067B0 3A9BD693 30462B36 2FB0BC25 0FFB2012 E0A7C53C 499613B2 5415E912 2A1A39F9 44A4514C A4637867 61073712 9D548E6F 488A4994 E1489BC0 A693AC11 CD63028D 6394FC70 7DEDF504 B87DC043 2C16780A CA1A47F6 ED3B897E 4C2A0432 E6D434B2 35295065 07EE269D 6123358F 01AB1624 5B175C30 5D232153 A5824EBF 74CD6BF4 4E87859C 4C5A371C 456E49AC B8F3940F BE8E06A7 524AE0B5 E6187027 DCE305CF 1209A7C0 80E8E2C4 DD94D2E7 BED5E640 42DA1610 FE189BB7 8C0CAFAA 0E90389B DFC51C6C FDEB1931 90D9614B 7D2F2507 83C5EF24 17A67458 9E569E20 E113A770 01BA8AEC 6E426E3E 0ACC1F02 621FFF47 84D3C3E8 DCA551C5 DE3BE64C 513888A1 61BA6F72 C92DCC8A E875656D A22F4573 E58A2F43 64BADBB7 F3025455 5D45E7AB 7C182209 5538185C EFDDA9A5 A080A2F7 1C15826D B46A18A2 D5C7B002 AAC6816F C3FB6EF7 1A2A3FBB 4931A791 5891E6CC 3133AADB EF792543 2A3F20FC AFB65022 65952856 1EEA0640 ADC2C0CB E1CF5937 751792C1 E298BC7D A59F37D6 87E7B2E9 D7C3565E D80FDFDE 50BBFCEE 9C3097ED A5C7104C 59240E88 94728F7B DA95B28B E04808B3 492B7777 C6CC78CE 27DAA28C FF23A2FF 0D4E54D2 05854C14 55041BB9 2DCC3CD4 E8CB4C3A 40D98CB6 FE007A8E F6F3501B B228C905 374CB2FE 032F3672 6911C603 3A19D3EC E82377BE C7E075E4 70E6CB63 4F0DEE6C 4D1C50D1 8E3F1FF8 3471D6BB 71DDF8B8 D5E7E44E 7D6B2141 B5A08A8E 8560E948 D7FFC2DF BB6766B7 B1F80800 26164F18 3DEA58AB A33066C4 804EDF7C 2344FA3B 420790FA CEBF5452 04965BCB 501B82DD D2A20D21 F19FA601 17A31DE1 B9F97BAB 291558AA A77D84A6 79B10D2D A06CC005 6DC1AAA7 89FBD4B0 C3CB7354 45CFBE6F B8D84105 82BCFAD8 DA00B3A8 66824660 5016D872 6BC85D92 21FB8554 6D584B09 EF4F53D9 2E383048 2D1FBC2F 422536EA 1478EF99 09947E7B 34A1ABCF 93EFD358 110C4AA0 99AB835F 00F7C949 65CE1EA5 6A745513 9A485208 10EF24E0 D0E091E6 270D30CF 9E558009 C00ABFED 6A8A78B0 EA7976BD 4259B471 70393CB8 01E4D6F6 F2205BD7 C3DD9ED7 5E5DFB51 08DC6330 18B83851 80B0841F 4C7B9B14 7C03819B B92AE87B 9E3D57E6 5AA80B2A 331808F8 BA88BF2F 25FB01BC C5EBEB33 6B4DD2F3 826EFED8 333FFA22 6EF985F9 CA2F7505 E1C504B1 D83112F0 C4E134AC 94CAD498 6F1652BD D9EEA0A1 862B83B3 090296AC FF526745 0E7E3299 98EC5285 0EE8B2C1 AA0239FB C000E5D4 65F1D839 FE034390 63D21D24 AEF33F35 6676F2DB A370E99C 7EF307E7 DE86F462 0EFF1525 5C435773 009D37D6 443FADDF B70215E3 CA0B9C75 E8C11EAE 4B91B814 B36E3679 408181BB 82C87173 B61D5312 1E67EB06 DE1826B6 0F5C82D8 8B9D3013 35898070 D48D1101 BA302801 AEE31907 B875476C 64405940 778CCBE0 4726F91E 0F2EE01B C15168A7 7FE53F2D 76EB07A2 64C25346 ADDAF869 240B1778 513E54E8 A154089E 354833F0 85F36239 9619F79E CBC5C8B8 416E144C D2032DE8 DF54A4CD 8E2CB47E 6F4ECEAA 025D62E0 47C6E1E5 F513893C 8A785347 027DBB32 874896EA A10B3538 89DADF68 B1B20F81 0C9E0AA4 FD798E49 C299DFAB F9FD10EB BCC0DD8A 228A3F56 7B2F5752 CB11C6C6 1A504B38 E3AD66A0 061423C4 3790D89A 8E5087C5 AC237F6E DC7661E4 AFA61017 F92D4022 DA3E827E FA974FFC 5FBC8F28 D0EBF1D3 9E74672F EB01983C 460E36BE E2215E7D AD29248B 425221A0 E236BCA7 EE26BBBC E768BCBA 0B8468C6 277479C0 C2370FE1 39C7B09A 87E99A6E 845B2C46 8AAFDC3F EFC81FE4 F8F68946 FF8B44A9 197A0B9F 2DC719B9 7480C49E 822A90C2 A87B338F FDECBAB8 EB9F4EB7 B46F4675 E09974B3 F3C22012 7C01D11B 5620B7CB 5BA6EE8E 80FDDBA3 C77986B0 DB7656F4 D5F0C6AA 8E0D0FCA DEEFA640 EB00AF2E F530C4B1 7D1E5182 FE7ADDD3 6D16FAEB 8ABB7E68 BBAFAB05 0E2ABAC3 BB0A2006 2C2A7334 6F14E200 4C716DD6 5FA8DEA0 AF84802B 4F551169 4059A4E0 C3E9AB47 6ABCE236 2F7DCA0A 4638DA22 0DB3ED7B 21E68494 BA5F107B ABC704E6 B0DB49F5 243E2F5A DF5D6D03 80885243 CF9DAA6B 4EB38FAB EB51DD32 4B8DC678 71999035 5398297A 1BD5CDA5 558354D0 FFF352B7 55E8C68F C73CB649 547BE083 CB6EF4C4 D95E6DA0 B9E4F9F8 A90BCCFA C8C9B5E4 FDA64071 4A8BBF23 060516F2 7A3A5C0B FB8B30B4 D90F666F C00CCB43 229A9B98 8CAFF86D FB842E21 4352CEDF 3A7AA690 32C8BF4F 5DBD25E6 792FCFDB 87426EB4 59E939D0 013B554C EF345A62 A433BDC5 0785B577 6B59A5F4 ADCD48FD D82E0D06 29D5997A FCE904C1 2EAEA4EC B2587A8B 3796325E B7DEAE2E 1A758ECB CAB05E11 9B6D962D 0A931D2C EEE3F0D6 2BACBA99 E1C0305E 612876E0 29050BB7 5E8461D9 A38E832F EAC510FD 64F1AFF7 DA84BD01 3E2EE4DA 3D7CA718 DCBEE188 2308F062 1A283657 86EFF020 24A91C7B 5F64494F CC058187 640D58AA 664E7D25 DFBF3B30 E35ED968 1B57C40B 9EBC0A16 C0701DF8 EB7444ED F9BED4F2 ED5137EC 6E33FFF9 9F88A817 7C98CC5C 25C90057 D37F01AD 2D69F9A4 00936DD5 DB64765B C65BA7FE 870D6400 5158624D A1A977C5 4C324DCC 7DD746AB 6868DC19 A59DF92D A4E04E11 DE6742C2 30AFE8B0 A1339C30 FAF920E8 5C7C7DFE FE201DCA 37DA9F3E 914F1B07 84A298FB 99E68CA5 6542A262 2F97FE37 73E6DA1A D6C210E7 EDEF8436 8EB343A5 64BA9B1C 3F966CB8 E57CD867 97511343 EF525875 B4F03FA6 2AB43328 4992CDB9 6A85A7DD C8853ED1 301278DE E6598316 31CB2604 CE5CBC3F 18D8C286 FE687F89 9EA20D38 48C0597B BD4ED638 C9ED4716 A8379CA3 EFEA59FC C642131A 3055E5AC 6F1E0B14 CC7F50F7 987E88D9 7C2D1189 236E7FED BD486B42 2320131F DF629DC0 4497EA7B 6C888AFA 68CE95CE 6A32E7B1 3DCBA359 2186EF46 F0B78D5E 2F2104B4 7201778D 1F02B6D6 19372E6C 30C5EB73 8776A794 6A0751C2 B7C8F1CB 84B4103C DE540455 F5D7536E 65113A11 4DAF64BD 166766F6 B381CD52 5C241344 D54B3538 45F47BCA 0AB0A9FE D8FB13C8 3E43926E 6F060E3B 63A7BDBC 454C3314 05C610BB 5DF14710 7B6CAF6E 8CE2FA7C 2B599EAC 45C480E2 B0240C2E 2FD03F1A 3D327C7E 3EF5723D A292B1E0 B71E2C59 062A8C13 5D99474D D017DDC7 37B0CE43 E0C9732D A22903BD A257D771 409C0766 6609D4B8 9CD7B194 CB0CF3BF 7D12D6E4 5C303168 EF648905 8DEEA3E2 6B01620B F9619AD6 40FE43B0 76BB47A2 94CAAF88 BC8EF16D 0884739F 0381D502 41B9589A 48E413CF 4ED499B3 D25549D4 7625EE4A 7BC4B68E 63E91046 7378AFDF B09A47A8 5CA1D008 F770FD6A A5149D1F F3670B77 13A5F02D E9C05F66 6607D7F2 C9106CF8 4CA6B419 50412405 BAD5B800 3FFC24EC C74C0720 DD24563E DD4DD5EC 5AE67D34 E1FF4D64 35858C24 21A27D61 DAEF2CD7 8104D879 6D49896F 0E32F046 7D5143D8 0A4D50AC 129570E1 65923558 BF367C9A 7767AABC E85B0E13 996FDE9A 0C16B8B0 19001480 CBA6D406 7B195A57 0B9A4272 27872C98 464795B5 0BB924B5 EC93AD8D 32AD7E6E 6C4C2CB4 E4A05B16 89DCA8DB 28A44F43 057631B4 7B066E04 D4A36C73 3A7B716A FA88109A E71A6BF8 74C826D5 7A061908 37930E49 CF3D3D74 B771BCEB 290C91CA 3FD137FD 733A48EB 8314C011 180A84F8 A8031BFB 854C370D D76F98E5 B9ADD8EC 175D4CAD 43C0B978 93A0C928 A2C9B265 CEA09F0D A8C6C56C DBAED590 54970E0A E94F04C5 4BA36677 A5AD3F06 1B5C09DC DF946C44 FCF84AFC 0FFDC34A 1C99C8BA F1C34E11 74C73252 0AF81974 9EC120D3 9549C18E 379E4AD5 537F5F8E F3CC88DC 9671791A 688BA25C DD56B0E9 1F426C8F 96230D61 D7EF9B97 323909E9 BE90F59A 5FE55739 E5EEBE12 68AFF64F B9F9FC8D 49F8948F 2E34355E 645AA1AF 641001D4 0ACF08F7 CE6BE6A6 0A31BB87 F90D73ED 8C0E8BF4 E4005DA9 7D666E4B 004D1ECC 39421862 A05146B9 2F6FCDC8 215BD467 60CA7F3E CEE1BE95 8C4DE565 3B7F6331 AAFB4D37 194E6994 EC7CE783 EFA585C5 2F940E4A F19AAF5B B050CBAE 58979865 2C23C38A 6A1AF1A9 EB9BE598 B4B988BF C4547B95 7893C12C 1DBAE5B8 56511CE7 D57314C7 71D647EE CEA08A47 57102077 432848F0 2036FE62 145740B8 BBB75C49 3B89EAFD 3C5D4732 1F27F806 5E853F54 69B259FE E97B4898 BA7985C0 0B36DA09 2498F7E2 6656BEDD 29932BAF 86171753 D60E4DF1 7FB54918 AB9F3380 E58D9086 B4045FA5 1F7C4039 8E8C2C93 7AFCF9FC 024EC54D 3CA51E98 D32E2DB0 947D4D0B 3456EA80 F90B3C86 DAA8DF2F 287E9BCE 43EA2D7C 7F0FAA97 700D2517 3AF10DE2 9B7DA035 8E225E19 90C471E5 269AE604 A5BC9E86 DA20BA64 0B5DBE2B 2AAA3770 FC5DAAAF 6FBF1758 DC1C90F2 D0F8D42F 8891D08D B09DBBEE F4FFF1A1 F5EB781F B780B5F7 6219C351 B0038815 80C9600C F9B908E9 BF110463 18A55C55 14D4849F E34BC19E BD5F6609 3207CCB3 A8B202B6 4A81B302 3BF66F9A 3B6848FE 88EE32B9 81ABB16D 6AB62940 050045CD B58B244E B7200464 E37CB1EC 6973741D 21E293E2 36D29B6F E6BF5A5F 2E86F2E2 69BE025D 916BAFDB B2C01937 CE726C71 4C02CF60 F6127F5D 1F2BD294 68F099E9 DEED5783 7B195DE2 25AF05C2 DEA5E17A B22018F2 8FFDCF26 82F8129B 30EA513A C273EA18 B509DD80 75499DC2 1B2A3CA8 E5C4DECA 77071806 58660E8E 95FB2BBA 5B71E27B D8E14EB9 558B46FE 1FC3DB40 DD66EADA 114CC25A D2F0D373 158CA354 59104E28 5C5A2925 2A912556 6C226459 947D1DCE 434B0C2D C8610423 35F6BABA DCF22798 BA92D839 A89BC139 C15AAE50 23BC6DE1 F6FB00B6 36287D7D F2F64AF7 2E5E688F F71B2A80 52FD9017 740B98A0 4DC8F8E6 D04B90DA 21D1F63D 0B003CEE 0E45FDA9 757807C6 721F1441 E4A39E2A 8CF843D5 D2E9E1B3 C66ACF86 C5C58AC7 8687E4EA C37C3D99 A23CF732 E1F54A17 8F50A461 648C0240 9FB87602 6460C1D5 C10F17F5 8F7CB253 12E9489B 496B9625 79D2AF91 60339B98 96BD3064 28A00467 878C526D 41DF3FCE 1E285B07 BEDCF823 219900AA D2CE7400 B547B7CC 09224F92 D390A977 03081171 308B323D 9BA2115F 7D788E76 B9262093 47625788 B739217C 43C4E55C 354567B8 B6C81842 29A52CA8 91390D3B 28D4E595 628A9673 9AD0887B AE0B44CD 6CC4E039 F05B306E FFF388BE 269B892F D6C00DFC E11D9A59 DF8795DD B1ADE9BF 14755167 3AD11B05 8860094E 6782D3D6 36A63BEA 4A36C259 CC6A9C20 EBCBAD48 B33A90DA BD51A94C CE45D131 5B5BC0C0 E7AE60A8 A68DB5E0 008D3547 82B80E22 A09A4D17 63E2CBF0 1697E581 1ABA4525 76C029D7 F2F8C3E8 997F497B B77C559B 4FF55B7F 5385A36E F4686931 BB224CD3 EA816E9D F4F02421 A1935849 715A0C40 D220A385 B8D33E46 B381EC3C DE71E9E8 AF6D1E63 AE60C60B 4EDBCBB7 CAE689D1 DE9A8150 BA9AC979 7531ADDD 5575D80A 13382ECC 0AD89F22 7DAAE8DF 7B3512B0 B760CFF7 188DAC35 15BC8C41 CAE3FB36 76D8646D 87BDA857 5DA54E79 F8837935 B57C65E7 0FBEC3ED 63F461C6 4062DFA4 617D7328 041B81A4 6083A623 C663B3B9 3CA50A80 FFE19336 BB1FA7AA E526940F 318ABD8E A9102E64 7D27D51C 8506C83E F5C863DB 0A57765F F7164E58 2AA2F9D6 D4C8E728 10696B03 60E4062A 12A4FCC7 A1AF6C0A 573E36D7 B5DDBA68 97AD528B 1823E722 EBE28C89 28D15C5E C9FAB716 290BAD73 94365AD6 13558BE3 B5F1E8BB BBD892D7 D3ECAA86 D362EFE2 D9BA14A9 62CD93D2 6C953C72 03FCDEA0 78AA0CEB 7F519368 E447C818 F225061F 0E488C58 56B45829 B4062A76 A3940CE3 0A51DBE8 8891A189 CAC48AF0 CFC78342 1787519A 7DA2433E 57E59F21 7C7E13A9 B93F968B BDCC946B 13B38EC9 3766FE09 37ED1798 DB4E2F6A F1BE7063 CD8C94FB BC015B25 0FFF06D0 B60BC9C8 F144D5E2 4A8EE26E 0C041279 9C1124EE 5E049D8D 6FCD3367 84194456 07B7DE5C 692EC21B B47A796E 70FCCDDC CF6A58D2 24FBAFE5 61F51A94 C62B17FA 897B67D2 57F588D9 464AF53A 9F04E107 500CFAF6 967F7180 58DB785C EAFA1D21 9C12A59A 90E25034 BCB48928 652E2D95 AF5FCBB2 B2FD5E89 EAF357B8 BA192227 FF992FC4 2624C85E 3D8F472D C2A62415 DB25BA65 D3219809 B7F1A243 24E5C7FA 10888C22 DD2BC397 1A99E1F4 282D865A 260F2BD7 905340D8 D9F7B8D8 61D33356 4DF2BB4F 68B95523 9FA20B66 1915B99D 71219EF8 08593C4D B60CA2FB EA629F0E 1357D0DF F7862C7F 7611C757 A925AF69 7CFA0478 0592B408 574C9033 AFF0253E B381D2F9 17DF6C50 A15C9C67 E4CB5043 D57F40C4 D0EE7BA9 EA5D4DCE A4F8DE69 561F3C3A 42E8DEE8 9AA974DA 084252C3 8E121E3E 792B3DBE EE313C9E FB2B9785 6702584A 54CFC76B 082A5470 4C3944AE C4DC41E9 ED52ED9B 8CF7AD54 5D0B5AFB 2796E26E 3F6F3831 75E2D266 5632F1EA 940821A2 1D4A927A 7500DA7A 11399307 67DEAFE0 76B4C5ED 9994B768 0C272627 B3D942EC 896C6EDB AD566C21 2CF996E1 C796E475 E4F94493 88DD71F1 A029BBFA 1F3CFB24 FF44F4A4 4C59188E 35FD2936 B9F12D0B EEF2EDBC D4B69098 2B4A0F74 AC950EE3 0D6BCFEC F13C987B 40696CE0 7C8FF944 4D198C5E A10E0657 C176AD54 B41DD9FB BDB7B9D7 E1C898C6 5665E1FF 120BDEEF 440F45F0 71AD0BD7 9015B75A C0113439 3B16EB15 9E529EA7 AF0988B2 B98B4208 115EE7F0 C88DDD25 8A3039E5 BA45F456 19902A30 52C40A2D 23057D83 816A8FC6 73DF2875 1DA3266C 8586EBFC B7C7FF8E A2995B99 6C0DB9AA 18680735 AD1AF9F2 FB12C8EE 971271ED FA584522 84849029 75389122 C760A7AB E96AC6B4 FE730A0D 06482AE7 AD0BB8F3 877CCBA7 41755078 E3B31A95 C116103F ACD1B022 0657A136 E7B51700 A59619A0 188BE1B1 63FD9511 8F9DCDD4 2A048108 B7DA0A12 79DCC8AA 61511F8A 897AF2F7 6E96B5F0 54062BB3 955F7B40 9236D5B7 4BDD893E 92E8EBAB D0EFFFC0 D4A76106 CD25AEFF 1944E2E1 A359E95F 6AC37346 C1B90A8C B688EF67 FD1452BC 6331F75B EE819D2C D381A23A 5B82319E C05B38A1 BB378CE2 50315BEA A208B694 0D91D591 BE40882B 08256130 251BBEA1 369C9E11 6B6CBC4C C4709147 D9AA2674 5050C295 F49BB7BF C9947BDF 04F8C93C B5758333 461B1FD9 21E2E9F8 EFE3DD90 F15CE5B1 3A865B24 B0F390F0 AC7B6E43 FA3CD6C0 FC437925 A3293E68 AA20FD8B BF2EF206 4FA26A87 7C738048 1A591F55 9E12D2B7 5BFD4F0C 09D8DC32 B4A32A89 CAF012FD F60BAE93 D0B5901D 5C7CDCA5 3B151839 1F8393C0 C39AE59F 0E468048 29AED1DD 7106CFA5 F61BFC4F 24C70E16 01E7B990 D1285923 52DDF270 74072269 5102E5E1 CE1F599A 343E3F66 B98E4B0B D587F17B C0835A0F 980366BE 2C84BE8C CB2D3AFB 0E1CD633 A6F7C833 C438BAB6 A3DF5902 90D2824D 70138A56 4B49F749 63C7A13D F8FA38C9 C0780B3F 4C308383 8E85DE41 1DFE2C61 619872D6 29513322 E573D3AF 21700309 E9B8C3AC 465F821A EBC898E1 A06E1ADE 4B6382D2 D8F699BE B34EA287 B625AAEA E07D7CAF 739FCF98 21C526E3 22DDD508 B51B9387 B17F6DA7 6FD0FD36 236BFE19 01C6C42D EED9C362 F825F016 EB97D159 9A939EC0 F61213ED 27D0F28B C59D3183 43179203 F3E677BE D1D0F68C 1B78065B 48DD5B94 4BEAE471 CC2A9883 52D70B7B DBA61F94 49BF2383 A0DC8449 158B46C0 A9E1BD67 55EC712C AA4CDA6A F04F0DD1 954573A2 34EB4AA8 F419C773 E7A68786 F36F8E1F 796D944F 2769D6A4 1B497CE6 63B2A1C2 9181EE48 B12F1401 140B22EC 3F150183 A1918C06 C0AF12ED 94D9ECEB CE3E52CC 5DC91D7C 863FEBFA 9EC398B9 2082DDC4 C8B0B5CF DD8054DB 6B0CCFD1 2509C935 D65F3EA1 FD4CED4D 01A489CB A51B59E3 5736084C 0B72D6C0 F921831B 14E850BA 1F70F9F9 EF39BCDD 1AD7B7B9 B052E7E6 129293EC D70F24AC 915B0B52 CF62BEF8 179AD301 560214F0 F2719F5C D54E882C 35FAB376 786565DE A746A25F E22283F4 6132F20D FC6F1738 68DDEDDE 66C5A5F1 849461F3 69A4882D C6D02437 6DA7EC34 1B90985A 3923019D 76790979 A71784BB E867DB0F 9257D8CA 04CE7E53 74F9B48C 2A37E4FB D65565BC 90298C5D 38468A6D 2D6491F8 8AC418D9 01585387 CC9C91E9 F50B5A94 191A4BC8 F7E31B12 6700EA7D 348E345B 008D3010 10BEFB80 879D6E7B ECDA6698 5DC1B534 20633495 5F27E0AB FB736641 4BB11BDF 94B07BE9 085B6A26 EE59F228 856E3961 ECFBDDB2 0D4D148C DEC7A733 F096365B 60737D0D 7F7169C4 3ABBC079 1E1C420D 25E9FCFD 4C3BA894 5F051A0E 3194DCC8 FEA5B721 D3576EAA 6AA23AF5 080F840F 877EE68C 931039CF B682803F C3C4E668 6674E9E9 2BBCE27D BB937BE9 78D018E3 FDBB1B14 27F78D74 52CE9BCB 59DFC376 1AC31D6D 4993F197 2CED8FDC 2A256C32 22B07C2C E2ADBD37 486598CF D823EFC5 EE26E026 B3AC6F97 212C918A A04BB04C 85D4A5E3 5F827301 83550E86 427A4C63 9361FD1B 30E0E95E 9160C768 9B8048F5 E527A624 ADE57AF1 F1E8FC26 6450481D 13065383 796FFC7E C75B5D08 282A5D46 3393A428 A51AAD7D 858B98B3 EA3BA4C8 BD13B76B 3B74DAED 0680E9A5 99E16F6D D84564BC 110F4CA5 57447B94 F23B8F80 819381D3 B0CCFB1B 9902FFB1 D9954174 C51FC1AB DC48CB91 CA092374 F63B8BD6 7A342468 955E78DF 41F7BE4E BF795B8B C0BB79C9 BA891038 FF753DD8 E5162B70 9C13A3F4 ACFFD9F4 B495BB84 BFB44A53 47D38FA0 278168C1 34C451AB B3595064 A5CCABB1 5CB6CE58 83BF0FAA 300BB60A 5FF71CFF F8309405 144551F2 D76F2228 6EF53ED8 3053B62B 047C45F3 91E84E67 1A62AF50 F0DFABE1 90774D0F 07A142EC EA798CE7 167BFF49 3A0082EB 0D08EDE8 51ACB4A7 F18300AC E05887AC 0E305BD0 4B84C30B A76ED549 3215309B 2877E312 FFB84ECF CEAE89BE 85615D11 B5285FDF F0D00BD6 83198E65 E5613EC0 8C383066 7AC4EC5A F7A265A1 DADFFCE3 AA29C763 025E7FC5 5C7D39F9 B15F7D74 09E8A931 DBD1C385 4AD5EB18 7A2C28E0 A48A8CF1 D1C9EB3B 68A25602 ABBFDE08 8EA5729B F0972087 FAC39185 F27EA55C EBD3285A 5FF3AE2A 28978A68 D7B45A57 E5C1046A 25970160 CC2C47DD AED9FB97 D0428381 5B63D610 264FB76C EC197825 65E396A6 9008DC80 7071F6C2 B2E3F8AC B997F0D9 6B267F41 45E0DBF0 EB748153 3EB10133 67BF25D2 D83CBEF1 E1DA52F8 EBA8133D 8F151DC5 BB12EF9E 79B59382 DCAEA5C3 A48EF875 0EFF79EE 2A39DC52 DB27C12F C55C6037 E00FF73A 6AA2F019 EE21C6CC 1FBC396C 2646B4E4 0BF64BC0 68A13A06 1740A347 09E88417 7F9C7A30 BAD2FAEE F254FE74 4763AA96 B8694495 B5A47709 36EA7937 BF0BE79C 8102ED1E 662110FA FB3E26C2 5220258C 407C1451 EB75CC66 D930CD17 E14741A1 81615B0D 381230CE 25E9AFCE 7070BE07 A31AC055 633893B5 624F8F28 42420DEE 06E11F75 6E28FEEC D7742A46 FF920A3A 3F523405 3528F1F2 2A9A893E C3BD68C6 3D821570 BC9AB540 6123DF9A 851792D2 FFE86454 720E561B D762402F 2402893A A1F4A3EE 96AB2C98 A24E4A68 7D3C50F8 C03B9FDA 6D208D59 31A415B5 8D1E69E5 84007C50 8B67674D 26AF6785 262DCFBD DDE0EA8D 84E5D2C6 698CC2D7 C0A4E04E 0A12FC6D 8F006EA8 9FB01039 04D470A8 EEC63062 C4F0BC52 0B42FF06 702549DA 7C48FB5B 7EA2A305 4B6A9BD0 44BD8D69 3A5A41C3 B33D17B7 37952D20 AF050543 324A9A01 C62CF16B 722D8C03 35F9B161 C1203796 9C5950E1 31493B95 F0F76B4B DC6FCE1F EC743991 E4FD715A 78E70115 CEBB0380 B2303B47 0BAC3A7B 6D255E38 90E075A4 348BE49C 4318AF86 75D980FF 4E7FC2A0 F22AE7D9 69C5DF15 12945F6A D054C852 3EED77A1 EBD551F1 04DA7840 BD081835 121070F4 5B9168B1 C2BB8808 4C92D66E 10D5FBD3 DD0CB6F7 42A1C44F E3BE79C0 C3049B62 CABA63E2 BD8646BF C482CE0E A1F9B29B 9948F5CA 17F5134F 5C4E7EEA A35481B7 6C7080C7 3FDEDEBB 90BA0490 F263F753 110CB040 E8A3B81E ECF75DEA DA44F520 DE8C46A3 18784A79 0EA6BE54 98FC006B 3F888E8C 480E1523 782C5681 5643781C 578B669E 12724135 16F6464F 07365EE9 7FE75A5C 321E6AD8 AF8314E4 F0D7D439 1558BD7D BEB12867 E7A1EB06 CD9363A8 F8C37217 DCC86D34 19161984 25E1EA37 B160D91E C9FA3204 1DCBC881 A6BF3B1E 9A30462E 245DF3AD 9251E223 38236328 403EF9E3 A9BAC8C5 A95B70B6 91DF79C3 2CF7E8D6 0DA05B8D 37F37545 4880BF9F 4D31D992 929CEBC5 9BDC32D4 DBC646C3 7BEE6F11 21C52257 44929D49 5E7857D3 7E30E1CD D1D4735C EDE6E1B2 DD6139E6 9A6BA7B5 7673CC4B 18DBB951 23E724ED C27E772D 43A825A3 9CCEF6CF 98B0AE0C 9E2198C9 09B9FDBF 412BE071 EE9EA173 2A3F8644 C6A3CB44 8CB9BE69 A0E44CA2 AC7C5501 5378990A 8F706F6A 8BCFBB73 96D42F42 9FCBF271 5CB76FE3 D37AD3A2 03DED2C6 6474730B CB231950 503BD716 3695CEA9 1C19DB89 6AD2290A D59609A3 9B1BD965 3E8C1351 23C8F664 0A20C4B1 7E4428CA C8DFA322 C496FCCF 5C2903C2 20D0B978 575810CE 4406B454 547E47EB A02050AE 89404E32 B41F98B0 E8E2DC3B 82174A4A D122E515 1C3CFA15 76E8CEC7 BB143310 61052263 3B288890 C575D1DE 715E8526 B2AD16F0 3CBF4E9A EF79F84C 1BD99971 60D8B932 B09338A1 60633DE9 7D6FC430 351E5BDA CA68829D 97257C03 FEDC8C60 2C739AA6 345ABA5B 43D6A45F 64CBE2B2 D3FE4D85 33D79BE3 38996F13 8A50A77F 759120AA 71548E5C 4BB899D8 059DF96D FF4D959C A10D1CC3 D6325BF2 2DD3B4D2 B3AECAED B7B7D6D8 880B8970 13E9811B C792F372 B246E51A 7023AE4C 15E066FC 0AB86092 00977B90 C758CD9D 0131A1BB EDC1DDA7 A7C21BCD B6A16C3B A3C4DE8D FE35BD9C D9179226 8C44C24C FCB88E17 1845E788 FA252C36 737593B7 3457139D B2560093 C6CCD0BA F4249166 00BFD93B EEE0DBDB D0C128D8 D8ACE33D 3B51C12E F17653CD 594FD921 A0FC0F9C 47C8752E 6506D4AB C1716A57 6E96FAB5 DB8DFCC7 C5303B31 AF395397 1E5634E7 5C12B8FE EB0B32B1 3C4BA51E D1B3394D 5CE82BBA F929686D 5A9AEC1E 3D793AAA EAE7AE5C 97D09F7F 159BA533 D3A990ED 9C031BD5 B0D65FD9 866E82AE 0819FDDC D925FA11 B40E9DD6 6F868DAE 4D6A03BD 55CA6C9F 4670715E ADDA4DDC 2F17E4D3 207BDAB3 6AA383E6 9FD422D1 6A2014AA A45B8BFB 4159A0A0 3ACC273A 6BA6DF02 2F413676 039DCD39 D3774E89 D380BAB0 736203CE 6F88886C D97D48CF 527C2417 A69809AD 20530110 C4B00CDB 1A1E8968 1B31D4CE 808FD557 2FB95A27 5E098723 184ED84A 95210F5A F57E315D 2021F3F1 2B43C7D0 B8BF4BC1 303B90E7 2A9CC58F A353A590 C96FAF2E A66FE1F1 3DE01532 F7DDFEAC 2E6D410B DF96C1AA 7D7CDF90 567BDF4B 0CE23A3A 484408A4 9AF6DA46 BA8D057F 68274D63 49A4EA39 1B43CF79 B92A94CF 53F2E984 A2D68FDB 4457E11C 33A69701 0A7460C7 EBFA8E6D 93AD64FD D436BC0E 43FF84A3 7909E9CF 4BC1AFE2 6F5E46DE 62CC32D3 07375D08 A6AFFC89 09CD6E57 183B2CFA 3A4619D2 3571E639 CC899D28 5C730005 EB4BD320 F41E24C7 97C6822D C0C6C132 131C90D6 17364574 F629D559 2EA57A99 77DA5019 421F1272 38C389CF 6D4835DE A22EE9A4 52A70004 3E08D5EB 5ED03E0A 9F10A5F8 694930D5 5FDE1B2D 6675AB2E 4EFE9B72 2874E377 F9DE6412 633F3124 001E90CB 2E6F8B9C 50427358 22B13185 51FA4347 05B27059 6295E57C B5AAD13C 09C9544E A39D68E5 46C2090A 20B134BE 5D269BF1 39433643 E68B91EC 9E73AA38 C1A4F667 DD7DCAA7 338BE279 326FC239 849963AD 8458E70B 944BE9E4 A92BB91C 770D422F DF8EE844 A45D8793 51610B04 83F616E3 FE5AC34A 20B5E97A D083C3F2 C39C6EB5 F73F72BE 0CE777F4 BBAD10CB 9D8C0F8B 5969BAE6 02BCA6DB 25404B63 4E9162B2 58B35149 251C8776 174174A0 68DCB97A 30F53E19 91663C11 D64D7629 3EE53640 7E6970C1 3463FD98 998CB82D 905886A2 046763A4 BD8B0C09 2B0F1C8F 4270DEDA 95810276 31B0466A 6C695B0D 70782D5C A163C971 04A9343F 4640C45C 2E3DB19D 4DE45962 EE656131 5123A0F5 D4FEF11F 71D61BF7 844F0090 8829931A 5808D08F 8680EC1D DCAAEEE0 2D26AE16 FC93140B AA56F5E3 E3EBF83F 865D3537 1EACA431 418958BD 13E0C782 C35AD8EA A38D2BFE EECD4ED7 9705EC8C 63041FA4 CB7C18D4 6663AC47 EA0CEE2F E0440D7D 6BF3F23D 15E0D2F1 F90F5D7C 711BF582 7E23A8B6 2B0EFFB4 3F23AB07 23A4E4D0 2038B76A 7599380F C7FDAC8C F9351423 FF6BB103 747550C7 046A7969 9D9662FF 0FFC0CA0 F078AE2D 6F881E9E 8F66D2F4 B42DEC41 5BBE2B26 AB5F7D80 7B453620 7B7D8036 F4DD316C 26182F1D 2F6CFF2A 5D803DBE A94356C0 CF60C924 2F60814C 5C674BDD 9327887D FECB72C9 DF044C5C 3D5DC1CD B2E26477 2CD7DD26 DEF0436E AEE78866 15612863 AF27C026 D95D5081 CED7E978 37C975C7 31753432 04A22754 06F31A59 D95ECE24 63D3DD69 C813888D 2C5FF935 25976D30 890F1BB6 1422241F 243B94F5 13F6259C 4AF48A8B 49567CFF A910D400 6058C107 6ED9E1DA E9ABD754 9AA860D6 D6E436D1 906B8C2E 9433800D 16784C33 0E149836 D2850E8C 00EE50B7 379E493E 03FD168A 1C384F89 7CEBDB8B 1C14214D 52B4E704 8A708BF4 D8E39EE7 2994509B 0DF8E94B 957256A0 17C98254 0FD1FA59 FD284BD6 19410EE6 D9083389 5E6CBDB1 DAC87D87 A3067CDC 0D1AD23F 913CF9CA 07843B8B 58BA4D39 1466319B C8AD07B6 96348B17 55AEAE75 AABF1458 3ED56F6C 4B82CC6B 31021F5D 9DCFD4E7 C2D75E20 50AAFA0D 0BDC53A3 B7DB9A50 0A07D018 170B6DBB 995F71F0 BD333F24 F6B7E9BB 43674472 BE19694B 62D70ED7 8F508C4E F01F9610 0D80D3C2 FDA5C96F 96DA3528 8D2F622D D7E6FD6E 91C6DDD5 B3E0C100 81200C7E 1923D91C DA4109F3 DC39E0EB BF6AA815 AE288980 7E1F502F EDBDDC07 551EB73B 26A7B8E9 60E975CF C6D4F9BA 1FB2CC4E 2415FB50 C6D1150B 43F2B708 459FA52F C1B8642D 6AE8E1A5 A4C5FAD5 C0D75C9D A506AFC4 99D1ED44 C73E3706 3FEF481E 7E2C0B36 760ED93E E8B70EDE 94776F5E 9184F619 24798D26 322AD22A 8940D596 3866E2EE EEAA1250 BB4F8E8E 8F149075 2AFD089C 1A8AA247 59C9A2FC BAE40730 0EE540C3 CD536283 4C2BB0EF D40E6CC9 37F9574C 55DFD9BD 64CD20C8 B47B6AD1 E757361D AABAD851 F5F2E2B6 70A83FDB 85F6890D 1A79E110 67FD88A8 B164044B 54C3EAB7 EB0AD241 DFDE27C1 62692DB0 A3AFAC62 C41BFC90 15CDCCEF 9416E08F 3162B5B8 9024E845 05B0011F E093765C 753AE68D CE761736 4F10A56C 6B734CD0 5C62A2AA 7D2E0346 964C9425 088CA598 D550EAA8 AF502742 E36FDB7F F39AB4F1 5679BCB1 A3CD63AF 389076A5 3BDAF7C8 9C2DC24A 21885BD5 7EA3CB9E 77619E52 00077651 8867FE3E 7C039B60 32BA6D9D 1426354E FDE3092D F97CDF49 BEB76328 437E8DF3 3745F2FA D19A0C0A 07BBB27A A843CA26 43B52FCE 88E4C9D1 92DB5D97 7DE53ED8 5D320D28 B3EB926B 49291CFF C2BA3144 A2687107 DD1722D5 463C94A6 6C2F30D8 61D19322 D4C31303 BDEF5F2A E765466B F5261AC9 8D50DB22 55118904 43993592 4B499E2D 74314BA2 53197AA8 F50EFFD3 CDF41BE0 585D3670 35F160F1 89D9ED52 DDC13FEF 064A99EC AB2CFDD9 D58B48CB 8C204F2E FA307AAE AFF54300 A97D20FB E8664D3A A8F95B45 AB3380F5 D052DA26 73B62F1E E7457465 ED549E17 A2114E1F 4BB0B0A0 35677F1E A8ECADC6 81D1410E C78EC9E7 44A96171 E82E3233 38307FD0 753841E5 41F596D1 578F824E ABE5F078 D7C3DC5D 1AB45079 D0006ADE 397DB15E 46379555 AAB2A4B4 275B2CA7 32383C6E 7B11D19F 3C60A151 EE866389 82EA991C 3129C64A 46BBDE66 E8881C2B AB8BAC7A 6F7173B8 FFB5F0CE C58A8D48 C13B9C65 5518046F 01524D5B B9CDFCDD 4600D1F5 348A3880 533F641F 99A14B68 83ED6490 689F6108 A740A316 CA2B012A 002821CF FF2F2AB3 C442CFB1 AC25AEC3 1397FECE 576DF404 7F85F8DF 629B75BB 02F0FCD3 B7D1FC02 BB72BAF8 5C1D0D09 40884901 D8959EEB E3F3C54B 8C62737E 34DB364D 22F3BD8A 4A142C8E 81B0FC2E 37886F7B 275031AA BBB4524F 87151B5D 00639665 875B1E14 A7B165F4 4AE8580C 67888A58 AE308FEE 9A769EDD ECC28D57 8925E756 5995561C E4F58798 1E282FF4 2CE741EE C6D227C8 FD04ECDE F22C6135 0104345B CE7B5D3B 671E4987 400B915A 646E4D59 AA3C42CE C6D2DE39 3DB905A9 CA3EA600 01A9080E 1A975211 8F82A534 D7ACDE7A CA7B316F 322FB2CA 591C555B B1436284 966018C0 D04BB4C1 4F0A24E8 73E833A7 608F3BC1 AF1C3467 647A5497 69E35C70 E594F808 D4CAC349 142A784A 800AEC7A 9D8A44C4 CC2336A6 0045DED2 CA8A0467 CF0865A3 74B40B5B EF95AE1E EBDA0ECA 04A27A89 1972895E C04742AF 97B9C242 0702B36D D37C2493 F42A9AF1 44C941BD 08D9640A E3B5834F A56E3A69 A725A566 2E04C68D 5864FB8F 056CBE25 B4DB8D43 6B139BFC C554B7BE F2068FEA 658D9A78 C1219FF5 BF1C7B41 5692B122 7E2C5BD8 6031F9AF 3F5C6C03 8268A6FC B44D88BA 70067923 BA55C0E8 FBF7F726 2E6FE122 52DD5089 4E174397 05B47999 1A3F3AB0 0D16DAD9 0995C364 C996826A FA2E306E 03F04D64 98E3CFE9 3253BAF9 394CB613 DDD4CE12 0F4E49A2 82742F9A C8D99D5E E95C04FC 124A45B9 AAB88F34 8B638580 A53ABD44 5B580480 55A8B7F2 D2E2D398 B8AE78D3 5453CB07 F7C78738 6F23F12E CF7BB9A5 6990BAF1 187A008E 4436EA7C F0DC667D 4EA71B1A 13696B92 F18D8D1E 7A720B93 9F8441EA F75ED243 2C288945 A20C6C9B B1004370 F355FBA7 DEFD54EE 9CBA2BEC B950918C B6EC782D C8B86A31 4AD04621 D26023A7 E1E84954 7BDA18C7 33BC08DF 8C5EE738 17E32C86 0A2F1202 BA3656E4 C6BE589B 793FCBE5 B7B836B8 52EB25F8 19D05523 EA4F8DEB 15B4A25C 0E526186 30AA9BC0 B394AB7F B40D77D6 E9B1463D 5A4233A0 7C27BFE6 1E6BCCF4 B36DE26D 3FCF0EC4 6A338F04 E95C02ED C094B681 A3F998C5 A8F4D7C0 AE01B05C 5ACF5BA7 F8F2E8A6 BAE642C0 BEE2520A 595F580A 22116046 55B9B65D 01BBE312 A35EAF64 45FF5DB5 6DF145C5 4F5690A2 1ABC88AC 088CFA04 9B0BECE9 3383EC00 4003AC5B 9D12030B C826D766 BA1C4645 073DD5FA E051C771 0AE83D07 EEB2A640 76774EA3 D15C5535 458C6EBA 72DA67FA 00FAAB5F 38A9B09D 10EF2D73 9E338AD8 65148BAF 053A704E 95B15204 9C6AECEC BD82AB15 35766E9D CB9AACC4 E4015862 2369F733 EAD69249 B21D128E CDCA6B37 91F1170F 767DE8A8 8765739E 835FF0D2 A1CF83AA 2C1F1311 8BBEF156 38E91E01 91808926 CE2ADA24 EFF0BC3A 1A786771 F8468900 E3785A1B 47405FB1 946C3201 3F61193B A8B5522D 33C14EF7 595D2463 E34E895F 12F32558 AB11D524 30B1C563 B88268AE 161D47CE 5A16E62A 8A0D2D1B A78DF05A CB0A0363 E54DFF68 482CD0B7 1CC5415A 154E9124 DEB9F839 A1AB27ED 9C422F37 21C7AEC2 E98E74A5 34F69C0D EA69CCC3 10F3B762 75D4158F 324AD7D6 0AE5C674 CAF5D73B D1695681 61D46C65 3E1A0CAB A75B01B2 0F191C93 B676EAC6 65851A3F E62931D6 410A13AB 01FF460E 4B4D9554 D5E95714 DAD6C620 325DF50B 98C22005 FA53BBBA 026BC9B0 F2B400F0 09A2CB60 9B2AB101 657804B2 635FD961 432355E3 3E4454A0 C2F190BE FD0D4EBA 29DBD5BB 888B3207 AE780176 A858D962 DFCE59DE F2902931 6F498E96 F1922AC7 E33F505E FB6AA1F9 10A0C20F 447A9CFB 1816A178 64AB054D F9025C92 47045D97 5EB53F90 AD48B258 699BB631 996F3C60 4FE0B7E4 3511B73A D540A227 932B093E 4B3B3628 3A60E5D0 7F7C72CA F7358F65 80EDE1CF 0CB69F6D DEBD4D51 5A55E6C0 F1449A2C C4259728 5BDDC53D FFA4B827 F48DDC39 8857D6BF 7DA027FF 45059AEA E378281B B3137B86 05EDC717 B54808CA AF2BF18F 5366EA16 CDE3DCC6 E8EE3521 2F5575CE AABA678E FE685E1A B2932994 786078A5 3581099D 61E8236F 72930769 FD4C203E 7A8A7419 821AC56B 3850D01C 60BB77B2 78ACECBB 461DE87D 98C5B533 3711470C DB2DCED7 2B37594A 824F9DB1 039C0149 D8427344 8993A305 3EDBA78B 6010CD9A AE617F09 BE41EE30 1FCCEF41 D7E1C5C1 3B917EFA ECF566EF 38BE006E ED77EC73 AB9784DD D4565A50 588EC262 EC1B1050 6489F0B8 9741069A AE7CAAD1 8D064B8E 5C6A1AAB 54A0437F C1F31B09 E0C083BF 6062156B 4D1A8E1B D5DEA276 5566F639 08482C0C CA704AFB 92EBA34F 182DE7C2 CB5EB201 D92A79C7 1098BECD 8BBFAF8E 4D1B17ED CF3E0F0A 54FD643F 4E6F4E84 38248669 42FF8794 5F91D798 DF69481A 8085361A F7E47E9D 36557055 202E93C7 4F089347 4C69E572 8A17B009 439317B1 687BF8BB 15E5B687 08F04D8C 6BB327CE D2AF0D49 AB630633 30F448C7 302D4DE8 D2F2FE04 702B9B29 09D4C038 FAE4EA3B C23F3914 ED013AE6 2E260D2A 0A4155F7 C32A5F76 9EE3FCA9 A59FB6F0 1BC5C851 1D6B61B1 58046CC9 9061C47B 9AA51B71 AE7DA07E 881DA5F0 D1533CB6 3BDCDFBC B9FE5F98 73C98812 F6F14669 54F8C3E3 77430A1D 3F7CEFE9 6256A27D 648B3DBD 7CA12006 82C4A7D2 351B2B45 D0BF86C6 0BE82484 4225E855 3FEB3DBF D4D416D6 41432BAC D7A543B1 F139D1E6 F6E163CE D1D5AB37 3C0B7437 A008CDD0 B93C5205 1C0015E3 44120B86 71D863E6 6DC189FE 282A3539 B7D0CBC4 A11BEC8F F34F089E 5DAD1637 F3A4D291 884F6E37 4BBCD680 EE0BF329 6CA8255D 32EFB9BF 469142E0 F8F07541 1FDFEAB3 2D152200 7AED9EEE 1E202C9E 9C9E6B38 848A482A 0D6053D8 DC4D5C01 E0F46086 48E410E4 A327B9F3 1A2EE698 3CC0E9ED 4D605161 CAC5B9CA 3236EF74 6C485BDB CBFB1FAD 92ECCB9D 2D5E3EF0 52C26C0C EAC78D86 8CAD4336 46B0C0EE 2665197D 03B35A1D 16FA251D 26C9A5B3 1E7D8250 65FDAAF1 5C5BE04C AF041561 516871C9 EA332CAC 8D0E1B4C 1B121583 FCC49B5A DFF033C1 74554279 3FC0DCD2 3F7FD039 C7A4B8D3 01604888 F8B0DE91 39BE4E2D E7ACB4A2 5B6A9167 0C226C3E 4FF14B45 0158DB4D 08AA3DE2 C628AEE7 944E3092 15BB86AF F54C9AA7 287FC284 920B3F0E 3DF811E8;
