memory_initialization_radix=16;
memory_initialization_vector=
0099006A,
0015002A,
00540015,
00D40076,
00060014,
00A9000E,
00D80051,
00100005,
006D0013,
002E008E,
002900EA,
00BC00B1,
00110086,
009800E1,
00530095,
00B00043,
0023005E,
004400BB,
00480010,
00E60075,
00A700D3,
00C1005E,
00610009,
00B800EB,
00E500DE,
00600091,
002000D6,
00C30040,
00CC0059,
004B00C8,
00CD0045,
00C000EC,
0062001B,
00DD004A,
001E0056,
00560051,
007200DA,
00880050,
00690056,
006800A4,
00C4008A,
00A3002B,
000700D1,
0098003D,
00B30035,
000A0010,
008C005E,
00D600B6,
00190039,
001700EE,
003100ED,
004D00C3,
003E0034,
004B0018,
00A20044,
003300A5,
007A0005,
00B800CA,
00AE0025,
00DC00E9,
00220046,
00BB00EC,
00D90054,
001C00BC,
00BB00A5,
005C002C,
00A00009,
00580057,
009B00C3,
0041002C,
008200D4,
00910078,
00930076,
00190026,
000A0079,
002A0094,
00480083,
00B400A0,
009B0009,
003C0059,
003A00C2,
00AD00B8,
004400D5,
00BD00E8,
002800B3,
008000E6,
00EE00A4,
00190069,
008A00E2,
009500C3,
00370019,
00D70072,
00DD0024,
001C0048,
00CE007C,
00D80001,
00C000AB,
0018001C,
00AD004E,
00180077,
00A7009B,
00D3008A,
00B20080,
005A0012,
0020006D,
00A900C7,
004000D0,
0003009A,
0090008C,
007B00D1,
00E500D3,
00E00087,
00C50067,
00380023,
008D00C0,
00910075,
00D100B5,
00D00044,
006C00A0,
008C009D,
003E00CB,
00D500C0,
000D00EB,
00290008,
006A002D,
00370008,
000200B0,
007700CB,
00A80050,
00AA0053,
00AB00E0,
00D300CE,
00E3004A,
00BB0040,
00060098,
00570081,
00E30023,
001800B1,
00670030,
00EB0074,
003C007C,
007000CC,
000A0020,
00190034,
004E0064,
00B50037,
00940088,
006200CB,
009600B4,
00A9006C,
00310088,
00AC0027,
00940013,
0025003E,
006400E3,
00E4005A,
000D0083,
00A700E9,
00A60001,
00C00042,
00B300C0,
00A10036,
000C009D,
00540076,
00CE008D,
007B00DB,
009C0090,
00A90002,
003500ED,
00E40078,
00430022,
002D00D8,
002A00C2,
00B2000E,
004B000A,
007600C7,
00270076,
000B003A,
005800E7,
00C90088,
003B00DE,
005E0057,
00510060,
00330098,
006C009A,
00C900C4,
00E2009E,
002400A1,
00DD0060,
00BC0091,
001E0013,
003C0047,
00680017,
008500D0,
00090089,
005500D8,
007C0053,
004000B5,
00CB00AA,
007400B9,
00290009,
001500C1,
00D3003E,
0044009B,
005A0003,
00760084,
0075003B,
000300CD,
00B00037,
003C0032,
00410096,
005A00E3,
00CD00A4,
003400E5,
0083005B,
000A0098,
0004009D,
00C500CD,
005D008C,
008D0027,
009B0064,
00E400C2,
00910047,
009D0062,
00B600A2,
006800A6,
00600023,
00040088,
0007005D,
002A0057,
00E30043,
00EA00B7,
001D009B,
001C0039,
00E1003A,
00E0008C,
00DE00B5,
001500B7,
00B400A7,
00DD0088,
009100C1,
00B90012,
00EB0032,
00BE0087,
00D9006E,
00E8005C,
001C00B8,
00AD0002,
0038006D,
000D0014,
00A300E9,
005D00C7,
002E0082,
005600B2,
0049007B,
00860091,
00110023,
00E40054,
006D000D,
006200AA,
00B100E2,
008B0048,
000C00E3,
000400E8,
00810032,
00710092,
006C0086,
000A0047,
0075002E,
002D00B4,
00C50027,
008B00AE,
00D8003B,
00880003,
00AD0014,
00D60006,
00B90071,
00050089,
006E00ED,
000000E7,
0083007E,
00BE0033,
000C0080,
00CD007B,
00C200DE,
00CE0009,
00DE00A7,
007B0039,
003C0023,
003C00BC,
002200AD,
005E00A7,
00780056,
00C5004D,
002A009A,
003D00AC,
00280058,
001E0086,
0053007B,
00850086,
00B20082,
001500A7,
00D80050,
005D009B,
000A001A,
00C200BB,
00A90098,
00650078,
00530087,
001C00C0,
00140063,
0038002E,
0087004C,
00320030,
00860010,
003000E3,
009E0032,
00BB0000,
00C900BD,
000D0037,
000E00A0,
00D000A8,
009C0046,
0022001D,
008200A1,
008D00AD,
006B0019,
00040001,
00D7005B,
00B20027,
00370024,
00760042,
00290097,
007900E5,
00410066,
001D004B,
001900A0,
00C000C0,
004B00E8,
0068004A,
00C00076,
00A30049,
005C0014,
00170089,
00EC0093,
00E5006C,
0034000E,
00D60060,
00540071,
00D4000C,
00580009,
00A30050,
00A400A4,
00BB0059,
007B001B,
00C60027,
00580059,
00B300BA,
007C008A,
00C40084,
0000002E,
006E005A,
007200A9,
000500E8,
0042007C,
00430036,
00050044,
00B400AC,
0043008A,
00950090,
00A40001,
00B00048,
00E800E3,
00E600B9,
002B003C,
002A0055,
005B00AC,
0099006D,
006300C1,
00DE0006,
00910064,
00A10063,
002D00BC,
00C100E4,
00A50031,
003900EC,
00200053,
00470050,
00CA000E,
009D0060,
007B0022,
0060007B,
00A1006A,
00910005,
00DC008E,
005400EA,
003D0053,
00E20048,
00910062,
00870058,
0088002E,
00010089,
00AC00ED,
0010002B,
007A00DE,
008E0082,
00BA0088,
00850019,
0010007A,
003500D2,
00C40079,
00820080,
00160008,
00970091,
0008008C,
00440061,
00ED0067,
00170066,
00430022,
001000DE,
002A0077,
00730062,
0011007A,
0068000A,
007600A0,
00D600C8,
009800C5,
001B0027,
001C0034,
00D00059,
005000EB,
009D0075,
005600E2,
009D00D9,
00280041,
00240026,
00BE0041,
008400E8,
006900DB,
009C0069,
003300B5,
00430035,
00B00035,
00B600B1,
007D0070,
005100B4,
00B5000D,
00A20052,
00EB0028,
006A00E8,
000C00B0,
00C10063,
0006006A,
00DB0047,
00D20023,
00940064,
00540034,
00B80073,
00C50096,
000200D0,
002E0091,
005C0073,
00790088,
0069003D,
0061005C,
00400069,
000B005B,
00A5000A,
009C0040,
00A000B6,
00A20021,
00D2004C,
0073005C,
0074003E,
004900DB,
00C60094,
006000A6,
006B00A3,
0083000A,
001900C9,
00180037,
00770014,
005C000A,
008A0077,
00EC0031,
00E30057,
00910035,
009B00B8,
0084008A,
00B600B5,
00D60093,
00C200B3,
00E0005B,
00EB00B3,
006D00C5,
00140072,
001A00C9,
00B4009C,
00E00001,
006B0013,
007300BE,
006A0066,
003300EE,
009C0030,
00D80049,
009700EC,
0075003D,
00EA00ED,
00D200D6,
00700059,
00660080,
00550045,
00B600D0,
007400CC,
0056005E,
00D50002,
002A0036,
006700AA,
00E6007E,
007C002A,
008D001C,
00340092,
004C00C5,
00E20005,
00D70022,
0081000B,
00B200D8,
00BE0092,
00C40024,
0050002D,
004A0071,
005D00BE,
004300B7,
003900E1,
00A80086,
004D00C5,
007E00EA,
00D80045,
001600CC,
002400D0,
00ED00E3,
00770086,
00180099,
00100020,
004B00AE,
005200DB,
00D000D8,
00C200BA,
00160074,
003300EE,
007000BC,
007E00BA,
00B000B0,
00610036,
00E900A2,
00DD00AE,
00EB0032,
00D000EB,
002E00B5,
007E009E,
00840098,
00880046,
004700A7,
0047008A,
00DE009D,
006D0007,
008000BB,
004B007C,
004A004C,
001C004D,
00970003,
00D800EC,
005200E0,
00CE0098,
0016006D,
00BB0028,
002B0046,
00E900E6,
00760083,
00D40042,
00C7003D,
00820036,
00BD00BB,
00E20087,
00880001,
00390028,
002200E1,
00D7006B,
00DD0018,
00E100CE,
006B009E,
0054003E,
00460053,
008C0033,
00620001,
00150029,
00310012,
0076009D,
001A004B,
004600B4,
00D50068,
00300050,
0083006C,
00980027,
005E0074,
004C00C4,
0017003D,
00300097,
002A00B7,
002A0002,
0041003B,
001E0000,
00250038,
007E0010,
00980030,
0041003B,
000B0085,
0098004A,
00A400BE,
00170053,
00E4009E,
0082004E,
00EC004B,
00E20083,
005E0069,
005600C6,
005300D3,
007A0041,
00DC0059,
003A0061,
00410043,
00CD0030,
000C0050,
005D0062,
000E0078,
006B0091,
00DD0028,
006B0082,
00CD00EA,
002800E8,
00A600CB,
00C60041,
00010067,
00420006,
004600C1,
0064007D,
00EC0077,
00800083,
00E100E3,
002B004A,
001D0065,
0018005C,
006D0088,
00A800A3,
00DA00C1,
00A60023,
002C0016,
0079002B,
000600C6,
00850042,
000B00C9,
00550094,
00B90075,
00B10046,
00C10064,
008E006D,
00AA00A0,
00BE0014,
00760096,
00D100E7,
006D0013,
008A00ED,
00120020,
00A40016,
005300C3,
006C0005,
0022008A,
006A00A6,
00020096,
00390026,
00940098,
0057004D,
00CC00B0,
00DC00A5,
00DD0097,
00AB00A6,
005E0052,
00E2003C,
0014002A,
008300D9,
00B10005,
0031006B,
00620008,
003600E7,
00A400DC,
0072004D,
004C0054,
007D0045,
00A300B9,
003200A3,
009D0030,
00C600B9,
006E0066,
0089006B,
0027007A,
007C00D1,
006D00D6,
004D0074,
002600B6,
00AB0025,
000E0004,
004C00DB,
005A009D,
00DB00B6,
00200075,
00990004,
00340056,
004D003A,
007A00B8,
00080077,
004E0032,
002B001C,
00BD0046,
00EA0012,
003000D3,
00AD0008,
006000E0,
000900AC,
00570066,
00D600EA,
00040056,
00AB00EE,
008600BC,
00970074,
005900CD,
00C500BA,
00A20014,
00DE0020,
00040000,
0053001E,
00EB00D6,
0030001A,
0014000E,
009900C6,
0044001B,
00790080,
002300B5,
006D003E,
00E30093,
00EA001B,
00950054,
001300B0,
00C20085,
00C400D6,
00090054,
008B00B8,
00340048,
001200ED,
000A0001,
00160083,
003000A2,
007C005C,
00EE0088,
00E90056,
00400018,
009C0023,
00A200BB,
00BB00DD,
00A60031,
00260013,
000600C2,
00550071,
00680068,
00C700EC,
002600A9,
004E0096,
0094009C,
006200BA,
002B00BA,
00D90021,
00DC0079,
006900C2,
00CB0088,
00A1007B,
0019000C,
002D0020,
008200B3,
001400B5,
001000E1,
00500073,
005500BD,
008D0017,
00BE0065,
00A600ED,
00CD0071,
00100026,
008300B8,
00500077,
00330034,
000600B4,
00BE0068,
001C0046,
0045006C,
00A000AA,
002100AB,
003E009B,
00820094,
00A00026,
00230031,
008100BD,
00E700C0,
00BE0066,
00A1003A,
00600070,
003D005C,
00C500DE,
00C7006A,
00EC009C,
00B900B8,
007C001A,
00A700C3,
001500A3,
00540046,
00EC0042,
0078002B,
004C005E,
00B00048,
00E400D2,
00830019,
00920067,
00B10009,
009C0056,
001900DD,
00DE00E9,
001E00C0,
00610011,
00AE00DD,
00BC0096,
00CE0090,
00870092,
00940025,
00040085,
00710067,
004B005C,
00A000CA,
008700A0,
000A00AD,
009A00A9,
000500A3,
005300A5,
00E30087,
009B00B4,
00790013,
00BD0039,
00AC00AA,
000E00ED,
00110043,
0024005C,
00A60006,
00E00075,
009000AA,
000B0077,
002400A9,
00E4003D,
00B40044,
0061003B,
000000ED,
00A20040,
00390086,
007A0017,
00CD00E6,
004200EB,
00E70051,
008800C4,
000300DE,
005E0002,
004900BC,
000D0084,
0056006A,
00740076,
0072005B,
00DE0055,
00D10005,
00630040,
008C0088,
00CB00AD,
004400E6,
00420049,
000B006A,
00E50022,
000A0048,
002C00CE,
007D0065,
00A50032,
000900B3,
00D50036,
003D001C,
002100E4,
004E0071,
0026007E,
001D00C8,
0022008C,
00C30054,
009A0034,
00D0006E,
00170056,
002D0020,
0019001C,
00680071,
00EB005C,
00C10079,
00A20074,
004900BE,
007100B3,
00CA0008,
00390096,
00600035,
00D90085,
002D00C9,
000A00A2,
008600A0,
00C30066,
00940076,
00390038,
00040019,
00ED009B,
008200CB,
0001000A,
000B0013,
0012009D,
00B100D6,
003B00A1,
005C0090,
00D6004E,
00C300D3,
007400B0,
00390018,
006E0035,
00960082,
003600CD,
00800061,
008600D1,
0082002A,
0051007B,
004C0052,
00AA0017,
00BE003C,
00B2000C,
002C005C,
002C0039,
00A7000C,
001C00D0,
0095008C,
00E20049,
00C4000B,
009D009D,
005C00C8,
00D300C7,
001900B0,
0049000A,
004900EE,
00C70002,
0040007C,
00410010,
0065009C,
00BD0044,
00210033,
00AC0064,
005C00DB,
003200ED,
0057000D,
00E60042,
00EB000A,
0068005E,
009D00B6,
000800E9,
00740006,
00B400A9,
003200D6,
00790024,
009300AD,
00540037,
00D200C7,
00E8000A,
005C0050,
00B3004E,
00870028,
007E0007,
00670085,
005700D8,
00D60068,
00B400E0,
006300D1,
00B400C1,
002C00AA,
007100D8,
00C400D6,
00DE000C,
008D00CA,
0078003A,
00E900A4,
00170095,
0031006A,
009800CA,
009E00A6,
008C0020,
0032001E,
009000A7,
0046006A,
001D001B,
001500AB,
00940024,
00A20073,
00EB0085,
0067009C,
005800DC,
00BA00CD,
00A200D4,
00A500A2,
0009002E,
00DA00C5,
001D0013,
000600AD,
00E40038,
001D00BC,
00100053,
00EA00E5,
00C00075,
00650083,
008400DB,
00BB00C0,
00050090,
00AD002D,
001900ED,
00020024,
00750045,
005300D6,
00E2001A,
00510023,
00E90061,
00040053,
006D0024,
00B10093,
0069004B,
00670088,
00BA0080,
00620047,
00680009,
00D5005E,
00A800A6,
007D004A,
008700C7,
00D50073,
00AE0044,
00C70058,
00B80052,
00BA0031,
005500C1,
00E50009,
00020046,
007800A8,
00780083,
008D00EB,
00E400B5,
00250042,
00580069,
006D00C9,
002E009B,
00B80022,
003B00B8,
0020004E,
008B0088,
00B400D6,
007E003B,
00420035,
00D20034,
00580040,
00470051,
000E00C1,
007000A6,
006100AA,
001500CD,
0007003E,
009100EB,
00B500BB,
00D90092,
008C0005,
00E700CA,
00DC0076,
00C60005,
00440078,
00490013,
00300061,
009A0000,
00230071,
009E0029,
00010079,
00C60088,
007000CB,
000D0068,
00CA0043,
00B20075,
0012000D,
00620032,
00790005,
008A0047,
005900C4,
00B600B8,
007A008B,
00D9006A,
00890004,
00D400BC,
00E80086,
00E100AB,
004D0038,
00EB0067,
004C00E8,
00980045,
009700C1,
00960092,
001B003A,
00D80062,
007900C5,
0096007C,
001C0030,
00030028,
00900019,
00A10030,
000400B9,
007B00C8,
000D0082,
00890062,
00AE00B6,
005E0025,
0096004C,
005A006C,
00B3007C,
004A0094,
0069008C,
0081002B,
00A800AC,
00140060,
000B00E6,
00EA0034,
00B300BC,
00E200B5,
006300E6,
001A00C3,
009D0020,
0088005E,
00310028,
001D0018,
00D600A1,
005C0014,
000A0010,
003D0006,
007A0081,
00670034,
00D50006,
005D0030,
0022007D,
00340084,
00D1005A,
00B3009D,
00A20075,
009800AB,
00210081,
00EE00CD,
008000A2,
00890007,
00A9005B,
009700C0,
00EB0075,
002B009E,
001800CE,
003B006A,
0044004E,
008D00E8,
00C300C2,
004100E1,
00130068,
00EC0078,
00DD0065,
0008002C,
004D00C6,
00BC0056,
00B300E3,
001E004D,
00050094,
0016008C,
001B003D,
006C0044,
00A90042,
008E00EE,
00C10077,
0029004C,
009B0021,
00150003,
000C004D,
00AE0098,
00180007,
00C00043,
00B20021,
000800EE,
008900D8,
00740034,
001D0008,
00DB004B,
00030011,
004900E5,
00DA0070,
007500B2,
004A0069,
006A00E6,
00BA0093,
00D00030,
007E0098,
000E002D,
00D10087,
00A80004,
00A200C8,
002500DC,
0087002B,
007B0012,
00270037,
00650042,
001B002B,
00BC0052,
00B6006A,
00510055,
00AE00C5,
007E0040,
004D00A4,
008E0049,
005100A0,
003E00C8,
00B8004A,
0025008A,
000B001E,
00050008,
003C003A,
002C0005,
00170029,
002800E5,
004A0048,
00E9003C,
0045008D,
00EC00C9,
00200089,
001D0026,
006500D4,
00920065,
000A006A,
00D00038,
00DB0020,
007200B4,
00A10080,
00370094,
0091003C,
00250016,
00BB006A,
008B00B4,
00CE005D,
00E400B5,
002700DB,
00200040,
00C300BB,
00AD000E,
000A0040,
00DA00B7,
0013008C,
00940043,
00C800C6,
0070001E,
00170091,
007D005C,
009500BB,
00A9000B,
0058009D,
00D40017,
00670017,
004300DC,
00EC0065,
009C001A,
00270002,
0064006D,
00ED00D0,
009500E6,
004900C1,
00D70017,
000A0022,
0024000D,
00EB0045,
00A500D2,
004100A9,
00DA0075,
0095002A,
005400EE,
00750094,
00B50076,
00610032,
00640006,
00C3006A,
00DB0022,
005C005C,
000A0068,
008A00AE,
00CC0057,
00B20074,
00C400E4,
00EE002A,
00D300E6,
00510014,
00730089,
00C90024,
002900E7,
00B20059,
007900A8,
005600E7,
00570011,
00EE0049,
004200C7,
00A90060,
00E60040,
00E300B1,
00B8002D,
00860000,
007B0026,
00350011,
00270010,
006400A6,
00C60034,
00A00033,
006C0099,
00CD0064,
00A80079,
00320093,
001C0051,
007C0051,
00B80014,
00200049,
004E00BE,
002B00C1,
00D500D5,
00CA009D,
00B2003C,
000D00DE,
00970020,
004900D6,
00CA0059,
00580066,
006B00E7,
0097002C,
00900012,
00AE00AA,
002900BA,
00B9002E,
0015002E,
00580076,
002700D5,
00430002,
00B00091,
00CD00E2,
009C0004,
00D400C8,
007900B1,
00880053,
003D0076,
00910035,
00790070,
004B0071,
006A00C4,
0016006A,
00A4005E,
00210062,
00EB0040,
00050098,
00710089,
00B80084,
00AC00C9,
008C009B,
00C900A8,
00D400CA,
00250009,
0070003B,
00E40089,
003E00B7,
00E20039,
007700BC,
00A70079,
003700DC,
00DD0010,
00790080,
00C700C3,
005A00BB,
005800A1,
00C5009E,
008A00DA,
00360007,
00E50047,
00BB00EB,
002B0021,
006A0090,
007400D2,
00270090,
0099000E,
00270030,
00530018,
003D0017,
007E004B,
00ED0026,
006E008E,
0021007B,
008D008B,
008C001B,
00C30094,
008000D8,
00290070,
001D0059,
00D40039,
00C400A2,
00C90080,
003B00A3,
00E00048,
00A60088,
00C10010,
000400E9,
00DE0042,
00E60095,
000B00B0,
005A007D,
003B004B,
00B30068,
00110046,
00DC0043,
007D0072,
00A900AA,
005C008E,
003E00C4,
00640009,
000E001B,
006B00A8,
00B300E8,
00160027,
0068003C,
00640048,
002800EC,
006B0069,
001200E9,
003400DD,
003E00CA,
00D800A1,
00A40056,
006D00AA,
004C0016,
00D300C7,
00A60034,
006E00A8,
0012002D,
0071006E,
000B00C0,
008900C5,
00650059,
00E800A3,
00880072,
00D6007B,
006600B2,
00090033,
006300B9,
00840009,
00020081,
000500EC,
00150089,
008300E4,
00A70094,
006500CA,
00610056,
00D000A2,
00420045,
00DE0056,
004C008E,
00C60075,
00CD00A2,
005E005E,
002100A2,
00290093,
001600B8,
00CB00D4,
00D4003C,
00480085,
00A20048,
0027005E,
00270062,
005500E6,
0049006A,
0000004B,
00120019,
00E00059,
00970088,
00C80016,
00C40071,
00D70063,
00D10047,
00C100BE,
00AC00D0,
00150027,
0025000D,
00DC0003,
0003009C,
00280058,
00520007,
007900A5,
006000BC,
009C0020,
00840024,
007B00A4,
009700A8,
00730054,
00A600CC,
0034002D,
001C005A,
003100BB,
004600DD,
001B002A,
004D004D,
008A00AE,
00E600EC,
00850049,
00720031,
009E007E,
005300DD,
000600DC,
009B00CA,
00BA000C,
00D30066,
00900026,
00940004,
00B30003,
0058008A,
00AD0023,
00A900D5,
008500E9,
00D600BE,
00170035,
004400BC,
00E4003A,
003B00DA,
00660096,
00D700C9,
00C80011,
00E30077,
003900E2,
008300EC,
002600D0,
006A0039,
00DE0002,
00380009,
00920085,
0009009E,
00D400AE,
00B1004D,
00E80037,
0027009E,
000300A0,
00E5003E,
00150094,
00DC0061,
00DB002A,
0033007B,
0045006D,
00C30013,
002200B6,
00850023,
003A0033,
0007001B,
00AE0052,
0059005D,
00E100C5,
00650016,
00A200D9,
001100A4,
00DE00EC,
00BB0029,
00D50079,
00A80097,
001400A1,
007C00C0,
00400011,
006E0004,
007A0033,
0071001D,
003100E3,
00AC00D8,
00650098,
00E400E9,
00CB0071,
00DA0058,
0004003A,
00BA00B3,
008D005D,
00CA004E,
001800B7,
00300058,
002C00C1,
001700AA,
006C00E8,
008000CC,
00DA007E,
008A00BB,
00440083,
007A005B,
008E00C3,
00C60014,
00C800B0,
00460023,
00540012,
00ED001C,
00C800D2,
00EC0059,
00D700BA,
00240032,
00570040,
00580063,
003C0038,
00A50045,
00CE008C,
0003002A,
00500083,
00140025,
00900075,
00860070,
003200CB,
00450092,
00C200B2,
0053004D,
00C5002E,
00820061,
00D6005A,
000300D1,
00A7009D,
00170080,
00D000B9,
0013001A,
00B600DD,
000B0000,
00E400A4,
00370063,
000A00B6,
00CC00B2,
004A00B6,
006D0059,
00010008,
008E0045,
003B0096,
00A8001C,
000E00A5,
001900CD,
00490006,
002700ED,
00790023,
00C60014,
006800A1,
008200A5,
00390070,
00A000B2,
003D0056,
00900066,
002C0095,
00880003,
000700AD,
004E0035,
007B006D,
00A400B8,
005B001B,
00E10020,
002E005D,
00910063,
000E009C,
005000EA,
00EA0060,
00DE00C7,
00B1001B,
000600A7,
0081008E,
00970086,
006200A3,
00D10013,
00DE00EC,
00740056,
0045001B,
0037005D,
00CA00BB,
00460014,
009800C5,
009700AE,
006E00C9,
001C005B,
002C0092,
00550026,
006D0020,
0051009D,
00E00062,
00AB0012,
00A50011,
002400CB,
0097007E,
00410004,
00BE0026,
0002003D,
00CE007E,
00D70093,
000C004D,
00AE00E3,
00100075,
00D60009,
00B20068,
00D00028,
00720055,
00ED0026,
003A004B,
002D0076,
00B5007C,
0093009E,
00B900B9,
000800EC,
0043006E,
00B80064,
003D0008,
00390052,
0004008B,
00E200AE,
002100DD,
0018002E,
009400BD,
007300EE,
006D00DC,
00BE00D0,
00C90052,
00CD000A,
005C0034,
009400DE,
0015003B,
00460090,
00E70047,
007300DB,
00950096,
00160048,
000200B7,
00370079,
00C500B1,
00D4008E,
006B00E6,
007B00BB,
00B800B4,
00E9006B,
00D600A7,
00D600D1,
009400CC,
00B000DE,
006B00DE,
00AB00BE,
007A0013,
003A00B8,
0076007A,
008E002C,
008E00E2,
009D0008,
00470076,
00A700AA,
007C0095,
009D0091,
00C9000E,
0077008D,
000200AD,
00D40060,
001800DD,
009A00DC,
0091004A,
00EA0035,
0032000E,
00830001,
00D600D0,
009E0066,
006400DE,
0021005C,
00000031,
00E1002D,
001500B6,
00790090,
00B10011,
004E00B6,
009800C9,
00AA00E5,
00A400C2,
00DD0076,
002300C0,
00990001,
002C00DB,
003200B4,
007D0025,
001900D0,
00020071,
00E70030,
007D0076,
00090031,
00630039,
00490007,
00A8005C,
006D009B,
005400B7,
00D1002A,
00620065,
00B600E8,
007A001C,
000100A8,
00450086,
003A0005,
006500E4,
00490048,
0039006C,
006900B6,
00670035,
006300BA,
009A00B9,
009100C2,
00C4002E,
00CC009A,
001C0045,
00DC005A,
00740074,
001200E8,
008D0047,
009700DB,
00C60040,
0063001D,
00110084,
00E70099,
0029003C,
00E8007B,
00CD008B,
0067007B,
006B000B,
002B00EC,
0002004E,
00AB00B4,
006E0008,
006C002D,
00340008,
006000BC,
00980031,
0026007E,
000000A3,
002700B4,
004A002B,
006C000B,
007600CC,
002200ED,
00830042,
00A600A0,
0069006B,
00A4009D,
00410019,
00AB00AC,
00C000AC,
007B0021,
0095000C,
00E800A3,
00200008,
00D9003E,
00D60090,
003500D7,
001D0035,
00750077,
00100009,
00580057,
00AD00C8,
0002008E,
006900A3,
00A9002C,
00D60006,
003C007A,
00A50038,
007E0044,
008500CA,
005A0093,
0018002E,
00AB0053,
00A00015,
00ED0063,
003200A8,
00100005,
000B00AC,
009E00A1,
0036003A,
00890051,
00130084,
009800E6,
00070027,
007200DA,
004200B4,
00940029,
0074008B,
008E0072,
00470087,
006200E5,
008300C8,
0093006D,
00D4001A,
001C001C,
00CC00A4,
003900CD,
001800C6,
00E5003B,
007D007D,
00DC0006,
00780003,
009D00D1,
00170082,
00760094,
009E00C4,
007A0035,
00990076,
008900CA,
00E60091,
0010007E,
00B5009A,
00380007,
00E2009A,
00ED00E7,
00A20077,
000200A0,
002300B1,
001900E1,
00140059,
007B00AB,
00A00001,
0002006E,
006300DC,
007700AA,
0020009E,
0050006B,
00D80097,
00D400DB,
00560065,
00D00044,
00EE0072,
00290036,
001000D5,
009E006E,
001700A0,
00470034,
00B90085,
00B7006D,
0041002E,
00790021,
00B9001A,
00C2008E,
006A005A,
00210074,
00A100B1,
00650046,
0090000E,
005C006A,
00620099,
00B00004,
00A50055,
00E20047,
00C200C0,
00D20018,
000B0035,
00C00073,
0025007A,
00BE00E3,
00CA00E1,
00920077,
00D900B5,
00C100E3,
007D00C7,
00EB00D8,
00380073,
00770074,
006E00DC,
00090076,
005900CD,
00E10081,
000D00B7,
004900D0,
008D0057,
00840056,
007D0077,
00A7007E,
00EE0090,
002200C4,
00B90058,
004A0061,
005700D3,
005D0025,
00460006,
000D0031,
008600B3,
0064000C,
00AE0039,
009D00B5,
00790095,
006C00A0,
00D5006C,
00A000E1,
00C30086,
006600B5,
00E70064,
001A0093,
00A2008D,
000A0075,
00EC00DA,
003200B2,
00A40030,
00B20050,
008D000C,
00250022,
001A0070,
00AD009D,
00D00058,
008E00B4,
00060085,
005E00AB,
006D0054,
0064005B,
001100E5,
0032004A,
006A00AB,
00CB00D6,
001200D7,
00790041,
00220087,
003D00B0,
0093008C,
00BB00D9,
005200C8,
00EC0016,
004C004D,
00ED0069,
00C00065,
00CC0009,
00D4000D,
005B00C0,
00430066,
003E0074,
00C100BE,
00BC00EA,
008000B6,
004A00B7,
00200008,
00EC0033,
008100E2,
002400E9,
007300EB,
00B30007,
005300ED,
00E2007C,
00AA0064,
00140004,
00EC0002,
0070007C,
00850087,
004C00D5,
007700E2,
007E00A6,
00040016,
00BB00AB,
004200E8,
006A00C5,
006300AE,
00E800DD,
00E2009A,
000B0030,
00C2002D,
008700A3,
00E9005A,
007000EC,
00320048,
00C0005C,
009D00C1,
00E40008,
00510072,
009D00B2,
002900CC,
00570093,
003100A0,
00CC0014,
0053002C,
00EA0000,
00290039,
004100C5,
008C00B5,
00BA00B9,
007D0021,
00130093,
001A00C9,
009A00C4,
008400E7,
004D0030,
009D00D9,
004A00EE,
00EC0006,
00A6003A,
00360030,
006800CC,
002900EB,
000C0021,
004500C5,
004400DB,
00AE007B,
0002000E,
0044008B,
00B900A0,
00E500B0,
00100007,
00B30060,
004B008B,
004C00DC,
002000C7,
00880062,
0059007C,
006700A7,
006300A8,
006E00B6,
00210017,
00B20070,
00B0005B,
00CC0028,
001B005C,
006B009A,
001800CB,
006800D0,
000400A3,
0037001B,
00BB00D7,
00BB0089,
000900A5,
003800B5,
0086003D,
009100C1,
0047006C,
0011000D,
00860062,
00830040,
005400A2,
004900E4,
004B0078,
00A10027,
005600C0,
002B00D8,
000C0012,
007100DD,
003600DE,
00420083,
00DA0001,
00C50064,
008B0032,
00770090,
008200BD,
00AD006E,
005B0074,
008D00C8,
004D00D3,
00A70061,
000C006D,
00350084,
00C300CB,
00B900C8,
007800E0,
006A00D7,
00CA009E,
00A900D6,
007B0071,
00C200EB,
00DB00EB,
00BE002E,
00A2006E,
00A800D6,
00210077,
000D001A,
0078007E,
00DA00AB,
0074000C,
00940089,
00A000AB,
002C0088,
00B600A5,
006300D8,
0044001B,
008B00E1,
004E00BE,
007000E3,
00190027,
000600CC,
00300024,
00510082,
00480046,
0052007E,
004700B1,
00D60024,
00CA0078,
00BE0013,
004900CC,
00EA0011,
00740009,
00850026,
009400D7,
000000C5,
00110024,
00700063,
00DE00E3,
00A30014,
009600A1,
00CA006E,
004C0057,
00100055,
001200BA,
00E000DD,
008A006A,
00BA0095,
00680094,
00D8008C,
005200DD,
006700BE,
007E007C,
006E003E,
00BA0001,
009700D0,
00700000,
00E500CD,
000E006D,
00960041,
00210050,
002E00DA,
00480059,
000A00C3,
008B009D,
005100E3,
002700D4,
00170022,
006000A7,
007D0012,
00090080,
00D6008E,
006700B2,
002700C4,
004A0058,
003B0021,
005400A9,
00E5005B,
00900074,
006600D6,
00200065,
000C00EA,
00B50071,
008C0089,
007D0081,
006100BA,
00D60065,
00550065,
00B400A5,
00850089,
00A9009B,
007E00C1,
00DD0044,
008700B1,
007000A4,
00E0009B,
00ED0085,
002C001B,
008C00E4,
00110060,
002100A7,
007A0009,
005D0075,
00ED0099,
00AE00D1,
00D000AD,
004300CA,
00CC0003,
00530058,
00360079,
000900EC,
00030060,
00E80027,
00DC0076,
00C00042,
00780075,
00080050,
00C40012,
005E004C,
009900D6,
0014000E,
00D20009,
00D500CC,
00B800C4,
001E004D,
00B7009B,
00E1009A,
0030008D,
0083008E,
00580044,
00170061,
008500C5,
009A0002,
00B40045,
000700C4,
00B100AB,
00760061,
00930068,
0053009E,
003600D5,
007100AD,
0080004B,
005000DE,
006D0050,
006E00E3,
00A400C0,
004D001D,
00070015,
00D0001B,
006900A3,
006D0011,
003A0082,
00AA001D,
00400052,
0061006C,
00110035,
00B6006C,
00B60062,
0056007D,
00DA004D,
00700098,
00E60072,
002A0068,
002E0076,
003C003B,
0051009D,
00B00006,
00D600DE,
00BA008D,
00A5005B,
008500A2,
007E00D2,
003E0027,
001E009E,
007E00D5,
00A300A2,
00980086,
00C70039,
000C0022,
0056004B,
00AC00E5,
005900B5,
0084008E,
00020063,
001200DC,
004A0000,
002700DD,
00AE0021,
000C00A4,
00BE0068,
00D10078,
00C300DC,
001200BB,
007A00E4,
003300A4,
009C00C6,
001C0035,
00490034,
008A00A5,
00070071,
00A300EA,
00B2003D,
000300AE,
00A90090,
00440083,
00BD00E8,
004B0063,
00E100EE,
0085003E,
009D0036,
004D00E5,
001B0007,
00A60057,
000600D5,
00AE0002,
00BC00B7,
00020072,
00EC0088,
00C8008D,
006300B5,
002B00B0,
00C900D0,
00580009,
007200B7,
008300AD,
00520087,
004B008A,
000100BD,
003D00A1,
006300AD,
00E00093,
008A007A,
002B00B5,
00B700A5,
00200027,
00E900D7,
007A0099,
000D0099,
000E006B,
00A800A5,
00E60041,
00DD002C,
00CA00E1,
003700DC,
00550016,
0051000C,
005E004D,
009D0071,
000800E0,
00C50061,
00530009,
0029009C,
00B20008,
00E300EA,
00C100C7,
00340057,
00E10059,
008A00DC,
008200C0,
00B20014,
00090003,
001C00A6,
00630000,
00930060,
00010075,
007300CC,
00730015,
009800E0,
00840033,
000800C5,
00C10054,
00DC0061,
00A20032,
00380097,
007D00EB,
00E10039,
009200A5,
00C8003D,
0023004A,
00760025,
00860030,
0077009C,
0049006E,
00A100A3,
0097003A,
00B1008B,
007600C6,
005A00E1,
00310020,
00ED0086,
007A00A9,
001400B2,
000B00CD,
007200E0,
000300AC,
002C004D,
004D0027,
00C90093,
007600C0,
0023004D,
003A00ED,
00C10080,
000600A2,
0067004E,
002C0075,
00300048,
007300CB,
0085001D,
00080095,
0072002E,
00B30022,
009100AA,
009500B1,
00730057,
004A0022,
00B30059,
0086005A,
00E30003,
00ED00B1,
00BA002C,
00B9005B,
005E004E,
00050000,
00440033,
007A009E,
002000B6,
000B000E,
00480053,
0065009A,
001B00AD,
0097001E,
00ED0006,
00A70098,
008C00A4,
00400097,
00500002,
006000C9,
003E003C,
00D4003A,
0019004D,
00AC00EA,
005000DA,
005500CD,
00DD007C,
006E00D6,
00860037,
00910076,
00740089,
0042002A,
0078005C,
00B200EC,
00E1003D,
00680030,
00A4007D,
00060070,
002E0020,
008700A0,
00D90039,
000E0085,
00480018,
007C0061,
005000D6,
00DA0067,
009800D6,
002B00D7,
000D009E,
00C80091,
005100D5,
00840079,
00EE0013,
00A500D3,
00B600AC,
00D50081,
008100C9,
005700D7,
00110000,
00350033,
007800C1,
00820065,
00BA002E,
00AA0047,
0082009B,
00B000AC,
006A0086,
00230010,
009B0021,
00AC00CA,
00AB00E4,
00E70049,
00C60029,
00DB0036,
00E800A8,
001D0000,
000400BB,
00BA00E5,
000D008A,
000A0018,
00ED0044,
000200CD,
00E80050,
00280035,
00B000EA,
00A70087,
007100B2,
008C00E1,
0010001D,
000D00AD,
00950078,
002A00C8,
00C9000E,
00E0005D,
0052000B,
00C90095,
00D80095,
00610076,
000E00E4,
0072009E,
008D00B8,
003500E9,
008A0052,
001300EB,
002D00A1,
004000A3,
005300DD,
00BB0077,
005300DB,
007000C2,
008E00D7,
00E90031,
00D000D2,
009D003B,
00E100D2,
00BC0024,
00260035,
00C30079,
009E0042,
003C00EE,
00C000AE,
00620021,
00CE0049,
00DB0038,
00E40024,
007300DA,
00A50067,
00BC00B9,
005400D4,
00E800D4,
00C700D7,
003200C8,
001E0094,
008300A7,
00510016,
00E300C9,
0098009E,
004E0049,
007500C9,
00A20008,
0061001E,
00D600B5,
005700BE,
00960052,
002700C7,
00680045,
000900AE,
003D00D4,
00C90065,
00380034,
00CD000C,
00EB00A7,
00CE00A1,
00CA00B2,
009800C4,
00560003,
007300E8,
00D50037,
008E0088,
00830051,
004200C6,
004A00E9,
00AE001E,
004D001A,
009D0012,
00E900C6,
006D003E,
002A0044,
0023005E,
00220012,
002A00A0,
0095007D,
00290095,
0074001C,
00BD0024,
003E00C3,
002400E6,
00200028,
00450010,
00600022,
009E0020,
00E600DD,
0032000D,
00C20017,
00340050,
00CE0093,
00C90076,
002B00AC,
006E00DC,
00450056,
00BD0035,
0040004A,
001C00C3,
00D800A6,
004D00BA,
008100A2,
00AC008B,
008A0091,
00CA005E,
002A0077,
00B200D7,
007100E4,
007A00D5,
00E90059,
0090009E,
009A0024,
0089003B,
004A0093,
00910094,
00A90067,
00AB000C,
00C00009,
005A0032,
000D00BB,
007B0009,
00C500CB,
001C002B,
004C00BC,
00B000E7,
00830050,
00DE007A,
002A00C4,
00040009,
0037002E,
00980029,
003D00A6,
009C00DC,
005D004E,
00740035,
00E900D6,
00C700A1,
00720054,
00B600DE,
003A00E1,
008C00CC,
00DC0075,
007D0040,
0078005A,
00270021,
006C00E7,
00680020,
008E00E0,
00E6003A,
00CA0086,
00B60082,
00B80090,
006C0030,
000D00C6,
002300E6,
00A30027,
002B0070,
001200A0,
00C000E2,
005E0034,
00130086,
00E90085,
00D800B0,
00120002,
00D800A8,
0012005E,
00AE0063,
00C20030,
00610037,
00710027,
00070025,
00010038,
006B00CE,
003300E5,
00520092,
00EA00A1,
001C0070,
0022003E,
00490080,
00A200BA,
007500E8,
00E50039,
002A0050,
001600C9,
00BE0090,
00CE0036,
009400D5,
00300035,
008D009D,
00220016,
00E60005,
00B80090,
00740012,
00DD0082,
002500BE,
00710039,
00BA00DC,
00420063,
002D0085,
004A006E,
00850033,
00D700AC,
00580092,
004300AC,
005E00BA,
00470040,
00200032,
0020004E,
00750097,
00B00048,
000A0095,
00590009,
00B1007A,
00D000E3,
00650066,
00B600E4,
002D0021,
00B000DE,
00E1004B,
0051003D,
003A006A,
005300CE,
00210099,
0066003E,
009E0040,
009800CC,
000E0073,
00EC00CE,
0095000D,
00AB0012,
004700C1,
006E00B3,
006E0088,
00C3004A,
00220037,
00800077,
008300C1,
00900084,
00E700AC,
00C800E0,
0031003A,
000B0026,
008A0063,
00C80074,
00850024,
008200A1,
00D50014,
00E4001A,
00550064,
008900E2,
003000B0,
00E40016,
00AA00DB,
006B0012,
0085009B,
005B00A2,
00390022,
006E0004,
00D90061,
003600B9,
003A0025,
00280054,
000C0002,
00960039,
00E40033,
00050054,
00B600C6,
00810083,
005B00B4,
00C100A6,
006800C8,
00E800E1,
001A0048,
007B0021,
006200AB,
0049009E,
00A400D3,
00B1003B,
00DE003D,
00EB007E,
002C007C,
00C10034,
007B0066,
00B2004A,
00670063,
007E0054,
00360059,
00520074,
00310010,
004800E7,
00AC001B,
00940088,
00C900DA,
00410007,
0040005A,
00E80080,
0090005C,
00C90071,
00A800E4,
00B20032,
005C003E,
00A00006,
004100E5,
00310033,
0036008B,
00C70079,
00D30041,
00B1007D,
000000D1,
0007001A,
00300078,
00890008,
005800CD,
002E008E,
001E0083,
00D9006D,
00D50079,
009600D8,
00D00089,
00900015,
00060037,
005A00B3,
0017003E,
00830050,
000E0040,
0027008B,
00D900E7,
0076009B,
00D90020,
00950052,
00120068,
000300B7,
00400079,
005D009A,
00AE003B,
0061002B,
00AE0017,
00CC0064,
00A30097,
00790006,
003200A6,
00C3005D,
004200EC,
000A004B,
000200D2,
0052007B,
004B000C,
00220097,
00C10084,
00B70049,
008B0045,
0033004C,
008C0089,
00840038,
00E0004B,
00EB000E,
001E0013,
00D90068,
0020009B,
006300A4,
001300E6,
00C1002A,
00390063,
008B00D8,
00B400A3,
00DD0074,
0064001D,
0095003B,
00AD00E4,
00E8003D,
00AB0008,
004E0003,
00BB0096,
00B400B8,
002900DD,
003B0081,
00CA000D,
004000C3,
007C0047,
0098001B,
00D90090,
00C60040,
0098002D,
00B600E0,
003C003D,
00390050,
005600E0,
00A600B9,
00DA0033,
00D100A0,
00A70033,
009E00B8,
00A1004E,
00C600CB,
00070036,
00C10002,
00D000D4,
002D0025,
00110086,
001900C3,
0058009D,
00180039,
006A0004,
0019008D,
00A80018,
000C0077,
007D0051,
00B900A8,
00BA0041,
009300B6,
00B8006B,
003100B0,
008C009E,
003E00E1,
0023000E,
000D0025,
00B000D7,
0075006D,
00D40097,
002D00D7,
00750066,
0062007C,
00E50088,
00340065,
0066006C,
00D80067,
00130012,
004C0025,
00340055,
0033006A,
006D002A,
00410057,
006B0009,
001B0092,
005B009B,
0018001A,
00330093,
000C0086,
00E7009B,
009500CE,
002200C8,
00C40035,
00690038,
00000032,
0050005B,
00180075,
00BC0084,
00DB000C,
008E009D,
00950032,
009B00C7,
008600E0,
00DA0008,
008E0031,
001D00B4,
009500E8,
005600D2,
00B50042,
00A9000D,
00B500C8,
00CA002A,
0029004D,
00A700E5,
00C80047,
0076000C,
0059003C,
00D40066,
00B90085,
009B00AE,
0044003A,
00D6001B,
003400E6,
00A10090,
00E90015,
00600095,
00C100B6,
009700C5,
005500A9,
00B300E1,
00BE00BC,
009D0053,
009C001D,
00B000B7,
003A0051,
00E10080,
002D00C8,
00B100BA,
00E5005C,
00CD002A,
008D0097,
008A000A,
006200C0,
00E00003,
005D00AB,
00E80022,
001C0051,
00930061,
00310022,
003E0036,
00760020,
0097002E,
003800A7,
001A0021,
00EB0035,
00120073,
0034003B,
008500C3,
0071004B,
0068008E,
006E0063,
00110013,
00830016,
007900C3,
00050047,
00B50003,
00E000B4,
000000BD,
00A400D3,
002800C4,
00B30058,
00E5007B,
00AE009E,
006B0083,
00260048,
00E400AB,
005700D0,
005E0015,
004C0035,
007D0086,
008B007C,
00E300D2,
005B0057,
00400086,
00C000AA,
0079007C,
006B001D,
00E70006,
00BE0040,
00640099,
004C00BC,
00960049,
00330094,
006E0048,
00E5003C,
00B200E9,
009B00C2,
00B40097,
000E005C,
00AC002E,
00B700DA,
004D00E0,
0099003D,
008400E6,
00B200B8,
004B00EE,
00C50038,
000D0094,
00ED0084,
00C10004,
00C20032,
00ED009B,
006B007B,
0002003A,
00620033,
000900A5,
009C0012,
00130072,
006A009D,
0003003E,
007D0062,
000D0039,
00010037,
006300E2,
009D00AD,
00510041,
008A0064,
005200E8,
00900080,
00170041,
00AA00A7,
004B001E,
00410078,
005100DB,
002C0001,
00E300AD,
007800C5,
0072002A,
004B00A0,
0062009C,
002A00D2,
0051002B,
008E0089,
005B0027,
00B500D3,
005E0016,
00320012,
005C009C,
009E005D,
00CD007E,
00BC0012,
0054000A,
00880030,
000100E7,
00500014,
001700A3,
0052001C,
001B003A,
0029009A,
005200BE,
006D005A,
00480065,
004800E0,
00CC009B,
00A80041,
00430063,
008B0086,
00A60077,
008100DB,
00B9001D,
00A700DE,
00270052,
00AB0082,
00C9001C,
00B100CA,
00870061,
00100019,
00BE0099,
00C200C5,
000C0054,
00090019,
001900AA,
00EE004A,
002D0058,
008D0078,
000B00E5,
00700091,
004D0008,
007000DB,
00E30067,
00980011,
00A80044,
00A10047,
00400014,
00CC00EE,
00570023,
007D00D2,
00B900E7,
00750096,
005B0076,
000E0089,
00CB0019,
00CA00E9,
001A007D,
006300BC,
000C009B,
00AB0098,
00E300E6,
00E3002D,
00C50034,
00460044,
009300CA,
00340079,
00B0008B,
006100E4,
001300EC,
004C00E3,
008E00DC,
00AA0028,
007400B6,
007E00E6,
0023008C,
00360062,
00D80055,
005400C9,
009D00A8,
00A200B5,
00950097,
002B0085,
00890048,
0048005B,
005700EA,
0065009D,
0015004B,
00700060,
0079005D,
004D005C,
00AA00A7,
009C0095,
00A3007D,
00120086,
004100AA,
005D00B0,
007D00D7,
006D0086,
000A009A,
002C0020,
0009005A,
00930062,
00320034,
0075009E,
00E1004D,
00E40000,
004400AB,
00C80056,
007D00DC,
00350088,
00140068,
00100078,
00DA006C,
00010029,
003200E1,
0064006A,
00280090,
00E30005,
00490075,
00AA00EE,
00070079,
003D002D,
000400E7,
00E90025,
001D000D,
00440085,
005A00AD,
004C0069,
0084001E,
00C90059,
004D0090,
00570091,
00270047,
00E200B5,
00BD002D,
0057005B,
006C0023,
001600E0,
003B0062,
00E900E1,
000E0087,
00CE00B3,
00EE002B,
00B500B5,
00AA00B8,
003B0091,
003E0048,
00390063,
00D30034,
00A000C4,
00EB002A,
002700BA,
00CE0007,
004100C2,
00220076,
006200E1,
00A70089,
00BD00BC,
003D0055,
00EC00E6,
00AA0084,
007A00E8,
0029000C,
002300AD,
00AE0062,
00A3007D,
000E0089,
00D90046,
008500EB,
001800B1,
00E8005C,
005D007D,
001500C0,
00B30024,
00700049,
00C900D7,
008D0001,
000C0054,
00B7008E,
00BA0092,
00D80043,
0093000E,
003400A6,
004B0094,
00B7009B,
002C0070,
00D1002B,
00560029,
00AD0044,
00770098,
005000E3,
00220006,
00E00064,
00D7005D,
00A90036,
004900A8,
00140051,
006000B4,
005000E4,
00D50070,
00D9001A,
008800A0,
005100BE,
00A10030,
001E00A3,
00500049,
00AD0004,
0008006D,
00B80065,
008C0011,
009300C6,
001A0018,
002E003D,
00BB00EE,
00D7001D,
00240035,
00E400C6,
00C4000D,
0035000E,
003500E0,
002900B9,
00B70013,
003800B4,
00AA00A8,
00310068,
00A80076,
00440011,
00BD0065,
00C8002D,
004A00BC,
00940085,
001100DE,
0096002E,
00250012,
003C004D,
0070002A,
002A00BC,
00D5000D,
000E0084,
005D007B,
008C008A,
0064009D,
00550068,
00D600D8,
0007001E,
00EB0045,
00D80031,
00490003,
00AE008C,
00270009,
006600D5,
00A800D8,
005200B3,
001E007B,
00EB000E,
002B00D2,
006400E9,
00960031,
00CD002D,
00E60001,
00440053,
0042004C,
00AB0026,
00A90036,
0083002C,
00490083,
00BA0018,
00510071,
003100E6,
000000A5,
00B800A0,
00E1001E,
000A0005,
009200A0,
00A900B4,
00DD0017,
002A0030,
00D600A3,
0091001C,
000000A4,
00D000E0,
00A100B0,
0043001B,
00C300BE,
0083006E,
007C0075,
0092003B,
00EB005D,
00D10082,
009D00C6,
005D004C,
00430093,
00990021,
00A500A4,
00A300E0,
00D80033,
007B00A3,
00E70053,
00CC0069,
00A8000C,
00420093,
00C8002E,
009D00A4,
0011009E,
0051004C,
00EE0017,
0000001C,
00B6002D,
00190083,
00270052,
00860037,
0069002B,
00160048,
008400A5,
00610069,
00390065,
005D00E6,
00140024,
008800A6,
00D600C6,
00CB0035,
005800DA,
002E008B,
00C40038,
00E9005B,
00B900D3,
00550094,
007200B7,
005900D7,
002E0020,
00610067,
006D007A,
0070007C,
000500CD,
00800040,
007E005C,
000A006C,
007A0000,
00B300B8,
001400D3,
00BB004A,
00C700BB,
00A90073,
003B006A,
00A7001C,
00DC0059,
007700C1,
00E9008D,
00870062,
002A0066,
00770022,
00C300C8,
006B005E,
00A800C3,
00B900C3,
008B005A,
00CA0063,
008B008E,
00100064,
00A6007E,
0091005B,
00210081,
00AD005C,
00A200A9,
006500BB,
006C0045,
00A10072,
00430069,
00350067,
00DE008D,
00910072,
00E7006D,
001D00C0,
00680082,
0076007B,
003200B8,
00EC00B8,
00D0008A,
003C002E,
007A008E,
006B0035,
007300DD,
00030090,
007900D3,
00D00056,
003E00D3,
00D100E3,
00860012,
00CC00AA,
003100BA,
00700000,
00A0004E,
002B0097,
003500C7,
0053000C,
008C00D9,
000C000D,
00AB0057,
002E0081,
008A0030,
0053009E,
000D0076,
004A00C7,
006A0089,
005700EA,
00E20034,
006B005B,
00400041,
00DB004A,
00E30093,
00210045,
003600C0,
00600050,
00590053,
00370071,
008C00C6,
004C00DB,
008C007E,
00D7006B,
000B0097,
00D700B8,
003B00C9,
00AA0079,
00770017,
00D1001A,
007E0000,
006C0065,
0080007B,
004D000D,
009E004D,
00A300E1,
00760023,
007D00C1,
00E7000C,
00590042,
00B7009E,
0087004B,
004B0053,
00640047,
00690086,
006E0021,
00A2007D,
0080005E,
00AB0043,
00E70059,
00330003,
00A80098,
007C0031,
002E0009,
009D00BE,
003A006E,
00B80076,
00AC00A0,
00E60089,
00C400B1,
00490075,
00DC00D7,
007900B3,
0097002A,
00DC003C,
00BA0009,
001B00C9,
008E00D2,
00DD00DD,
005100B5,
009E0040,
00340064,
00780027,
006E00E9,
001900C7,
0025008B,
00EC00D1,
00E60071,
006300BE,
008300B7,
00B400B4,
00930015,
00A10094,
000400A8,
001700BD,
00670052,
00D50098,
0092009D,
00A100B3,
00D10059,
00BE0066,
00AE0005,
00330090,
007E0063,
002800AB,
0089006C,
002500ED,
00420005,
00C10054,
00A1006E,
00770083,
00E2002B,
007500EE,
008D0008,
00C9002E,
00C00039,
001C0009,
00B7005A,
00540055,
009D00B9,
002300D7,
00C600E6,
00DC005A,
0056008C,
00E800DE,
002D00C1,
00AD00C8,
008B00CD,
0023005D,
00770080,
00CA00E6,
001000D2,
001E008B,
00C30051,
00C800D2,
00900064,
00860026,
005900B3,
006A00AD,
00EA0075,
008200E1,
008900A1,
000E00ED,
00B00057,
0077008E,
00D600DC,
0018005B,
00CA0031,
006200E7,
00E8001B,
001E006B,
00C80090,
009800D5,
008C004A,
004500B1,
00490065,
00720098,
00600069,
0068000E,
00C20080,
008800EB,
00DB0090,
003C0096,
00C70044,
004800DD,
00A8001E,
00C60080,
001A0088,
0047001B,
002100DD,
00C30018,
000400A1,
00EC003A,
009B0026,
002B00EA,
00C50004,
001D005C,
00BD004A,
00D00065,
002A0062,
0000007D,
00DB00BD,
00AC0047,
002E0086,
006B00D7,
00B2003E,
005600BE,
0048008A,
00C20004,
006A0049,
008C0095,
00540016,
00E100AE,
001100B4,
002200B6,
000E00C3,
00930073,
00C00018,
00D5007E,
00CC001C,
00AA0038,
00D40033,
004E0092,
005E0014,
00CE00A0,
009C0076,
00220010,
00AE00E2,
00EB00C9,
00E100CA,
001D0009,
004B00C0,
00940058,
004700E0,
00B80038,
00EA00E8,
002300E6,
00950091,
002C00B0,
00E90074,
008900B0,
00C40060,
00630056,
0005001C,
00C5008C,
00C50088,
00870026,
0074008D,
009E00B1,
00890090,
00AB006A,
00CE00D3,
00A700DB,
00480030,
00B500E2,
003300BA,
00D5003A,
009300A1,
00E900B1,
00E30085,
00D90049,
00320073,
000B00A1,
003A0042,
00550092,
005B00EB,
00930098,
005C009C,
000500C0,
003D006D,
008C008D,
00620080,
004C0065,
009D0028,
00540060,
00E100AD,
00A700B3,
00D8005D,
00AD00CB,
00860004,
004A009D,
00070058,
00C100A7,
0002000B,
0078000C,
009C000A,
00A1006A,
00B0007D,
00310021,
00530024,
00C30078,
009200DA,
00580050,
002900E2,
001E00E5,
00D00074,
00160010,
00990071,
009A00D1,
00D5005C,
006400BD,
00920023,
00E4004C,
00ED0040,
005200AB,
00280064,
00930094,
0052004E,
00580091,
00770030,
00A80029,
00C300B2,
0074009D,
003B005E,
002800C3,
00B400C0,
005400E2,
0063003A,
00080024,
00770082,
007400BC,
005A0081,
0046006E,
002C006E,
00C20036,
001000DD,
0018001B,
001100EA,
0074004C,
00A200CB,
00AC0091,
006D0055,
006700BD,
004500A7,
003200AD,
000C0064,
008000E7,
001B00BA,
00990089,
001100A2,
00D50058,
001B0029,
00900023,
00B100DB,
009A004E,
002900D7,
00C50089,
0097009E,
000000A0,
002A00BA,
002B003C,
00570043,
00880022,
00B600BA,
007A0003,
00A30017,
00C40020,
00E500BA,
00EB0042,
006300E1,
00D800E8,
00A80045,
006D0054,
00C10042,
009E0067,
009B0065,
0065002C,
00930054,
00EA0039,
00AD0076,
00790065,
00130091,
00560048,
004800B2,
00A000D0,
00C000CE,
0073007D,
00710026,
00E60085,
00B20039,
00430025,
00D800AC,
001C0061,
00A3004A,
00A80054,
002900E6,
00330089,
00B2004E,
009800AB,
00E100B8,
00AE0074,
006B00EB,
00DC0035,
00E4002E,
00BA00DE,
002E0043,
00360020,
00720077,
009700D1,
0054006D,
00310024,
00080004,
0065000A,
002600E8,
00080084,
00BC00DB,
00D900A0,
00DC00B8,
00550064,
007C001A,
00B900E7,
0099008A,
000A00EA,
00A50098,
00280013,
00BD0029,
007D0009,
00C2002B,
007A00B8,
00C1006A,
006D0090,
00DA00AD,
0097004A,
00A00074,
009A0078,
00860092,
00810038,
00670062,
00E3002E,
00980059,
00A70058,
007B00BE,
00D20049,
00A80003,
00330008,
009E0051,
00E100E9,
00AC00B9,
005C0002,
00DD0017,
005E0087,
00D200DA,
004A0034,
0052005D,
003E0064,
000400D7,
00D300D7,
000000C3,
00E60006,
000C0046,
00E500A9,
00EE0093,
003D0091,
00DB00A0,
00AA001A,
002D0076,
00420034,
00BB0050,
001D0008,
0080006A,
005D0072,
005500E4,
00DE0093,
00DE004A,
002E00DD,
009000C9,
00B7004D,
00A4000B,
009C0092,
00D20052,
00C900A9,
00AB000A,
00CD0065,
00B100D6,
004C00E7,
00E800DC,
002B0039,
00B5005A,
004D0055,
005B00EC,
00D4006D,
00E00061,
006500A9,
00490006,
00390062,
003D00BA,
009A002E,
007D0012,
00E900BD,
00C70076,
00E000A0,
007E00A5,
00A50082,
0047009E,
002000A4,
008E008E,
00170036,
009A00D2,
00E100DB,
0080008A,
00930009,
0099003E,
004A0066,
001000AC,
00D500AE,
000600A8,
00EA007A,
00A40059,
003900C3,
00CB0001,
0043007C,
0072000E,
005800C6,
008C0035,
00910021,
000A0017,
004B0014,
00CB0067,
00E30080,
000C00BD,
005B0037,
000C00BC,
00C200B4,
006700A0,
00560051,
00E00088,
00D500D4,
0079005C,
00EC00C2,
00490094,
000700D7,
00250034,
001E00E7,
00540006,
002C0006,
00610099,
008A0008,
000C005B,
00CE0036,
00030023,
006D0052,
00B00030,
00ED00C6,
009000BB,
00420055,
00A1008E,
0061003C,
001E0087,
009800C2,
009A00D8,
005A002E,
00860064,
005E00A4,
008000BD,
0049001C,
00370099,
00780045,
00680073,
0046009B,
000C0023,
00A300D3,
00E30003,
00B200C3,
00550005,
001C003B,
001E005E,
001600C3,
004D0075,
0012004D,
003D0074,
00890030,
004B0084,
00080015,
0053004B,
00E70033,
0081009B,
00D70070,
002D0025,
00800097,
0085002A,
004C00BD,
003500A1,
00D4005B,
008300C8,
002100B8,
00C1003D,
009100B7,
00360027,
007B00AD,
002A00B3,
00AC0007,
00120058,
002C00CC,
004400B6,
008900A0,
00460040,
009E00B9,
001A003C,
00A3007E,
001B00E8,
003900AB,
006A00EC,
006E0009,
00A400C0,
0007009B,
00760030,
006500E1,
006800A6,
0013004E,
00A60082,
00ED004C,
00670082,
00AD006C,
00C8008D,
001B0016,
00E6001D,
00380005,
002100B1,
00540017,
005000A1,
004900BA,
00760018,
00A900D7,
00BA00A1,
007A001B,
0067004C,
004A0036,
00B700A1,
002C008D,
00590008,
003D0069,
005C0002,
00B300CC,
003D00CE,
00B200C9,
007800A7,
00410034,
00AE00AC,
00C400AD,
008B0021,
0063001B,
00DA0019,
0077005A,
00D7005E,
00A40076,
006700D5,
00A000C5,
00760029,
005C00C0,
00920013,
00EC00E1,
00B20080,
00D3008D,
008B00BD,
00460032,
0009006E,
00C000E8,
0013001C,
00780035,
0086009B,
00E00053,
009D00CE,
000900B6,
00550060,
005200DE,
00470046,
00A50059,
009C006A,
00220050,
000C0054,
00BE00B3,
005100C9,
007E00C8,
00020088,
0009007E,
00960065,
00A40031,
00ED00C0,
00E40013,
00A500D9,
001D00BA,
000B0096,
00C400A9,
008600BC,
0057006D,
00D200CB,
000900D6,
001A001A,
002D0051,
005A0020,
00140037,
00A90025,
000B001B,
00A10006,
00170061,
00C5000B,
00790011,
00C20076,
00420007,
00D000E5,
00230079,
0013008B,
0080007B,
004B001B,
00D70069,
00E90098,
007400C3,
003E0038,
00660078,
00D40052,
003A00D0,
00E600ED,
008E0062,
007600EA,
00430024,
0054005E,
00A300D1,
00580003,
00D20005,
0095004C,
004000AB,
00D5008D,
00D6005D,
0086009C,
00DA004D,
0023007E,
005E0003,
00C2001E,
009000DD,
00470005,
00AE0060,
00D7000A,
00D2005E,
0009009C,
003D008E,
00230060,
006D00AD,
007C006B,
00100095,
00DC00C9,
002800B0,
001C0001,
000D008C,
000B0073,
0089004B,
009800C8,
00A300C7,
00750055,
000D004A,
00100070,
00BC00CE,
003400D7,
007000D2,
00BB0036,
00B30020,
00B30001,
008C00C5,
00B70021,
00B300CA,
00B1008C,
005400B8,
00CB0064,
00E900A9,
008A0072,
00C5005C,
007B003A,
00200030,
00340002,
00820091,
00C00013,
00650016,
00810092,
00860085,
00CD00CD,
000500B9,
006000C9,
004600CC,
00B600BB,
001300DB,
000C00C5,
00CD00D1,
008C0048,
00760049,
00DB00C1,
006D0031,
0033001C,
002B00A3,
00940061,
002E003A,
0053007B,
00C70034,
00130053,
004C0013,
007D0078,
00A700C9,
004C0069,
009600B3,
00B40020,
00DE00CE,
002200BE,
003D0056,
001B004C,
000E00B9,
006200DA,
00E70008,
00A100CC,
00E70094,
00A80056,
004C0093,
0053007A,
006C00D0,
00C90003,
00EB0047,
001700E2,
00380036,
00A80064,
00D100DD,
00CE0052,
009900D1,
00170027,
00C80060,
00D60082,
00140068,
00670044,
0000000C,
000A0061,
00ED0087,
00D4003B,
00AB0001,
000100A4,
00000089,
00C200B7,
000C009C,
00280054,
009D0043,
00CE0066,
00620092,
0005001D,
00D700DB,
00AC0005,
0096008C,
009C0020,
00A7006E,
008C003A,
000A00E7,
00750054,
00D80083,
00B100B1,
002E0043,
0002007C,
00ED0077,
00DB00E2,
006400B0,
006600B7,
00770023,
00B800AA,
00290036,
00180015,
0045002C,
00350029,
00E60028,
00A80018,
00540053,
00400029,
00610045,
00B50020,
00EB00CA,
006E0072,
005D00BB,
001B008B,
006D00D7,
00080084,
00B400E6,
005C00C8,
00920063,
008500E9,
007C0044,
00B700C9,
00C30052,
00B40056,
00200019,
009C00A3,
005A0065,
00D90090,
002A00B9,
00370041,
00B70092,
00E60060,
008700E3,
004800AB,
00E5003C,
00B40048,
0055000A,
008B00DD,
00D800AA,
00740031,
0060008B,
004D0031,
006C0007,
005C00E9,
00600014,
005200BB,
008D0068,
002A0028,
00430062,
001300BE,
00D00045,
00E400E1,
00820083,
00AE00EC,
00E200D6,
0088002A,
00940093,
003800E0,
006B001B,
00220010,
00070030,
004200DA,
0079000E,
00C800DE,
00910078,
006400DA,
000400E8,
007200AB,
00CC0035,
006A0081,
002E004A,
000D003B,
00E600DC,
009E0037,
00AC0017,
00AE0099,
003800B1,
003600C9,
000A0094,
0009007C,
00450056,
00CE003D,
0053008C,
00820086,
00A8003A,
006D005B,
0012001B,
00270086,
009B00AE,
006A00CE,
008300CD,
0054007D,
00D60016,
004100E9,
00210060,
003500A0,
005E0075,
00E60086,
00020098,
00CD0097,
00C200D0,
00A5000E,
008700D0,
006A0093,
00D40037,
007500D1,
00E000C9,
00DD0085,
001B0013,
00A100EC,
00EE00E0,
00D200C8,
00B30082,
00B300E9,
00020062,
00C700D8,
00CA0064,
00C800C3,
00CB003E,
004100AB,
006C00EB,
00BC003A,
00370022,
006A00D7,
00D500D6,
00900006,
00DD0007,
007600D9,
00AD0017,
007800CB,
00B60054,
008D0082,
0005006C,
00350091,
004700E0,
00B80012,
00770028,
002D00C5,
009300B6,
0077002E,
005B0041,
00CC00D4,
00270096,
00290030,
00B6004C,
00E3007E,
00230072,
005800DB,
00180057,
009A0067,
00B80067,
006B00B3,
0017001B,
00D1005A,
00D90061,
005900CC,
001800C4,
00250078,
009E00B1,
0098009A,
00BD0005,
00AD00E1,
004200BA,
0046003C,
007D0043,
007C00E2,
004500B1,
00EC00A9,
00960065,
00E2006D,
0080009E,
006E00B4,
00690054,
00450063,
00E50006,
00E50034,
005D0061,
00D100E6,
00CC005C,
008D0098,
00A7003D,
00280089,
00400006,
000900C3,
00BC005D,
008C0072,
00A300C6,
0007006C,
003B0093,
003D0054,
00240013,
004C00EE,
0090000E,
0026009E,
00440030,
00350045,
00620067,
006800AC,
000E00D6,
002D00A8,
003500C1,
00020036,
0076001A,
00EB0043,
009B002D,
0063002B,
008A00AA,
00680056,
0018001E,
00E9001E,
00300092,
001B0041,
005C00E4,
00A10008,
004500A1,
00360087,
00340020,
008C007B,
00B900B4,
006200A9,
00290083,
00B300BE,
00C70057,
00530042,
00E200C1,
005700CD,
009900A6,
00A20034,
00B7006D,
007C006D,
00510072,
005B00D5,
00340061,
00E60047,
002D0015,
0095008A,
009E0007,
001E00A5,
00AB0032,
00BD0010,
00CC0088,
002B0016,
00550048,
00CD00AC,
0028002D,
00D4008D,
00040030,
00820044,
00440042,
00E6001A,
00210016,
0036008E,
00450018,
00910032,
003B0058,
00440037,
008100EC,
00550059,
00CB0027,
00B900B1,
00A40076,
008C00C7,
00D600B3,
004D00C4,
007B00C7,
009000A7,
00740053,
00A00056,
005E0057,
00D400BD,
00250087,
00BB0071,
002000B0,
00A50062,
00710035,
002000E4,
002C007B,
007C0046,
00BE0074,
00420024,
004E00D1,
00570001,
001C00ED,
00940030,
001D0046,
00270022,
005C009D,
007800D7,
001A0024,
00A2002E,
00600005,
005100C7,
004A000B,
0082007D,
00470006,
00DA0039,
00C7005C,
001B009C,
004A009C,
0003001B,
006800A2,
001E0083,
002B005A,
00670038,
00B90015,
00A80080,
00E70014,
00BB003A,
00C90032,
003E0006,
0085009A,
00C000A8,
0014006B,
008100C4,
009C00DD,
008100B9,
00320030,
00270091,
006B000D,
009C00D3,
005E0065,
00E80035,
00B10007,
007E0089,
004000B9,
008A00C1,
0056005B,
007C0063,
00640097,
00E700BC,
00EA001A,
001A007B,
001A0019,
0049000A,
008E00B6,
00EC00E7,
00C300CD,
0069001B,
00990007,
004100ED,
0063000C,
002A0089,
004100C9,
005E0051,
0019002B,
00260029,
000600D6,
00080051,
00A30077,
00E50070,
00590082,
00B900A3,
00820021,
000300C8,
00C00021,
00A000CC,
00E60015,
006D0097,
003C00AA,
00AD0070,
00550037,
005600BA,
0067009C,
00C900C9,
007C00DD,
00A500A5,
0084001A,
0008006B,
007B00C2,
00A50073,
00B6007C,
003A0017,
008700BB,
00AA00D5,
007A0004,
00D50076,
00D800A8,
00D20010,
00CE008C,
00BA0063,
00B2005C,
002B0047,
00A100A0,
00AA00D2,
005800DA,
007D00A5,
003E007A,
008800D3,
002100CD,
003A00EB,
00910047,
0097009C,
006B008D,
00AE000C,
00C90020,
00950006,
00250021,
004A002B,
00C9002D,
006A00ED,
00500072,
003E005B,
00190047,
00E40041,
007D00AA,
004B0043,
00CE00B0,
00CA0009,
00EC00ED,
00B90038,
001900AA,
00890099,
009500E8,
0081007A,
003A00E1,
00A000C2,
00570079,
008500AE,
00DE00B5,
008E00EE,
00200071,
00210025,
00AD00B2,
006700DB,
0018004E,
007A0052,
00C000A6,
00B300EB,
00D8008E,
0042009D,
007E005E,
009200C8,
00EA00E8,
008A00B9,
0089006C,
00B90062,
005B000B,
00ED000A,
0004007D,
00230078,
009D00A4,
007A002D,
000B00BE,
002500D4,
00020070,
000700CE,
00280024,
007A00E9,
00540016,
00B00086,
004A0029,
00550083,
000D00D1,
00630059,
006800E4,
00840080,
00B30069,
009300CE,
00460065,
00AA00A1,
00450080,
00080053,
006900E4,
00C700C6,
00680018,
000400E4,
000500AC,
007B00E9,
00C30051,
00B4007A,
00B60049,
0063009A,
00D9008C,
0069005E,
000000C9,
00310077,
00C30087,
00020074,
00AC0089,
001900D1,
00930051,
0083006A,
008A0068,
00770099,
00490050,
009000D4,
00D50075,
00A4000B,
00D5008B,
004900C3,
00790062,
003D00AA,
00640023,
001200A7,
00C900CA,
007B0078,
00A10024,
00C4000C,
00430086,
004B007C,
00C30073,
00820005,
00D4007C,
00BE005E,
00A800E8,
00D4007D,
006500A5,
001700E3,
00310097,
005B0093,
005700A5,
006700EE,
00550051,
00A300CA,
00110020,
002D0066,
0027004E,
009A0035,
00CB00E4,
002B0065,
002100AA,
00D600E4,
0084005C,
00920010,
00B300D6,
00CA0096,
00E100A3,
008B008C,
00B60078,
00670029,
00620075,
00200000,
00A50017,
00EC006D,
00CC007D,
00C10084,
0090001B,
0033008C,
008B0040,
007900B6,
00D100AE,
00B800A7,
00B800E8,
00BA0076,
00630088,
00840002,
00E40011,
00CC007A,
005100C4,
00140050,
001D008E,
00380077,
00280098,
0003009A,
00A4008B,
00440078,
00750075,
006800D0,
007D0074,
0006001A,
00CA0048,
00B6002C,
00A500E0,
008A00E7,
00B900C3,
000A0031,
00620019,
00C40070,
000E007D,
000C0017,
00B30060,
001D0047,
00300051,
00B1009E,
0073002B,
00BB00ED,
0097007D,
0010003C,
00A6005B,
00E00014,
00B600E1,
005E0030,
00720005,
00D400AA,
00A1006B,
00B200DC,
002100B8,
00060006,
003C0017,
0063009B,
00E8006A,
00810072,
00220027,
008B004D,
00B2003E,
00680095,
00B900A1,
00780075,
008C0006,
00ED0000,
004100A6,
0058004B,
00DA0052,
00BE0014,
003C0069,
00400077,
00070026,
00B30050,
00410002,
003D00B8,
00E500B2,
005C0015,
005A00DE,
00E80059,
00BB0015,
00730095,
009D002C,
00260066,
00D300BE,
005D007B,
0009002E,
00510039,
009A00A0,
0088005D,
008100B2,
000500CB,
008100CD,
0003001B,
006D00BB,
006E00D7,
00680031,
00020039,
00AD001B,
00940055,
001C0049,
004700C2,
00750068,
003D0031,
00A2006E,
002D001B,
003400D2,
005A00E4,
004E00A2,
007700C8,
00C70053,
00040034,
006100B1,
0021009B,
0001009C,
00840064,
00B000A8,
00AA0013,
00640043,
00310054,
006D00B6,
00D600DC,
008800AB,
00420015,
00360086,
00770069,
00420008,
00040012,
009B00A4,
00B600EE,
000B00C3,
003E00E4,
004B00E5,
002C0068,
00D400B0,
005B00A5,
006700E6,
00200035,
00290034,
00230079,
00C700DC,
00E10017,
00150017,
000B00EB,
00E400C1,
00090068,
001D00CD,
003100DE,
00E1002D,
00440019,
00DC0047,
00AE00B2,
00910053,
009C0060,
00360012,
00BA0041,
00A50066,
004A0049,
00BD0033,
001C0081,
00850000,
001600AC,
00E700D8,
000200BE,
00BD00C4,
00600029,
008E00BC,
00E50095,
00E8006D,
00E400B6,
00A10082,
00610090,
0039006D,
0051005A,
00DD005B,
0080003A,
009500A2,
0009005C,
00710032,
00030079,
00200056,
003B00DA,
00A90082,
002B00C4,
001A0087,
00A4007A,
00A5008A,
00150027,
00AA0001,
00500036,
001000A6,
007C00C9,
00E900DD,
00EE0095,
00EA003E,
004400BC,
00820003,
00A80001,
00470052,
00580036,
009D0098,
00E900A1,
000E0010,
00770064,
009400A8,
001C00C4,
00C100D6,
00680029,
00C600D0,
00A20012,
00320065,
007D003A,
000600BD,
002900A6,
006C00E6,
00370008,
00A40062,
0001009C,
00240038,
0037001D,
00CB00C8,
00890084,
00AC003E,
000900DE,
00320073,
000A005C,
00120039,
005700BD,
0013000D,
001A00A6,
00710001,
004A00E3,
003500AE,
00740097,
005500CA,
001000EA,
002500DB,
00C600CB,
00B90096,
00240035,
00180086,
00C20077,
001900E6,
00990017,
00400047,
004E0074,
00990009,
006200E0,
00D2005A,
00E20007,
007200B8,
007D007A,
00DD0086,
004500D2,
00A9002A,
002900E7,
00880047,
0036004A,
009D0049,
005B0054,
008200B4,
001600D7,
00CD0046,
0014004E,
00E5001E,
003400C5,
00E000EC,
004300A7,
00DA00D8,
00E90075,
00170082,
003800D2,
00A8007A,
003A0005,
00B80060,
00D30079,
009D0071,
00D20003,
004C0034,
00610067,
0002008D,
00620027,
000C007B,
004C00E1,
00820060,
00B80094,
009E0082,
00AA0018,
00160071,
00740037,
009800BA,
0007005E,
00240034,
00D60069,
00BB0018,
00900092,
001700D1,
001C00D8,
006A0007,
001B00C9,
00450071,
00320043,
006500BD,
00BC00B5,
00C300C0,
006E0028,
009C00B9,
00BE00E7,
000B00C7,
00EA00A1,
000700E2,
0073005D,
00D00079,
000300E9,
00450008,
0073006D,
007E00EA,
001A0033,
00EE0024,
00700068,
008C0030,
00A60012,
0006006E,
0070003A,
00320013,
00260069,
00A50055,
00A90089,
00160052,
001A0056,
0043006D,
007700E9,
00160077,
00230012,
00C2002C,
008300EA,
003B0088,
00720054,
00DB003B,
00D100A2,
00AB0005,
008500AB,
00540037,
006500A5,
004200A7,
00C10041,
00D50042,
009700E7,
00980002,
000A0041,
008C0032,
0014005E,
00650097,
000400E5,
00C800D7,
00830022,
003E007B,
00BC0021,
00350066,
003B00CD,
00DA00C6,
00B600A6,
00B8002E,
00520038,
00BD0083,
00C10079,
00300080,
007100E3,
008700A8,
00460048,
00C50037,
00AE006C,
00520010,
009E00B3,
00700070,
00AA0046,
00310073,
009300A2,
00CD0072,
00D6001D,
004400CC,
006600CB,
00D700A0,
00710088,
002A005D,
00B10043,
00BA00E9,
00BC003B,
000C00E9,
0097003D,
008200CA,
004800BE,
008A0070,
00DB0008,
00CC00EB,
0045000D,
001B00D3,
00B80073,
00D600DE,
00C20069,
00AD0092,
004D0060,
00520085,
007600DE,
00020061,
00120052,
00EA00D2,
005C00C1,
00DE00B9,
007800C5,
00DA005B,
00790065,
001E0045,
00CA00C6,
0071000E,
00930099,
003C0029,
002C0047,
00980013,
00A700B8,
00C200A4,
00230040,
00B100C7,
003A0011,
009300EC,
004D00DA,
00450042,
007B00B2,
0083000A,
00C9006E,
009000A3,
002A007B,
00930017,
00110087,
0015003B,
002C0088,
00680034,
004B00A8,
0034008D,
00D00097,
00CC0010,
00B0004A,
00C7004A,
00D8006B,
0004005D,
00450048,
00C50043,
00940031,
00C300D3,
00A70069,
00010049,
00140090,
0002002B,
004200C2,
003200B0,
009300A5,
00330082,
000200D8,
00A100D2,
003C000A,
002400AC,
00B900EC,
008200B9,
00D4006B,
00E60045,
003600E1,
005D005D,
0008000C,
00540097,
0075000E,
00EC003D,
004C0044,
008D00E7,
0003009C,
00390023,
00B50054,
00A20084,
00EE0017,
004D00D5,
00C90081,
002600E1,
00CD0044,
00860058,
00110021,
000B0013,
00AA00CE,
008E00E4,
00C1005C,
007900B2,
006E0038,
00070060,
0054001C,
000300BC,
00570017,
00510029,
003000C4,
005E00E7,
008B000D,
00160056,
00170000,
00B20085,
002B0078,
00E30045,
007E0069,
00AA006B,
00C800E3,
005000A8,
00BB0025,
004B0035,
00DC00C0,
006E0043,
00D20081,
00E9008B,
00440027,
004E0032,
003D004A,
00130094,
00C300D8,
008C00CA,
00C400D4,
007500A3,
007100B1,
00650009,
00C300C3,
004D00C0,
00D700D4,
001800AE,
00C900D9,
001200EC,
00840001,
003C00A8,
00A5001E,
000E009D,
008800C1,
00830080,
006B0011,
00A400B2,
00600070,
0008007A,
0060000B,
00680052,
00D2003C,
00690048,
00A10043,
002200DE,
00AA00D9,
0060001A,
006700E2,
00B2000C,
00CE00EB,
003A00B6,
003E000A,
00E80042,
00760036,
003E0054,
0018007B,
00AB0007,
00490081,
00100075,
00610070,
0049007A,
00DB007B,
001E0028,
0023006A,
00A80008,
00D400D5,
003800D8,
000A0012,
0098007C,
0058007A,
003200D8,
00550047,
001A0047,
00250072,
004D00EA,
00D700A7,
0025006B,
00E90010,
008D00C1,
0034007C,
005100A7,
00CA0023,
00130055,
00A60008,
00000020,
00430086,
00980010,
00B000A9,
001500AC,
00220007,
006400B9,
009600CD,
002200A0,
00D90042,
00B90041,
00350088,
00580003,
008400A1,
003D00B6,
00080025,
00700048,
00C30039,
00ED00D6,
000C0040,
00150090,
008A00AC,
004700EC,
001800C1,
002800E1,
0038001B,
000E00B3,
00490001,
00A80091,
00AA0080,
0066009A,
007700CC,
005900B6,
009D007C,
00A20077,
005400C6,
005B0038,
008300DA,
00C0000C,
00830076,
00B500C3,
0084000D,
00040037,
006B0080,
002D0045,
0015004B,
002500E7,
0026001B,
003200EA,
0003002C,
00020002,
00ED00C3,
00C300CD,
0022009A,
0029000C,
00450068,
00C300D2,
004E000A,
00140043,
005D0081,
004900C4,
001A001A,
00DB00A7,
00CE0089,
004E00B9,
00EB0038,
005C0030,
00E500AE,
00A90083,
006200D2,
00C50062,
00200005,
002C006E,
0051000B,
00A200B6,
003C0016,
00BD0080,
00E900D8,
0086008C,
00750037,
00C9005B,
00DB00A4,
00060070,
0072004C,
00A200DB,
004D00C4,
000000B7,
0065004E,
00D7005D,
0094009D,
00370082,
000000CA,
004C009A,
008C0089,
00D60008,
00E90028,
00DE00EB,
004B0064,
00120038,
00A800E0,
001800A8,
001C001D,
006A0079,
00B3004B,
00A600C7,
001700D1,
004E0069,
00990011,
006E00C4,
008600E0,
00A5009A,
00E00069,
003B00D2,
009500C4,
002D00DC,
00CA0057,
003800C9,
009100D9,
0090003A,
00C100E3,
008000CB,
000E0064,
00A60052,
00CA00A4,
005500E6,
00210096,
0088001E,
00490013,
00A200C7,
00DB007E,
007B00D9,
004600A3,
00B3002D,
0068001B,
00870044,
004E0081,
00B0001C,
0070009D,
00900009,
00EC00A5,
00D50006,
00490078,
0071008A,
00E5008E,
00460041,
00AC0037,
00B10067,
002B009D,
006700DE,
003E004B,
007200AD,
002B0018,
00CD003C,
008E00A5,
003B006E,
0094000E,
001B0003,
00C80055,
003700C6,
007300E9,
00A100B1,
00C60071,
00B400DC,
004D00D5,
002E000E,
002E0063,
005A0006,
00210084,
008800E2,
00D500C6,
00C500B7,
002D0095,
00CE007A,
00DB007C,
001A000A,
00560022,
004C0000,
000300DC,
00CC0044,
002A00A6,
00A70063,
00E60068,
00D900AC,
00770063,
005C0086,
00C70035,
00BE00E9,
00CC00BE,
00510013,
001500D3,
00CE001B,
00750035,
00DC00CD,
00AE008C,
007A004B,
003C00B3,
002D0035,
00A200BB,
006E007A,
006B00C1,
009400EC,
00D6004C,
00560015,
001D00B1,
00B80021,
00C300CB,
00180094,
000600B8,
001D0096,
00E800D2,
0020001D,
006B0077,
00150015,
004500E5,
007A0058,
007400C2,
00070071,
00DA0031,
000800E4,
005E0005,
001D0021,
00B100E7,
00670004,
00E1004D,
00DB0025,
00D200A8,
001600C9,
00410046,
000300D3,
0068000D,
000E0072,
003100E9,
00390044,
00C90010,
00720048,
007C0033,
00880010,
00610054,
004000A1,
00B10082,
00740075,
00A500BB,
005700AE,
00BE0085,
00330071,
001D0050,
007D0076,
00720041,
00CB0028,
00550001,
00030007,
00360091,
0086000D,
00240001,
009A00EE,
00E9008A,
00A40033,
00900077,
006500C7,
00EE0090,
00AC00D4,
00760052,
00CD0087,
002500C2,
00670042,
006100CE,
000B0084,
0000004E,
00B500AB,
00A30017,
00DB00E0,
00550002,
004A0015,
00D70054,
0024009D,
00B50033,
00340011,
005E00AA,
005E0058,
00B8008D,
002900C2,
00530092,
00DB000C,
00630023,
0097003A,
009100E7,
00010018,
00E00077,
002700BC,
009900BC,
00710008,
005300E1,
00820095,
006700D0,
00DD003D,
002100C0,
0010006A,
00A10024,
00DE008E,
00D10099,
00C10047,
00BC00E4,
00CD0096,
002800A9,
00830028,
003D00D1,
00D9003A,
00BB00AE,
00DB0001,
00ED009D,
003A0024,
002600C2,
00C2003B,
00D50041,
00900090,
008800B0,
00280008,
00740082,
00830098,
00DA0032,
000000A6,
008B0013,
00E60009,
00DC00B6,
00230096,
00CC0066,
008600DE,
00640014,
00ED00DD,
007A0091,
00D4008A,
00EC002B,
009B003B,
005300D8,
00E1002B,
00AE0017,
001D00DB,
0035006A,
00240075,
00300070,
0045005D,
006300B4,
00BD001B,
001A0004,
004900B7,
00EA00B8,
0036001D,
0029000C,
0031002B,
00D3002C,
005400C1,
00DB0090,
004400E5,
00CA0085,
00530053,
00AD00B9,
001500B4,
004A000C,
00AE00D4,
00E100AB,
0082002A,
00380083,
0007000B,
009400BC,
0077000A,
00C40099,
00E00094,
00DE0042,
00D50034,
001E00A0,
008E000E,
009D00C6,
006900D0,
003B0054,
00550018,
000A0056,
005A0085,
007200E6,
009D002D,
00C6008E,
00CC00B6,
00B00074,
00B40059,
008A0042,
00790030,
005B0051,
006A0017,
006000B6,
007600AB,
005900E8,
001A00EE,
00C60004,
006D0007,
00750095,
007A00DD,
00CA00CD,
003A0022,
0011005D,
009100D4,
007500EA,
00BB0052,
00A600CA,
00C20077,
005B0040,
00110082,
00CA00E2,
00CB0054,
00D80059,
00A800BB,
00C200B8,
00D400E1,
0032001E,
003A0001,
00BC00E6,
00D30005,
003400D9,
00680022,
008E00B4,
00580085,
0059001A,
0031007C,
00550093,
000B00D1,
0071009C,
00C7000E,
00C10005,
002A00EA,
007B00E2,
00230067,
00290098,
006500AA,
00150006,
001A0070,
0000007E,
00140070,
008E0087,
00EE00C1,
0029002D,
00900091,
004900B1,
00D10061,
0023000B,
00C5002C,
0039004D,
00D300D4,
00D400D5,
000D0073,
00E8009D,
00A900B2,
0003002C,
0010007D,
00B70033,
00980068,
00B600A8,
006D0066,
00A900C5,
00690091,
007100B6,
00B80079,
009A0039,
007B0093,
002B00D4,
008600BA,
00BC00C2,
008E00E4,
009700B7,
000E0040,
00050001,
00A100AC,
006B0022,
00600076,
0087005C,
00230022,
0053006A,
00CA0095,
007800DC,
00930003,
002B002C,
008100ED,
00160025,
00340097,
008300D0,
00930027,
00C8002C,
0060001C,
00270085,
0052006C,
00000085,
00EC00E5,
00EC00E6,
00960068,
00A30032,
00C4003D,
00210026,
00DC00AE,
00B500C9,
0044001C,
00D0009B,
001D0026,
008C0079,
00BD0049,
00680007,
00AA008C,
0034007E,
00670025,
00A5005D,
000800E3,
006C0023,
00A400B1,
002500D9,
007D0097,
0045006B,
00120048,
00940088,
00430071,
005C0013,
007B0092,
00860040,
00400041,
00110061,
009200B8,
00430036,
004E0043,
00D90025,
00EE006E,
00070052,
00D100B9,
007E0046,
00860057,
009400A1,
00100061,
00D400EC,
007A0079,
008B00C1,
003300A0,
00E80023,
00E800E9,
00390048,
005B00C8,
00BB00B3,
005A00E4,
0041005B,
0093002C,
00050039,
00A600D0,
001100AA,
0062008A,
008E003A,
00890004,
00990099,
00260083,
0082007A,
002D00EB,
00930083,
00220058,
008700E9,
00DB0022,
00BE00DE,
00EC001B,
00AA0084,
001E0034,
002A00D6,
006A00A2,
0009007D,
0002000E,
00DE002B,
00C1006C,
003500E1,
009B004D,
00C90009,
00A40061,
00730048,
00D0001C,
00DE0047,
00CD0061,
008D009C,
000700B7,
00B10007,
0024004A,
000D00D7,
0078008A,
00E600DC,
00D400B8,
003C0086,
00660064,
00AC0078,
00AB00D1,
00330072,
007B00CE,
00C900AE,
00C6008E,
000800C5,
00BC007A,
00220009,
00670088,
00EC00C8,
008E0084,
007500D4,
00620023,
0041003B,
00E80002,
00AA00C9,
00580001,
00C700BC,
00790059,
0041004E,
00900082,
00C9004C,
00BD00ED,
00450000,
00B00063,
00840031,
000C00D1,
008C00B8,
00CD0082,
00C1007E,
0064007D,
006C007C,
0037005E,
00E800DE,
00A40077,
005A0094,
009E001B,
005900EA,
00C400BE,
006100D0,
000000D7,
00B50087,
008E0074,
0059005B,
00650019,
0012001A,
003C0010,
004C0083,
00B8009B,
004E00C2,
00E30070,
000600A4,
004000E2,
0087005D,
009A0054,
00ED000B,
000300D9,
0094004A,
00160093,
009D004E,
00330037,
00BD0074,
00DE00D3,
0018002D,
00E800BC,
008B000C,
009500B0,
00DE0067,
00E600A5,
00D20061,
00230068,
00D400D2,
008D009D,
00450049,
00530073,
00D700AB,
00500042,
003A00D9,
0054009C,
00D60011,
007B00A2,
006B00C2,
0078006E,
008C0047,
00B000B0,
008100A9,
00620033,
006C00A0,
0086008A,
00AE0068,
00EA004E,
009B0016,
00A90098,
00A800D5,
0057001B,
00230086,
009D0068,
00340058,
00E000A4,
00C50037,
00890088,
00EB00BC,
006A009D,
00C200C5,
003500C3,
00350015,
00830075,
005200ED,
006D0085,
00490084,
00370008,
005A00E0,
003400D0,
00280068,
00E70076,
00000019,
00880084,
00370083,
00DA0095,
007A00EE,
00260082,
001000D8,
0058005C,
0083005E,
00B500AA,
007700B6,
00D2008A,
008A0040,
008000B0,
001800B8,
005D0072,
00D8003A,
00D90053,
00310048,
00930024,
004100AC,
00C20049,
00B60068,
00710022,
00A20018,
007D00B0,
00E200AA,
00270067,
00680032,
00C300EE,
002E0005,
002100A7,
00580034,
0036000D,
00030054,
00BE0096,
007C0095,
00C90018,
00E4005B,
00B00042,
00AE0034,
00030005,
00190035,
004200D6,
006C0081,
009E007C,
00110019,
00AA0098,
00DB00E7,
00ED0096,
00360035,
00E900C3,
007B0003,
00D00067,
00E70056,
00AB000A,
002B0037,
00350079,
00DA00BC,
005D002C,
004800BA,
004200EA,
00AC003D,
004300DC,
00430053,
00BE00BB,
00230056,
00080087,
00890038,
00670006,
00E4004D,
00160089,
007900D7,
00A900D0,
00EC0032,
006C002D,
00240025,
003B002D,
00E1003E,
00900039,
00120098,
00B40032,
003D0024,
00090050,
00310087,
00910061,
00590043,
007200B4,
009D0091,
009B00B6,
00C60081,
00AE004D,
00BD00A0,
00A60064,
00060046,
00290091,
0081004B,
000C00C6,
009E002E,
00CA00C3,
00A600BA,
0060005B,
00B800CA,
006300BA,
000C0011,
00C9002D,
006E0069,
000E00AC,
000500EA,
00B500A4,
0009007B,
00800009,
00700069,
00930060,
00950056,
00D40001,
004E0032,
008400D3,
00EA0066,
006B00B2,
00C700C2,
000500AA,
003E00A8,
00B40031,
00AC0053,
006500B6,
008000B0,
0057003C,
00930049,
002E00A3,
00BC0084,
008500D0,
005B0085,
00420078,
003D00DB,
008D007C,
001400C8,
006500C5,
005D003E,
00990045,
00E10044,
0065006E,
0026008D,
00650002,
00CC00C5,
005E00E9,
00CC0014,
009C00B5,
006600CA,
00CA00B2,
00E700E4,
0023002A,
00C60014,
00B7006B,
00C000ED,
00560073,
00CB0072,
000200A2,
00C2005B,
00D0008A,
00760034,
00C30008,
0065008A,
003B0069,
002900C4,
007A00C9,
00C3001D,
00B90041,
0061001B,
00D1003A,
00050066,
00D00013,
00E500B9,
00A800B7,
002300D8,
00B70058,
004500DA,
00C90053,
0021002D,
00DD004A,
00390010,
000C00C2,
00AB00BD,
007C0048,
0052006E,
002C002A,
003B00DB,
007200E3,
006A0086,
008E0074,
001D0052,
006A008E,
00E80015,
008600A8,
003A0027,
005B00C7,
000000B0,
00E800D2,
00070028,
00C0000B,
006C00CA,
0063009B,
002A00D3,
003A0021,
00540059,
00100072,
008E00BC,
00AA00D3,
001D00DB,
00B90070,
00EA00DC,
00DD0014,
00700021,
0033008D,
00830082,
0036006E,
003D0031,
0067003A,
00DC006D,
00E1004B,
00B20092,
005C006A,
00DA0024,
00310066,
004000EB,
00A200C1,
0097006D,
00620081,
006B0047,
00BD002B,
00E0003D,
00C80019,
0043007A,
003800A2,
00140069,
005B00A4,
0084004B,
00BA0074,
001B0022,
00670073,
00B5000B,
00DE005A,
0064003E,
0007006E,
00E300C9,
00AC00A5,
00550092,
003E0056,
003400CA,
005300A0,
00DD00C5,
0083006B,
005B007A,
001C00B4,
00080046,
006C0030,
00200069,
006100D5,
000800C7,
002700CA,
00AB0038,
006B0057,
00DB0032,
00970085,
00C50068,
006B0080,
00860009,
004200D9,
00C20036,
00170067,
00E2001A,
00070070,
008100E0,
005A005C,
00280052,
004B0064,
00780012,
002100E1,
00A1008C,
00B000D4,
007E0092,
00AC0043,
004C008C,
002400CD,
0069007D,
001200B9,
004700C2,
00A10068,
004600E8,
00B80029,
003B00D0,
00330099,
00C40062,
004100C1,
0064009B,
00A600C2,
00D50066,
009A00A9,
002E00A8,
0013007E,
002E00EA,
001A0098,
00120019,
002300DE,
002C00DE,
00BD004A,
00E70089,
00AD0080,
008C00AE,
004D0009,
000D0062,
00BB00A5,
001400CB,
00D400DA,
00370039,
00620053,
000E00D5,
00140082,
00CD0089,
0058004E,
004800CB,
00020013,
0052002C,
00C00028,
008A0034,
00C10077,
009800BE,
00B800C9,
00970046,
002200C9,
00C4007C,
00B30075,
006D00B0,
00430055,
002200A8,
00570091,
00330048,
004800E2,
002300E9,
004500BE,
003E0025,
00EB003D,
005A00AA,
00830050,
00A800AE,
00350068,
0008008A,
004E0061,
00800094,
000200B2,
0081007C,
00A4004A,
00200048,
009C00BB,
00030046,
006D0030,
00910027,
00ED0088,
00A3008A,
007B000C,
0004001C,
00000011,
00E3005A,
00BB00EB,
00930077,
006C0017,
003D0054,
00BB0028,
00400044,
0041004C,
00E8009A,
00990086,
0008007A,
007D0064,
003500E4,
005A0061,
00740057,
009600BB,
00220043,
009A0019,
00EA0046,
00730084,
00460090,
00C50076,
0079002D,
00A5001B,
006E0098,
007600D2,
00CC0063,
00DB00DA,
00830025,
00C00076,
006C001D,
00590053,
00460070,
00D400E9,
00C400D5,
005C0031,
00B30011,
002D002D,
00AE00CD,
003D0086,
00460064,
0037008E,
00440002,
00A000BA,
00790065,
008A00AB,
004400C9,
00C600EE,
00ED00D9,
002200EC,
00B4003C,
004A0095,
00720044,
00430086,
00CB004E,
0028005A,
00A7005D,
008B00E1,
004D0087,
00B300C8,
00690040,
007A0001,
00DB00CD,
00D9002A,
009B0072,
00510052,
00E30026,
00D80071,
00920060,
00A40033,
005B006A,
000D00D5,
001C004A,
00370023,
00E100E3,
00EA00D1,
003200AB,
003C003B,
00390097,
0044004B,
00D0006A,
00C300C4,
009C005C,
00830083,
004E0073,
009400B6,
0029001D,
000B006C,
00AE00E7,
008200CB,
00100035,
00130008,
00A20060,
0015005A,
003E0066,
005D0039,
0072006E,
001C0083,
00D5004B,
00AB00A3,
0046006E,
00CE0031,
00DD00CE,
00B8008B,
00100061,
00800044,
003D0001,
00CE00E3,
00270097,
001D00CB,
00930054,
00730034,
00AB008C,
00D7000D,
00A00078,
0007006C,
00BA00D2,
00D90059,
00920081,
003E0018,
007400A6,
00AD00EA,
007B002C,
000300A9,
00660007,
00000065,
006400DE,
00630090,
005400B1,
003E00EE,
00B900AC,
005200DD,
00310064,
00A40081,
00720006,
007A0030,
007B0055,
00B4006A,
00EA00D4,
00470094,
00CA0046,
00A90019,
0045005C,
0097003C,
00C600DD,
00C50006,
003D00A5,
0021003E,
00690062,
0012009C,
0031000D,
00B600A4,
00700092,
00B0009C,
00C00077,
006C004C,
0030006D,
009E0075,
009800A0,
00E7004D,
00B200B3,
00E70002,
000A00EE,
00E60074,
006600B9,
004900E0,
000700E5,
00430041,
009800E0,
00A300B5,
0077008C,
00E2005C,
007B002B,
006E0074,
0073009D,
0056000B,
005E00C2,
00B000EC,
00BD00C7,
00EB0056,
003E001E,
00290044,
00D9009B,
001A0090,
009600ED,
006700AE,
007100CB,
001B00E7,
00520040,
00AA0093,
00EC005B,
0049007E,
00020032,
009C00A4,
000500D7,
00C20094,
006C00A1,
000C0003,
00CC0095,
002C00B6,
004A0001,
0060001E,
009C00C6,
008C00A5,
00C2001D,
00C300DC,
00350028,
00DD0042,
007300DE,
00040023,
0032009A,
00D20046,
005700D3,
00B5005D,
00410081,
002500E6,
00AA008E,
00080078,
0045001A,
002800C2,
00670093,
00E10073,
00E10005,
0088002E,
00C6007A,
00360059,
00950061,
001900E6,
00550017,
009600C5,
00AD00D6,
0025002C,
00AD00D6,
00920086,
00460081,
00A500E0,
00DA00CA,
005E00D2,
00A00071,
002200A8,
00310096,
003D001C,
0078007D,
00E90044,
007A00A7,
006E007D,
008300D9,
006A00AD,
008500EC,
008C0039,
00A50049,
00AD001A,
007800A1,
0076004B,
0087005D,
00AA004C,
006A0034,
00AD00AB,
003A0081,
00AD00D8,
00610062,
00970020,
00AE00E3,
00B800D6,
00210086,
0064002D,
00E20060,
00D70028,
00A400EE,
00E60030,
000C00BD,
00440003,
00400083,
00B80088,
006E008C,
00A00069,
0050009D,
00DD00B5,
00CA008D,
009E00D1,
009C0065,
005A0031,
00270056,
00AB009C,
003D00C5,
006500E6,
00EE0088,
00C400B7,
005B00AC,
0065001A,
00100098,
002B0067,
00300038,
001C0077,
00870081,
005D00B2,
00CA000D,
001A006B,
009E00CA,
00D8005E,
00D70020,
00870063,
00A90025,
0092008E,
00EC0065,
000600AC,
00950098,
00340002,
00600047,
00D900C0,
005E00EB,
00630065,
00170056,
0080000D,
009E0091,
00940010,
00BD00CC,
00640091,
001E00E2,
00E60046,
00A800A1,
002E00E3,
00E3004D,
00A60053,
0082008B,
00C300E8,
002E0019,
003000EE,
00B50089,
00E400D0,
003E000B,
0086006A,
00400046,
007100D7,
0027002C,
00E30037,
00A400AC,
003800D9,
007A00DA,
004A00EC,
003A00D2,
00390029,
00A80006,
00AB00A2,
000C0027,
00100024,
00B10061,
004200B9,
00A900CE,
00610023,
000C0067,
00A60093,
00290002,
004B004B,
00E10045,
00920096,
00E20084,
00560042,
009900E1,
001000C4,
002B007B,
00CC00E2,
003C0076,
00810037,
00E20036,
005B0082,
00600037,
007E00D0,
00A500E2,
00480023,
003500A9,
00330093,
00EA0096,
00830047,
008900ED,
00660011,
00BB0046,
00A500E5,
00150029,
00430016,
008E00C6,
00DE0053,
00D60099,
004300BD,
00AE008A,
007600D1,
005E006A,
000100BD,
002600CC,
006900D8,
007400AA,
000500D2,
00EE00B7,
00010040,
00780075,
00E90040,
00E70047,
004A0028,
007D005D,
001400A2,
006A0096,
00560025,
004700D0,
006E0005,
0052000B,
00E900B7,
006300B8,
005B0090,
002B0017,
0042003C,
004900E3,
005E00CA,
00D500C9,
004300C8,
008B00E8,
00AE0055,
006600EE,
000C0058,
009E0018,
006A00A6,
00B900E7,
007A0075,
00DC0018,
0095001A,
0065009B,
00AD0050,
002A0081,
0013005D,
0042000C,
00B70010,
00E6007A,
00C70076,
008A006D,
005E0062,
00EE0045,
0072004E,
00C100B9,
00DA0028,
006D00C0,
000B0072,
00100089,
006C0000,
000B0019,
00010028,
00020018,
0013007D,
00D700EB,
004100BA,
0097005C,
0066004C,
005900A9,
003D0068,
004100D0,
00A1000C,
00DC002B,
00E0004B,
000000BD,
00520088,
00E80038,
0095009A,
0057008E,
000700E4,
00200006,
004900E6,
00C000BC,
00C80090,
004900DE,
00C7002D,
007C0029,
0078002C,
00960003,
00E1008A,
006400A2,
00CD007A,
003A00D6,
00940013,
00000039,
002E00C4,
004300E5,
00EB000A,
0042001B,
00950017,
00C5001C,
0011007A,
00CB0073,
00B600C8,
00CC0007,
00B000B7,
00E40092,
00AA0017,
003C009A,
00A100C2,
00C20094,
002A0019,
00E90055,
00940062,
00320053,
009D009D,
00220007,
005300AE,
00C8001C,
003500D0,
001C0025,
004400A8,
001200A6,
00A300B6,
000E0000,
00B900B4,
00D00079,
00750046,
005500C3,
009A0053,
007C00CC,
0051002D,
009E00B3,
00760038,
00210092,
0006009C,
00E6005A,
00710089,
00650034,
00CD0039,
00510007,
005B00B8,
00B600AD,
00140058,
007A00D5,
00E00074,
00530005,
00B0007B,
00BD0025,
00840013,
008900D2,
00060098,
0024001D,
00530091,
00D0007A,
00D500A8,
00020052,
00D80018,
009C00BA,
001A00C7,
00A10007,
00620044,
008600D9,
001D00B6,
00A40078,
00370022,
00650059,
003B0094,
00C30092,
006A00AC,
00820066,
005E0006,
002400A4,
00B100C7,
00A20073,
00950094,
005B00B5,
008800C0,
001A0095,
00530059,
00DB00E1,
003800CD,
006B0064,
00500094,
00DC001D,
007200BA,
00910065,
008800E9,
005800E4,
005900D6,
00AB0018,
001400BB,
002000D7,
00B00050,
00950037,
00B4008C,
00E100D2,
004E0073,
005400CA,
006D00B0,
003C0069,
00AC00B6,
009200EC,
00A500CA,
009400BE,
00D40012,
003400DB,
00240012,
00AC00E9,
006100DA,
00E2009B,
00070003,
008600EE,
000D002B,
00C5008C,
009E0059,
008400E9,
002C0081,
000100A2,
0073005B,
00330031,
00830059,
00ED0078,
008C0054,
00B60005,
007000D1,
008A0063,
009500A7,
0094008A,
0090001E,
009C003E,
00210035,
006500D8,
003E004A,
004C006E,
00C500DB,
00D10064,
00D200D3,
004D0035,
006800A2,
005C00DA,
0037005C,
00180000,
006100B1,
004000B4,
002A004C,
002200EC,
00450025,
00730084,
00DC00AB,
007C0002,
009A00A0,
00D200BE,
0063001B,
0075006D,
006400EA,
0065009B,
005500C0,
00050068,
000B0004,
009B0040,
00AD00D4,
005900C2,
003100A3,
005700D4,
007000D1,
005A00E1,
00B700A8,
008300CE,
004C002D,
006A0042,
00A50032,
00B500C0,
0068004B,
00AB00C6,
00BD00A8,
00610044,
00E30011,
005E00C8,
006A00C2,
003D0081,
00AD0015,
004A0055,
00690085,
00BB00BD,
00AA002B,
003700D7,
007C0023,
00D80066,
00EA001E,
009D00CD,
0003003A,
00A8008C,
00DD002D,
00E500D3,
0081007A,
00100064,
006900DB,
00A30021,
00C900E8,
00A80050,
0087007E,
00A8000C,
00A5005B,
00530082,
001C0076,
00180096,
000E00B4,
009D00C1,
003200A6,
00B600C1,
005700A1,
00C500DD,
004D0067,
004100E9,
00A400AD,
004300CA,
00A80065,
006C00AA,
004900B6,
0082003C,
004A0061,
00980083,
00220011,
00ED0046,
003000A4,
00A70090,
00A10039,
001600A9,
005D005D,
00730000,
00160025,
0051009B,
00050017,
000E0014,
003300E2,
005B005E,
001700AE,
00EA00CD,
00570007,
00D600A9,
003600C4,
00B500C5,
00370023,
000E0098,
007A0068,
00280080,
007400CE,
00440095,
004200A0,
003400AA,
00DB0079,
008600DA,
00000051,
00820001,
00C200E7,
006100EB,
00BC00C2,
00A000A8,
00A200E6,
00A10016,
00950065,
008900A1,
00BC0014,
00590079,
0042005B,
003400DC,
007400D2,
0088000B,
00540065,
001C00E7,
0075002E,
009600D6,
00780094,
004E0093,
00ED0015,
00D900D9,
00040016,
005A0048,
00A0009C,
00C800CE,
000900C2,
0009003D,
00E700A5,
00250004,
002500D9,
00A10094,
0007006A,
00ED003C,
00B50090,
009300E7,
001100BD,
009C0063,
00A80024,
00090050,
00120076,
00E80071,
00920051,
0079009B,
009A00C2,
0096007C,
0001000A,
0073001D,
007A0045,
0010000D,
00AC0032,
00750077,
00B200D7,
00A80014,
00A60015,
00600032,
001600D2,
00580040,
004700BC,
00CC00D6,
007B00CB,
004800AE,
00100078,
004600B4,
00190006,
002A0036,
0024007E,
00A200EE,
0054009B,
000000C5,
007C00BE,
00600074,
000100D2,
00D400D0,
00650005,
000E00D9,
006A0057,
00190067,
00470074,
003800BB,
00C600D2,
00990012,
0060006A,
00850003,
000100B3,
002400B1,
00240012,
003B0084,
009C0038,
009200BD,
007A00AD,
00CE007C,
00CE0066,
007E00BE,
004000D6,
00020077,
00BD001A,
0023005E,
00440043,
009C00A2,
00AC0014,
000C00C4,
00940000,
003A0068,
00A2009C,
00900006,
007E004D,
007D0053,
00D90036,
00C800EA,
007900B6,
0068004D,
0084009E,
00C1009C,
00DA009E,
008E00A5,
00D700A0,
00710078,
00560081,
00370088,
00A5004D,
000C0088,
009500AE,
002C0075,
00EC008B,
0054002D,
0002007C,
00950011,
004B005A,
009A002B,
00A2003A,
000E0007,
0004008D,
00C50013,
00DD0025,
006600D7,
00320070,
001A006B,
00DC0041,
00770083,
00770014,
00E200E0,
0090009B,
0055007D,
00E20001,
00700089,
00E00033,
005D0089,
0086009E,
00C500DC,
00A50046,
009B00BA,
00CD0061,
009E00E8,
00080097,
0059002C,
006400E7,
006C00BD,
00060039,
001C0030,
00A90044,
008B00A9,
003B0080,
001B0093,
000A0095,
000500BC,
00ED004E,
007B00DE,
00E00053,
008B003E,
008500E3,
000000B4,
005C005A,
007D0083,
005C00AC,
003E00B2,
00430059,
008C002B,
007300CB,
00830012,
00160049,
00330092,
0006004D,
00220006,
001800E0,
00390039,
006E0044,
008C00D1,
002E0014,
002A00BD,
00EE00DD,
00220014,
007A0037,
00ED00DA,
008300C2,
00520033,
000900A7,
006E00E4,
001B00BC,
00C80052,
005D005B,
00000078,
00990032,
000D007D,
00EE006B,
00DC00E0,
008400AB,
00550054,
004C00BA,
001E0090,
007B000B,
006B00C8,
007800A6,
00B000CB,
00E6008B,
00950099,
0017005A,
004E0039,
00530031,
006D0097,
00BE0008,
003900C1,
00070098,
00A9000B,
0001009A,
00BB0082,
001200C7,
000900B1,
00660033,
00EA00D9,
00600044,
00C80002,
00D80089,
00D000D9,
00E30061,
00160016,
002400E3,
0006001D,
004C001C,
00B50049,
00170012,
00A3009D,
007E0090,
009D00CE,
00B30099,
005A00A4,
006E00CC,
00EB0007,
00970067,
00010066,
00090098,
0008007C,
00A10067,
007B0040,
00510079,
00310044,
00B8001B,
003900ED,
007B00D2,
00980032,
0023008E,
008500AC,
00510035,
000700ED,
00A100E9,
008D0010,
008500C0,
000400A9,
001500E9,
006900E3,
0061002C,
0079009D,
00260040,
005C006D,
00AE004A,
00E400C5,
00C4003B,
0081003D,
004D0030,
00090033,
009200A5,
00790061,
001000A5,
00520051,
00CD0004,
0057005D,
002D00A2,
00AA0035,
00C70097,
00140055,
00300013,
0057000A,
00520006,
005600CA,
001E003C,
005D00C6,
000600A5,
009B00DD,
009900CC,
006E00CC,
00DD00AD,
000E0029,
00780037,
0044009D,
002100A6,
00CE00A8,
00DD007E,
00CC001D,
00C2009A,
00D70033,
00A80074,
00E10096,
007A0059,
00930054,
00C00013,
00D60031,
001B0074,
00850086,
00130016,
008300C9,
00930051,
00CA005B,
0013001D,
00620062,
0097001B,
005B00CB,
009300A8,
00E500BE,
00DB00D1,
00D50070,
003100A9,
004200B4,
002D0024,
000A003B,
008100C4,
00B500A9,
007100BC,
005E007E,
00490091,
0002007E,
008C00B2,
00BE0045,
007A00DD,
005A000C,
00C4004B,
006900EB,
00410009,
0058002B,
007C005E,
00210007,
00D50099,
00E2008C,
00BC00B1,
00400058,
001900EA,
003A0089,
00D80059,
00420076,
00D200E5,
003C00D9,
00B4003E,
0040000E,
002600A2,
00D000A9,
0027000D,
004500DE,
00EB00E3,
00AE00BC,
0070001B,
002B00B6,
00E2008A,
0069002E,
00C800C4,
00C4003B,
00810094,
00BB00A2,
00420037,
006B00C8,
00CD0090,
002E0042,
00EB009E,
0086000A,
00890067,
00B50060,
0019001B,
00600081,
00150019,
0091002E,
00C80070,
007900C7,
001500A5,
007E0046,
002800B4,
00640032,
00490061,
00B1001E,
00D00076,
001B00EC,
007C0092,
000E0072,
0030009C,
00EE0086,
007400B7,
008E00BA,
00A400A8,
005E0019,
005200D2,
006E008A,
004E00B9,
001300D0,
004D00E7,
00C4002E,
00B000B0,
00620016,
00240003,
002E000B,
00C20019,
00900045,
00E50097,
006C0076,
006500BB,
005B00E7,
00290049,
0095004A,
008800DA,
009500E9,
00D700AC,
005A0072,
003400D1,
00D2001D,
00A50016,
003E00E5,
007500C8,
00CA00C1,
005B0023,
00DB00D3,
00AC00EE,
00DD0099,
0012001B,
00120073,
0043006D,
0000008D,
00BE0034,
003200CC,
00330053,
001E001B,
00AD0028,
00340071,
007900B5,
008B0056,
004900C9,
00BD00EB,
008200D5,
00A00090,
007C0061,
007A0012,
0075000A,
005E0023,
00070022,
00590013,
00A300C2,
00D90045,
00150037,
00710024,
004600E6,
00660080,
002100AD,
00160095,
005000E8,
00E900E3,
00110029,
00A000D0,
00A600E3,
00820010,
001D0079,
001A0078,
003500AE,
00400014,
007A004D,
00470059,
003E0053,
00EC00E9,
00140002,
0072007D,
009D00C0,
000B0020,
00D30066,
008E00B8,
006B0081,
0075008B,
005A00E8,
007B0093,
0020000E,
00010041,
00A00063,
00360058,
001B0072,
00430002,
00C70017,
00BD00D0,
002C0093,
004A00AA,
009B00C4,
002900BB,
007300A1,
004B00BB,
00960026,
00B000BC,
00A40097,
00C30004,
00A40071,
008900D7,
00B700B8,
00D00070,
00450041,
00350098,
009800BC,
00350034,
0056004A,
00BB00E0,
006500C3,
0078007A,
00190030,
002B00B9,
007B0009,
003600B1,
00C30086,
007D00A0,
009A0060,
00B8005E,
009E00BE,
003E00EB,
003700A0,
007B00CB,
0043008D,
000000A7,
009500D1,
00C30036,
0008002C,
006700DD,
0054005D,
000100AC,
00D90016,
00E000C6,
0027006B,
00A3002B,
008D0018,
007D0086,
000D0015,
000E002B,
00CC004D,
00C00041,
00050005,
005A00DD,
008900E7,
00100082,
006B00A9,
001700D0,
0082009C,
00A000D9,
006B0094,
00D800C1,
00750003,
006D0000,
000E0050,
0028001E,
00920021,
00370059,
00DB00B9,
00B1004E,
000D005E,
00020066,
00AB00BC,
00B500E7,
00390013,
00E800DA,
003C00AB,
00510034,
005900AC,
000100BC,
00330050,
001500D1,
001B00E9,
00B500CC,
00E30050,
004E0031,
007400EC,
00ED00A7,
00CC00E7,
00840065,
001000AD,
00270022,
00D80098,
001200D2,
0010001B,
005800D3,
00A30069,
00870048,
00DD0060,
00150087,
0095009C,
00190018,
009400AA,
005C0049,
001400B2,
00A100ED,
002A00A4,
001200D9,
00EC003E,
00A600A0,
00760077,
00B90044,
00CC004E,
003500EA,
00A700D4,
0071004D,
003D0055,
00460000,
00680083,
000200E6,
00370096,
009E00D0,
0006003B,
0033004D,
00D30002,
00BD001C,
00930034,
00AD0077,
00E40024,
00DA0024,
00C10029,
0086001A,
00D50032,
002A0059,
000300A9,
00490097,
0033007A,
00290009,
00BB00D3,
00560029,
00710014,
001200D3,
005B00C4,
009C003E,
006B00B2,
004600E3,
00E100DD,
000B007A,
00E900D3,
00C8004D,
00EB0004,
00000050,
00E20074,
001000CB,
000700A5,
00920078,
007C007C,
000D0033,
0023007B,
000B00B1,
00D20005,
007D00B3,
009300EE,
00B40099,
004400C6,
0071001E,
000300A0,
00A10046,
0077005E,
00CB0068,
005B0076,
000200E9,
00730031,
00B400B7,
00E40016,
00EC002C,
002100C5,
00A600AB,
00E600C3,
0071003A,
004800A9,
00B300A6,
00EE0099,
004D0073,
001700A1,
00260021,
000400E6,
0023002E,
00420037,
00BC00D9,
00A300E5,
0037004E,
00520013,
00DE00EC,
007300B2,
00D40042,
00B800B0,
00190090,
00430037,
00570067,
005600D6,
005B0073,
00440096,
0026004B,
0017003A,
00980097,
00940054,
0030005E,
00A00096,
008500AC,
006A00A8,
00800068,
00ED00E1,
00720008,
002700C9,
00C20063,
000D005C,
00460087,
001A00E2,
008700E1,
007300A4,
000E00A2,
003E005B,
00D30071,
001500B1,
00D60057,
00490099,
000C0041,
002C0088,
00A50096,
00CA00AD,
008800E9,
00060001,
00AD00BC,
002A00E9,
00CA0044,
000E0058,
00DA0059,
00910032,
006A0027,
00460015,
00E90018,
001D00C8,
0028008B,
00E500A8,
004500C0,
007C007A,
009E0097,
00DC0075,
00EA0001,
00050067,
0011009E,
00080078,
003600EB,
00BE001B,
006E00ED,
00D70064,
00AC0025,
00DE00B3,
005D00B9,
00410070,
0033005D,
009B0005,
003E003E,
00850013,
00B000B4,
00BB001D,
008C00E7,
0073005D,
000D0061,
00710027,
00EB00E7,
008B00E1,
00290031,
00850040,
002D00E4,
002D0098,
00EB0097,
001900C8,
009600B2,
004B0068,
009900E9,
00120009,
00B3005C,
00D5009D,
00BA0081,
008C0022,
00C2004D,
001D00E5,
000A00C5,
00340000,
0069002E,
006D00CB,
00E1007E,
0005004B,
00AB0074,
004000B1,
009500B9,
007B00BE,
00990035,
00EC005A,
00070045,
006800DB,
00690002,
0088002A,
000E00AB,
005E0074,
009B00A1,
0089006D,
0062005D,
00990032,
009500D7,
00E400B5,
007A004D,
00C70054,
008300BC,
00E60097,
00D400B1,
00D3009B,
00C500D7,
0040004E,
00240082,
00D50020,
0001009D,
002E002D,
005100BE,
00700057,
009A0015,
008800C0,
00CB008E,
00CD00E3,
009A002D,
00AB0023,
00B300EA,
00690077,
00BD0045,
00E90030,
00210065,
00020012,
00A70087,
0082006C,
00650002,
009A009B,
002300C0,
005C00DC,
0012006E,
007500E9,
005100D5,
00BE005A,
00E30097,
0078006E,
00C000D9,
008D0068,
005700C6,
00AE00BC,
007A00E2,
007700AD,
006C00D1,
0042005B,
008900D2,
00110053,
004B008A,
003B0089,
0085004C,
002000BC,
002200EB,
00130031,
00AB0086,
002B0053,
001C001C,
0014000E,
004E00AB;
