memory_initialization_radix=16;
memory_initialization_vector=
000C00BE,
00A1009E,
0056003C,
006A009A,
002500CA,
00DD00D9,
00830059,
00C00078,
008900A7,
00B400B6,
001000C5,
0010002E,
00290083,
0034003E,
0049002B,
007400AD,
006E0013,
0059004B,
00A000B3,
007C00A9,
005E0052,
005300EB,
0081003E,
00470000,
00350065,
005500BB,
009800CA,
00630081,
006D00B0,
00EE008C,
008E0019,
00180073,
00C800D8,
00E700E9,
006900EA,
00240042,
00750047,
00C80018,
00010027,
002A00DD,
009200A8,
001200C4,
00100024,
00370011,
00310057,
009E00BE,
00A200C1,
00380078,
00CA006C,
0013005A,
0010005E,
000D0044,
002D0028,
00BE0050,
003D0067,
001600C0,
00160071,
002C0095,
00480017,
00DE00EA,
000000AA,
00A400B2,
008500A5,
007B0014,
0057003D,
004A007E,
00670005,
00E800B6,
0077005D,
00100077,
008B0025,
0000007E,
001800C3,
00E3004D,
00430004,
00EC00C5,
004400E1,
006700E7,
002C00E4,
0080002C,
0025005B,
00730018,
00C30084,
005A008C,
00920051,
008000CD,
00D90099,
00130044,
00680030,
00A900C8,
00AE00D4,
00B800E5,
000900E2,
00820085,
006B0004,
0030003D,
007200BB,
007D0000,
00340017,
00180058,
00AB00DA,
00E6000D,
00350093,
00680081,
00E50094,
001E0063,
0041008D,
002A00BA,
00E6009D,
006400C5,
001A00C6,
005300E5,
00560001,
009500B6,
00ED00DE,
003B00EA,
007B00E9,
00B600D9,
00A600BC,
00480021,
006A00A6,
0066001E,
00200058,
00590048,
00B8003C,
009300BB,
000D004D,
009A0007,
006C003A,
00D000CE,
00B80006,
00770047,
006000AA,
00190032,
009D00A8,
00810096,
00E10087,
00DC00C0,
00B20075,
005E00DB,
00150084,
008B00B1,
0055001A,
00410035,
00290097,
00AD00C1,
00CD00D7,
0096008E,
00010066,
00970003,
00160092,
007800E3,
0015006D,
008D00BA,
00EC00CA,
00340061,
00010082,
003800E1,
006C0077,
00A000A5,
00CC0044,
00830048,
005600D6,
001600B2,
002B0001,
005000D7,
0057002A,
00410040,
00A1000B,
00870081,
00710020,
00E900D9,
002B0043,
0097001D,
005E0004,
000000AA,
00C40036,
00E90085,
00150055,
00A900ED,
00160092,
00E20009,
000200E1,
00960075,
00D10067,
00B9009D,
00A70039,
00DD00E3,
001E0012,
003A00A9,
00B300D5,
003900C3,
00410097,
004C0073,
0052005B,
00020098,
001C00B7,
007B0037,
00CA00C6,
008200EC,
007400DB,
0051001E,
00AD00B2,
001600EE,
00E50002,
00610035,
00DD0052,
009600E1,
00AB0083,
009E00B7,
00D200D2,
0074000A,
00A5005D,
002B0018,
00C20087,
00A10089,
001E0053,
003000DD,
0021006A,
003B0089,
00EC00A0,
001100C4,
00DD0090,
002300BE,
00700045,
00110048,
00840011,
00DA000D,
00C40026,
00750048,
007A00B1,
00B200E3,
00040037,
00DE00A5,
003C00DB,
006A0062,
00C500D8,
00D00048,
002D0061,
00430013,
008D00D6,
00CC008A,
001D0006,
00B4000A,
0059001C,
00BA0060,
009800C6,
00B50021,
00060041,
00C90072,
00C2009E,
00DB00BE,
0060008E,
002700BB,
00BC004B,
00730019,
00DA0029,
00340033,
00A4003A,
00650087,
00D30086,
0063009C,
00030039,
001600E8,
002B00AE,
00560051,
002900AB,
00D700BD,
007D00A4,
00AE005D,
003D008B,
001E008A,
00E300B4,
00EC0018,
007B004E,
00080007,
00100085,
00D500B7,
007D00A0,
00DB0019,
0041002B,
00C500A4,
00D80022,
000600A5,
00BE0090,
00050020,
00CB0008,
005E0076,
00D7001E,
0052001E,
008000B7,
00D1001B,
00DB0065,
007300BC,
00330046,
007D003C,
00C600B6,
00430085,
00180031,
00610038,
00C20015,
0048004B,
008B0079,
00D5005C,
009C0020,
003300A0,
00490061,
005300AB,
00380068,
00190011,
006A0056,
00A8009E,
005400DA,
005C0095,
005300A7,
007700AC,
0035008B,
00390064,
008900A7,
002E0078,
007D0035,
006200BA,
0092007A,
00D80065,
007A00C1,
00E70057,
00AA00EB,
002C00C8,
0089006A,
00DB001E,
00CC0018,
005E00A2,
000D0005,
0073000C,
009C00CA,
002800AA,
00B200DE,
00CB0036,
00930018,
008E0090,
0083005B,
00D000C7,
00E80077,
00AC0076,
00DA0056,
009B0090,
00CE00D6,
0084002D,
009300B4,
00CA007D,
005900C0,
000200ED,
00700000,
009600D8,
009600E5,
00DE0074,
00DE0099,
00D7009E,
002A0024,
007800D4,
001000AB,
00A3007D,
00D800B7,
002C0055,
009B007A,
0091000B,
00130025,
002E0092,
00490018,
007800BE,
00120012,
00CB000C,
00AD00BD,
00C100CD,
005B00E8,
00B200DC,
008600B6,
001200A2,
003B00E1,
001600C7,
000100B3,
00DC00A0,
00EE008D,
000E00EA,
00450071,
00940007,
003A000C,
00E50041,
00480096,
009200E3,
006900D1,
00B40062,
00A00072,
00C100B9,
005400D3,
0090004C,
009C0087,
000400B6,
00AA0013,
009E0072,
001B006A,
00970010,
00590066,
00D9005E,
006800B1,
00020010,
005800C9,
00BC0015,
00AE00B1,
00A60053,
00260057,
009200B9,
0037005A,
006E004E,
00BA001A,
0007003E,
00030039,
003E0075,
0043004A,
007C005A,
006B00D8,
00CA0094,
003300ED,
008D00A2,
006200AA,
00620014,
008C004D,
0091005B,
00670006,
00990012,
00970024,
00290065,
00DB00E1,
00600099,
00BB0046,
0095005A,
000200D4,
00480070,
00B20018,
009600ED,
00AD006E,
00C30033,
00650084,
006A007A,
00180001,
009D006B,
0006001C,
005C0031,
0057000D,
00DD003C,
00C6006B,
002A0049,
00120077,
002A009C,
00C60083,
000C0075,
000D0003,
002B00BB,
00BE00EE,
001700D6,
009A002C,
00BC00AD,
008E0037,
003500E6,
00C60094,
003C00DB,
00500047,
00B300B9,
009C0081,
009A0011,
005C003C,
00410093,
0005009E,
00C2005A,
00D400BE,
00ED0049,
00B90070,
007300D8,
00D90093,
00330086,
009E00BB,
0027008C,
007300C6,
006E001E,
006C00C7,
008400EE,
004000E4,
007000CE,
003B0010,
005E006E,
007D009A,
00170010,
00E200BC,
004E0081,
0086007D,
007100BB,
00530066,
000D0031,
000E00D0,
006500E8,
009E00AC,
009A0075,
0034001A,
00300021,
00C800C8,
00060080,
00D4001B,
000B0025,
008A00B8,
0067003B,
00B50068,
002200AB,
00980005,
004B003C,
00170092,
006D009E,
00680018,
00D700D1,
00CE0017,
004C0090,
007500A6,
00A40052,
00960083,
009600A5,
00B70049,
00B100C3,
0060003D,
00300076,
005E0091,
00B80076,
005A0023,
00CC006D,
009B00D5,
00C00095,
00A90030,
00C90042,
008C0096,
0041002E,
00150068,
00990095,
00240058,
001E00E5,
0089008C,
00120067,
000C002A,
00390020,
00CE009A,
004300C5,
00310064,
009C006E,
00340009,
002C00B1,
000E00C5,
0031005E,
00490001,
007B008D,
0056009D,
007300C8,
00C40032,
00DA006D,
00D00050,
00980001,
009500E7,
0077005B,
00660083,
004100C4,
0045008B,
005A0013,
001900BA,
001B0002,
0070001B,
00560062,
000800C3,
004C0080,
009C0025,
0028006B,
002900DE,
00D70029,
004700E6,
00430025,
007900D1,
00EC00BE,
00DC0023,
00060053,
003100CD,
009600A2,
00EE00B0,
00810007,
001D0047,
00920063,
00AA00D3,
004C00D5,
00490037,
001300E9,
00020070,
002300C9,
0046004D,
006400E3,
00E80041,
00800084,
00A20065,
001700B9,
00650086,
00BD00A1,
00D40016,
002E00D5,
00D50097,
009C0047,
009B0006,
003E0022,
00060004,
001C00C3,
008D004C,
00330098,
00A80013,
00C7006B,
00710089,
008E0028,
0050002A,
0030000D,
00EA003D,
009900E9,
001A00A1,
00E40066,
0078002E,
0063005E,
00C500EC,
00CC0096,
004400A4,
002C0027,
009200C4,
005900C9,
008D0059,
006B005A,
00E60062,
00B5002E,
004B00B3,
00190032,
00590063,
005D00A5,
00100055,
000D00D1,
00130084,
00E9007A,
005300C6,
006D0030,
009D0096,
00B100C2,
00490025,
00C100A6,
00060037,
002C00D1,
00C60093,
008C00D0,
00620042,
007E0088,
00D90077,
001E0012,
005B00E1,
004500AE,
00CA006E,
005000AC,
00450068,
000D005B,
00130091,
00430087,
000E0032,
00800045,
00AD004C,
004C003D,
0010003C,
007E005D,
003E0095,
00E0008B,
008600DD,
008000DB,
00D40017,
00E40067,
006E0073,
004200BA,
006100B7,
0054003E,
005E005E,
007900E9,
00A900CA,
0087009A,
00930035,
0040000D,
007A00DE,
00BE009E,
00410066,
0056008C,
00B100A8,
005E008C,
00410026,
002200E0,
00E1003D,
00A50069,
0023000D,
002200B2,
00D900E9,
00D70020,
009A008E,
004D0072,
00590052,
0058003D,
00840029,
00190075,
00260026,
008A00E4,
00AD0041,
006C006E,
00E300C2,
007800C9,
00040048,
006500C9,
00A000E0,
00AC008E,
00EB0006,
001B00A9,
00A00076,
003800E3,
00610068,
009D003D,
00BA00C2,
0067002B,
003E00D8,
00550097,
00770045,
00C00010,
00C300CE,
0014000A,
009B00B4,
006D0004,
00590054,
00D60058,
002D0088,
0063008D,
00060052,
003C0001,
0031006B,
00B600A7,
009E00E4,
002200D1,
0068003E,
0059006B,
0068006D,
00B20056,
00DE00E8,
003900BA,
0028000E,
00390089,
00BD00E5,
00C800C9,
00E10065,
00CB001B,
0037004B,
00BE00A3,
001B0059,
00C50032,
001500D9,
0089008C,
00650042,
00100051,
00380022,
009900D4,
007700A7,
000B00A9,
00BD00A1,
004000C3,
00C80000,
004B00DE,
00D0009E,
005D0018,
0029000C,
00D40002,
004E0003,
00C000C0,
00690001,
00E40028,
00420061,
00D300EE,
00B100D3,
00850031,
00EE0058,
00AA0018,
00CA002D,
00A100D2,
00C600BD,
00DD0089,
00B100E1,
002E00B7,
00C900B9,
00CC0086,
007C0035,
00AB00DC,
00C6003D,
00ED0011,
003A0043,
00CD007E,
0020000E,
000D00C0,
00730012,
00CE0012,
00CA0086,
00530050,
00A400BD,
00990028,
00D500AE,
007D001E,
002500AE,
003E006B,
000E0032,
00320041,
00C20017,
00E600E0,
00500060,
007D00E8,
000200E0,
00A40072,
00E40036,
00E7001E,
00080053,
00B500C0,
000E0045,
00EE0081,
0091003C,
00190058,
00EA00A7,
003E0002,
00A100ED,
00220068,
00040064,
00A800A1,
007D0033,
003900B6,
00460007,
00B40036,
003A00BE,
000A0054,
00220006,
008D0082,
0018009A,
00340049,
004300B2,
00D100DA,
002B001A,
0098001B,
00E900E5,
004000B7,
003C0027,
00ED0067,
00CB002A,
003B0024,
0081003E,
002A0065,
00270034,
00E1004C,
00C1007D,
00050084,
008300A2,
00D900BE,
0071005B,
009200A7,
002000C6,
00D0004E,
00C10000,
002A00E6,
001400A1,
00A000ED,
00E4002A,
00DC0030,
005C0093,
001E003C,
005600B7,
0041008B,
00C0008E,
00320055,
00AB008A,
00AB007B,
00930068,
000200E8,
00C7009E,
00DA00E4,
00D90068,
003E0011,
00B300A9,
0006008D,
000500CE,
00D0001E,
00D30040,
00BB006D,
00BD00B9,
002B007B,
00610010,
00910054,
00E8000E,
0029007E,
0003003D,
0053004A,
005900E7,
00740022,
00BD00AC,
00A40047,
0013003E,
0003009C,
008800B3,
00C40023,
002D0040,
009A0000,
009100B6,
00C300AB,
0040007A,
00B40007,
003C00BB,
00AC0004,
000600C4,
001C00CB,
006200DC,
00480032,
007D0023,
0091002B,
005C00EE,
00300037,
004A009E,
00720096,
002E001A,
005900E9,
00700018,
002D00C6,
00A10060,
005300B5,
003C0088,
008100E0,
00E70007,
00100000,
00880009,
00040015,
002C008E,
007E0060,
004500C3,
0009008C,
0095001D,
008800B7,
00C00038,
00EA00EA,
00C300C2,
00D000E9,
0067000C,
00B100C3,
00A00076,
000900BE,
00D6001C,
00830017,
002B0080,
0067006C,
00210090,
005A0087,
00630034,
00A2006A,
0058004A,
002A00CC,
009E00A2,
00B70049,
000200B6,
008D007B,
00C700CE,
00870047,
002C0085,
00390013,
008C003D,
006300D5,
007900A1,
00360003,
00140032,
001D00E4,
00BE0072,
00800010,
009C001A,
00230067,
008C00AE,
006B00C7,
000700A2,
00C30049,
00220092,
0016008B,
00ED001C,
009E0098,
008300AC,
003100EB,
00600072,
006200B7,
00AA0077,
007B0037,
0008005D,
00A700A6,
00490060,
00D80040,
00530065,
0050009C,
00A0002C,
00430085,
0001002D,
00750043,
00C100D8,
002D0060,
00A30051,
00C70008,
00160021,
0013006D,
00B200C4,
00C10073,
0001003D,
007300B9,
001C00BD,
00900069,
007E00C3,
00530063,
003200BC,
004700BB,
00E500A5,
007B0085,
00570059,
006700C5,
00520071,
00D60011,
0081005A,
00900010,
00C70077,
00C90078,
0080009B,
00B00046,
0073001A,
001C0088,
00480067,
00690004,
00780037,
00A300B1,
00250021,
00D90031,
002B00B0,
0068007E,
009600CB,
00BB00EE,
003E0067,
000400E3,
00C700D7,
0059005E,
00CA0040,
00690015,
00BA001B,
00310052,
00B000DD,
00670068,
00140024,
005600E9,
00480000,
00B700D1,
001B0036,
00B000A3,
00960065,
00CA00E7,
001700B3,
0038006E,
00EB006D,
00B5002B,
009C0043,
00270042,
0057009C,
008000D9,
00120008,
000A00EA,
00560059,
00960039,
00A10002,
00430069,
004E00C9,
005700A1,
00B5003D,
003A003C,
00E60012,
004D000A,
009C00DE,
004400C3,
006C0086,
00A60038,
00B60053,
005B002D,
00540069,
00B000E4,
00940077,
008900D3,
00390094,
00AB001C,
0062003C,
007100C6,
00A70015,
001E0003,
001A008B,
00D4009B,
00C00019,
003200C2,
007000AD,
00BC0016,
00D900D1,
002C0028,
00E300C0,
00190053,
001800C1,
000700D9,
00D50069,
00BB00CA,
008B0090,
00E000A7,
005500A5,
00AB0023,
00970009,
00B60086,
00C10050,
006400B3,
000A002D,
00900074,
0045002A,
00B10081,
002C0013,
008200A4,
001600E9,
00050099,
000800BC,
004900D0,
0001004A,
00E8005A,
00E900E7,
00420080,
00E7002B,
0059008B,
0036001E,
0018000C,
00910015,
00B800C5,
00B90065,
001400A3,
00E10050,
00EC00E8,
00C1005C,
006D004E,
004D008B,
00AC0039,
00180099,
00A900C9,
00CE00D7,
00680076,
001C006E,
009A00E1,
00370037,
00BB000D,
006D0037,
009000A6,
002900EE,
0052001B,
004A0052,
005B0027,
00E000C7,
00BE00E0,
00EA00A0,
005E002A,
00B40042,
00AE0064,
005D0076,
00C100A4,
003C00B3,
00DA006E,
00C10007,
00DC0039,
00700052,
0053000E,
00B900EE,
00E40005,
0011005D,
00BD0020,
005C00D6,
003C0079,
00880019,
006500E1,
004D005A,
00B300A9,
00BE0059,
007300EC,
00E40000,
00BD00A3,
004700D4,
005B0083,
00240088,
00B90084,
00380063,
00DA00B4,
00550094,
00AA00D0,
001400CE,
007400C3,
00EE004C,
00960004,
00860083,
000800DE,
00790015,
001300AC,
003700D2,
00240066,
005E0086,
007B00A1,
002B00EE,
0027008D,
00940096,
00D00065,
0011005B,
00940023,
00810008,
00AB0077,
00A80033,
0085001B,
001A0026,
00020053,
00EB0041,
00A200E6,
0036003D,
0049003B,
002A0020,
00B8002E,
003E009E,
009B0077,
006D0092,
0089006E,
00AE009D,
00AA008E,
005400A7,
00AA0018,
0018005C,
004B003C,
001700B7,
009600C5,
005E00A7,
00A500E9,
00AD00C5,
00550092,
00740048,
00D7000E,
00840055,
00D10023,
00CC0012,
00A7002B,
009000CE,
000400D9,
00E8006A,
009A00AC,
00390099,
00020068,
00E60028,
004A00C6,
00E10050,
0001005A,
004E0098,
00EC006E,
006B0080,
00C70026,
006800DE,
004700A3,
0044002A,
00390093,
008B0069,
00D2008B,
00D50023,
00ED000C,
00C10042,
0024007C,
007A004E,
00520013,
00B000B1,
002E003D,
005000A2,
001200CD,
00E90001,
000C007B,
00320076,
00470014,
0038008C,
0048000B,
00360079,
002B0050,
00460034,
009800C4,
002D002D,
007A0095,
005900B2,
00AB008A,
0013000B,
00390079,
007C0097,
00B20006,
0064001D,
00740097,
00B20049,
009800CD,
0082000D,
000200B8,
0000006D,
001000EB,
00EB0024,
00CD008D,
0086008D,
00400004,
002300D3,
003B006C,
001B00D9,
001A009B,
00720096,
00890031,
008A00BE,
0026007B,
000000D3,
007A00E4,
00D70032,
001D0020,
001900DC,
00650008,
00A40053,
004100A1,
00EA0060,
00C8006A,
000700DA,
006E002C,
00BD0096,
008500BB,
006500BB,
0053006D,
007400EC,
00C4000B,
009000D5,
0011003B,
00C60067,
000E005A,
002100BA,
007E0030,
002B004D,
00210097,
0074003C,
009300D7,
00240037,
00C4002B,
00A00038,
00750070,
00D4000A,
0087000E,
0077004C,
005A0021,
003C00BD,
00EA0073,
00560035,
0068000A,
00180029,
009C00EE,
001C0026,
006B00AC,
00CE0077,
00CC0035,
00B500DC,
00660064,
0025007A,
004E00A0,
002B006D,
00CB0030,
00370088,
00670034,
006A0091,
001500B7,
00130049,
00360005,
008C00C3,
005100D3,
006700E7,
008D009C,
00A600AB,
001500D3,
00EE00DE,
00C700B8,
00A900C7,
00A70037,
00E800E7,
00CE0081,
00930047,
008800C5,
006A0018,
0032006B,
00A4000E,
00DA00C0,
006E00AB,
0057004D,
0045007A,
00480089,
001400CA,
0062004D,
00260083,
000A008B,
00010043,
00180070,
00BE002D,
00530050,
00BC00A8,
006B009B,
00290060,
00CB0031,
00E50011,
0038003E,
00C900DE,
008000BD,
00C000A8,
0046008A,
00E10090,
004300D5,
006A0086,
00E900D4,
00E2009E,
0004001A,
00D40013,
00E400A2,
0007009A,
0033008A,
00630038,
00C700E1,
00E800A8,
00E00022,
00330066,
005C00C7,
00AE0076,
008C00A9,
00BD0070,
00440037,
004200DB,
007B0035,
008300DD,
00790081,
001600E0,
0069008E,
00B8007C,
00820078,
004C00BB,
006B0032,
00BC0031,
006200EC,
00AE00C7,
002300EB,
006000AE,
00350081,
00D20017,
00050060,
00B10076,
00BD0049,
0076004C,
00B50054,
009900EE,
00340033,
00A10027,
00D0006B,
00BC00C3,
007C0021,
008100B4,
00D4007B,
00410029,
007C00D0,
00900098,
0080009A,
00AE00D5,
009A00E7,
00630004,
00470049,
005C00C1,
00BC0068,
004900A5,
006B0057,
009C00C5,
00EC00D0,
00030050,
00A10000,
00810091,
006D00C7,
00420089,
00CB005C,
005D0042,
0078007C,
001E008A,
00BD00CB,
00960032,
00B100ED,
00EB0018,
00C80006,
001500AA,
00C80029,
007C00BE,
000E005A,
00C70021,
00B100B3,
008D0031,
002D0095,
00BC00ED,
008A0043,
008E0014,
005B002C,
00AE0082,
00B1007C,
00A90067,
008A00C0,
00A600CC,
001400C2,
00E900C4,
001B00D7,
006200E7,
00EB00B8,
00A500E3,
00E50012,
00A20022,
00E40001,
003A0089,
002800A8,
00620057,
006100BA,
00360031,
00B70090,
0028004D,
001B00A0,
00D800C5,
001000AB,
002B00B2,
004800C5,
003800A7,
008A00C5,
00E30029,
00D40051,
002500C5,
005200E2,
00E800EC,
00250025,
006600DD,
009E0014,
002300CE,
00040053,
007A00EA,
008A0072,
00AE0043,
00A5005A,
00DC0014,
00800023,
006A0074,
00AD0067,
00DB0060,
00800045,
0054005B,
00160029,
00170067,
002400DD,
00090029,
002500A2,
000C0048,
0098002B,
00530081,
00380087,
008A0096,
003D0079,
00480005,
00B700D6,
00350060,
005700C9,
00A700BB,
00C50078,
00B00058,
00A500A9,
0030000D,
0066004D,
008C0017,
00230070,
002E00E5,
000C003E,
001D00BE,
00AB000E,
00390072,
006A0039,
00560008,
00320052,
00050071,
00D700B7,
0093007B,
00C700D8,
008D0081,
000E00E0,
00D200A4,
00B70047,
00B3002C,
00000032,
009200C9,
00220049,
00E900C5,
00520077,
001800A2,
00C60059,
00C100A3,
0039004B,
0046000D,
007C00A1,
00C70021,
0025006D,
00C900CA,
00AA000A,
009300B7,
002B00A2,
00E4006C,
00650079,
00540093,
008E0003,
001B00EC,
00E70021,
009C0054,
00D600B1,
00A60028,
00600048,
00D50034,
002200DC,
007D0045,
00870042,
00AC0098,
007E0072,
00610072,
00C40070,
008B00D0,
00D200D7,
00270099,
00A80090,
009200C4,
007200BA,
00370058,
000900BE,
00E600C7,
00570078,
00490013,
00CC001D,
0020000D,
006A00E5,
00550072,
00740010,
00270003,
00D000D5,
00D70089,
009D00D1,
002C0062,
003B009E,
009A0039,
004400ED,
002C001D,
001A0026,
00ED0001,
00970018,
00AD0010,
00B500EB,
00B20085,
00CA0093,
00E6001E,
009400B6,
00460046,
00B90044,
00E30074,
00DB0003,
005D00AE,
00360061,
00A400A0,
00C2000E,
00890091,
0040002D,
00BA003C,
00550092,
00050024,
00E9004A,
00320070,
003900CA,
00EA0039,
00EB00AB,
00BD0013,
005B0007,
00B600C4,
009900B6,
00BE0008,
004B0027,
00310046,
00B500B5,
00E4004B,
003D004E,
0094007E,
00740028,
004E003A,
00BA00A9,
00E500C4,
000C00DE,
00830091,
0031008C,
00A9005E,
00A100D1,
00A80047,
0027008E,
000A007C,
00B800CB,
00E90093,
008B00BD,
001200E4,
00A30088,
006700C4,
0012008B,
00840041,
00480002,
005A0096,
00230021,
0027007B,
0062007E,
00DB0030,
00B9004E,
008600E8,
0056005A,
005C000D,
000000EA,
00C80039,
005C0037,
0018004A,
0092007C,
00AE0028,
00BB009E,
00690074,
00210087,
006A0044,
00350079,
008400A9,
0018001B,
00A10036,
00C60022,
00B000DC,
00520072,
00C70087,
009D00E2,
00DB0060,
005200AD,
004E0016,
005D0082,
00E200B5,
00170037,
00110028,
00A90060,
008700D3,
00CA00B9,
00A2006E,
00270040,
001A0001,
00E00096,
00DE00C0,
00D000E3,
00E400BB,
00370025,
001D0041,
008400CD,
00E10049,
0017000B,
0017006E,
00B00005,
00EA000E,
00A600E2,
006C0059,
00490036,
00220007,
000300A3,
004200B2,
001500C2,
00C400BC,
009C0023,
00D400A9,
00DE0064,
00D70090,
0057000A,
001C002C,
00DC0042,
00BC00D2,
00850074,
0091009E,
00D00048,
009000B6,
006A0064,
00140071,
003D0074,
008E00E7,
008A00E9,
00CA00D2,
002B002D,
008E006D,
00800092,
004B00DA,
00DD0027,
0088007D,
006400C4,
00D2008A,
0050008D,
00C100C8,
00E30095,
0054003A,
001A0077,
0009007E,
00E500A5,
00D20078,
007E000B,
00BC002B,
00900027,
009700A2,
009D0038,
00AB001C,
00EE0005,
00A60069,
00770059,
00B9000C,
00080039,
00AD000E,
001A0016,
008700BC,
00E800B9,
00280070,
003600CA,
00CE0090,
00A200D0,
0032001C,
00E30019,
009700E5,
00BC00C5,
00A100D9,
005800E5,
007A00E6,
001900D7,
00D0003C,
00E90041,
004600ED,
001C0042,
0020008B,
0034008B,
00D200D2,
005B0041,
00D1003E,
00020035,
00B100C8,
004C001D,
00B9003C,
00A800DC,
00A600D2,
00930035,
00BA00C9,
005D00CB,
00C70083,
00640072,
008E007C,
00490092,
00C90059,
009A004A,
0011005C,
000200E6,
00EE00DB,
00AC0023,
004B00D8,
00C7005E,
002E0012,
00AA0098,
00D6006B,
000D0064,
002900A4,
00D30038,
00CC001D,
00D0008B,
00500050,
0013000B,
00540072,
00C600EB,
006600A3,
008100B4,
008D0097,
00EE00BA,
00E70084,
009B00C3,
009300DB,
00C00074,
001800C6,
00C000E6,
00D900A6,
00D60016,
00A000D8,
005400A3,
0001004B,
008A009D,
007A0029,
004B00E4,
009600B5,
00790091,
0033000A,
00D800B6,
00B700BB,
00C9000A,
00A9009A,
00D700CB,
00730073,
0069001A,
00E700B4,
00C60088,
00400033,
00110000,
00C8000E,
0093001C,
00D30066,
00E700E8,
00C3001C,
00DE001E,
009500EE,
00860096,
0059000C,
00660011,
003600C4,
0096005D,
00E10079,
007A000E,
00C600E4,
00740001,
00030014,
004B00C3,
004500D3,
00570092,
00E500E6,
007E0085,
00DB0071,
00A600B1,
00D0004D,
0014007A,
002D0092,
00260066,
00D40091,
0008007B,
00B9005A,
005900D2,
00A60082,
00470048,
00110035,
007D00B3,
00A600CE,
0013005C,
00D500BB,
000A00C9,
006E00A3,
00C0008E,
00730074,
00E40025,
00B50096,
008700AB,
00C40054,
00C10072,
00A9004D,
00B1008D,
00070084,
002D0006,
00EC0090,
00610016,
004C00A8,
00B500A3,
006E00E5,
00B100EB,
00240080,
00EB0016,
00DE0059,
00880081,
004A0039,
00EC000B,
00510056,
00D50086,
004A00C9,
00EB0074,
000B0013,
0085004E,
00990024,
00EA0098,
00B2007D,
006C009C,
000000C8,
000300A3,
0063003C,
008E0086,
007900BD,
00680084,
007700B8,
000D00AA,
006B0087,
003B00EA,
00430036,
00E90019,
00AD00BB,
007A0023,
00C600D6,
00490016,
00430053,
006400B7,
00AB0056,
003A004A,
0084008C,
00710079,
00260091,
00B7004B,
001700DC,
00D800E8,
00A4000C,
0022000E,
009B0090,
006800E0,
0017002E,
000D0061,
00910094,
00540080,
00D00086,
009200A3,
00D4004C,
00C00011,
00280022,
00B30004,
00AD0086,
008700B4,
00190036,
009C0039,
00C30072,
001900DB,
00390077,
00E70006,
006400C0,
005A007D,
00D600A9,
00D2000A,
00C40026,
0033002C,
00E90058,
00C40010,
002700CB,
00990099,
007E0009,
0087000C,
00D20083,
00950032,
00BD0051,
0056007B,
002800D6,
00DB0013,
002500A1,
00EE0064,
00EC0077,
002700A5,
0022001A,
006900CB,
00580004,
006A0078,
007800ED,
00A4006C,
002E00D7,
008E000D,
0050004D,
005E00DB,
005400B1,
004E0063,
00AB0009,
00000076,
000B00B1,
00BB0052,
00E90031,
00760041,
004B003B,
003500DA,
00350066,
004B002E,
00C50061,
003D004D,
001300C1,
008B00B6,
0048006E,
003300AB,
008C003E,
00D5005A,
0050008A,
00C3000E,
0074009B,
003C0050,
00910003,
00400058,
000000A0,
00360084,
009C00B8,
00C10046,
009C0066,
00D40095,
006D0011,
00DE0066,
00AE002C,
004000E4,
00A800A6,
003900AC,
00E10023,
002C0091,
00E50043,
00950066,
00000038,
00A3001C,
00E9008D,
007900E4,
00DD0089,
00C900C2,
008B00E3,
008800B8,
005200B6,
008C0024,
000D0026,
00EC005D,
002300ED,
007700E9,
00CB00E8,
003D0014,
00CD0070,
00D2002D,
008C0011,
009C00D4,
00EB0054,
005900D4,
002D006C,
009B0010,
008B0024,
009800E0,
008A0073,
00080057,
009800D0,
005000A2,
007D0055,
00D80066,
00E80061,
001200BA,
00E40063,
00560063,
0078002A,
00480055,
00660049,
008400E6,
00C100AE,
00C10070,
00C700EA,
009B0017,
00C30063,
001C0071,
002800B9,
00960057,
009700DD,
00B20022,
002B0052,
002A008C,
002A002E,
00950076,
001D0007,
007C0032,
00CE00E9,
002300E6,
00A000DB,
008A000B,
003400A4,
00AE0007,
00640027,
00A900D0,
005500E1,
005B0074,
004E003D,
00AC000A,
0019004C,
000D00CE,
00CD00A9,
00590048,
00960043,
00230006,
00CC003D,
00D00085,
00460036,
000800B5,
002A00AC,
000800CC,
00330034,
00DB0064,
00CE00EA,
00BC0088,
007700BC,
00050061,
006E0014,
00CB005A,
00EA00C1,
009B00CC,
006800BE,
00270029,
002800D6,
007C0015,
00D700C3,
007800BC,
001600AA,
003700B7,
009A0040,
00EC0087,
002C00E8,
003700A0,
009700B9,
00DE0030,
00750056,
001A0077,
001200B6,
00C200DC,
0071003A,
009D009B,
0040000D,
007B004E,
00A70027,
0083003D,
00A60040,
000E001E,
0081001E,
003200D1,
006D0096,
00DD00CA,
008100E8,
00E00001,
00D20041,
00700034,
00E700E1,
002C0089,
001A00BB,
0014007C,
00D5003B,
00EE0069,
00DB00B4,
000700B3,
00280021,
007D00A1,
00300091,
00090069,
004A0095,
001D0026,
006B00E4,
00630093,
00960053,
0075008C,
00CC005D,
00430052,
00DD003D,
00520016,
006300A1,
00AA0084,
008C00E5,
00B500A6,
00E500E0,
00B5002E,
000D0066,
0080000B,
009C005D,
00E000A4,
00E9001D,
007000BA,
007D00A4,
00EB0014,
00480018,
00E40008,
002D00A0,
00A4006B,
00060007,
00900068,
00BE00A1,
00060021,
003D0012,
00090000,
003C00B4,
001B00E1,
00D800E3,
009100BC,
00D1004A,
007C0087,
00D8007D,
00600011,
004900A2,
0023007A,
00620058,
00B000E7,
00CB00D3,
002B004D,
00080074,
00DA0062,
004B0066,
002C00D0,
00EE00EC,
003000C3,
000900A1,
00A00066,
00540010,
00270043,
00AD00A4,
008400D0,
006500DD,
0099002E,
000C000A,
00A50087,
00D40014,
0018005B,
00C400E0,
00580029,
00E30088,
00150021,
00AB005E,
00360063,
00B800B1,
00620027,
001D000B,
005E00D5,
0016009E,
008B0000,
00DD0016,
005E00AB,
005C00D0,
001300E5,
00A70071,
00340009,
0012005E,
00C9004D,
0018002D,
00A200CC,
001B0026,
00C700A4,
0069001E,
005900B8,
005100CB,
00A200A1,
005C00C7,
009B0006,
00C2006D,
008C0030,
002E0090,
00B300E9,
001100E7,
00DC00A3,
0070005A,
00C30038,
00400042,
00CB00D0,
00B5008D,
00C100E7,
005C0047,
00740006,
00020016,
00540082,
002900A3,
000E00C4,
000A0001,
0089007B,
00C50035,
00930048,
009A006D,
008300B8,
00D600CA,
001D0022,
00700071,
00C200D8,
0093009D,
0042001C,
003000B6,
00C000E0,
007C0011,
007400D8,
000700D6,
0044006A,
00B500AE,
00BB00ED,
006700A0,
008D0027,
004C00E4,
0096002D,
00B40076,
005E00BD,
005800CA,
009700E3,
00BD00D5,
00CC0041,
00A00074,
0088008E,
000B0082,
00550028,
00530063,
00970015,
000B0033,
00AE0000,
00E2000D,
00C30099,
00C5005A,
009D004D,
000500C1,
00B6008B,
00B100E3,
00DA00B2,
006C003C,
000100BA,
007C0006,
00CC00B4,
00B000C0,
00380047,
007E006C,
00780094,
007D00D9,
00030097,
00D50023,
003900D0,
00460086,
004D0032,
00520054,
0081003D,
002C00E8,
003A00CA,
003C0032,
00A60092,
0034001C,
005C00D7,
004B002A,
00C500C2,
0046000D,
00C000D6,
00CC001A,
00EE00B2,
002900BD,
0032000C,
00E4003D,
00940066,
00710079,
00830007,
003B00B7,
00130089,
002A0070,
00EB0091,
005200CB,
00870003,
008C009D,
00AB00A0,
006E00DD,
0072000C,
00B000BC,
00E200DE,
0017007D,
00C3000E,
007500E2,
0096008A,
00E90043,
00110036,
00700036,
007D00B8,
00BA00C0,
002E0032,
005E004A,
00A4005E,
008A00A7,
000300D8,
005D00AD,
004600DE,
001E002E,
00020092,
002D0098,
00DB00C5,
000A0051,
00B1003E,
004800D9,
009B0010,
0056004C,
000000BD,
001000E1,
002E005C,
009500E8,
007100C3,
00630005,
006B00A9,
00390023,
008A00BE,
001900C3,
006300CD,
001C002D,
00C60085,
00A30076,
004100B7,
00B900CE,
00470047,
00C20035,
005A007A,
00BD0089,
004200AE,
0058004B,
00E6000A,
001900D0,
00970054,
007600CD,
0042009B,
00B70039,
007200D4,
009400DD,
00300064,
00E000C9,
007300D7,
008700A7,
0041008B,
00320050,
00C400AE,
00680014,
00AB0054,
00DC000D,
008800EE,
00DB008C,
00390076,
005A0078,
00780011,
006000E7,
00D2000C,
00670009,
000500A0,
00A60079,
00A7009E,
00EB0077,
00AB000E,
008B00D7,
00E20044,
00BC00CD,
001A005B,
00AE000D,
00E9006E,
00030006,
004100E0,
009E00D1,
00E700E5,
00BC00CD,
007D00A6,
005A0083,
00DE00E5,
000300ED,
00880010,
002B000E,
00AE00CD,
00AA0017,
005E00C7,
0045004E,
00D30020,
00490086,
00C90043,
009700E5,
00370031,
000600AC,
00160059,
00D600B0,
002A0019,
000A001D,
002400AC,
00E100AC,
001A0039,
00B8004D,
000300C9,
00CD0032,
0011007E,
004000D0,
00E900EE,
001A000A,
005000D7,
00790093,
00B4007B,
00CD008B,
00330073,
00B60030,
00A100C1,
000300ED,
0048001E,
001E00C3,
0023008C,
000B0008,
00EC00C3,
003A0096,
001C00BC,
00BE004E,
007200D8,
00B800B7,
0087002B,
00B1005B,
00100021,
009A00C1,
00010002,
002D008A,
00D70014,
00400021,
006C00B9,
00A1000D,
005C003B,
00A10012,
002D0015,
006C00C9,
00C800A8,
009700D8,
008B00DD,
00210035,
00510030,
00DB00D8,
007E00C2,
002100EB,
00C40041,
00A6004A,
00B20001,
0016001A,
00140000,
00C800BA,
000700C9,
0040008C,
001400EA,
009900C9,
003400AC,
000B0039,
00C20013,
00B800AC,
003200C0,
0028008D,
005200B3,
00C400A5,
00B4006C,
0077002C,
00E0002A,
00220080,
00220002,
00D600AA,
0049005D,
006D002C,
00E400C3,
00EE00B8,
00C50024,
008000DB,
005A00EE,
00D0009A,
00130085,
00EB0029,
00A500CD,
005600B8,
00E00032,
004200C2,
00C200C6,
003E0098,
00140054,
008100A3,
00650011,
002B00E6,
004A00E1,
00590034,
00430044,
00E5006E,
008200C1,
001400C6,
002A00B5,
007C007C,
0029007C,
00060066,
00A20069,
00C20015,
00C40023,
00090055,
00A1003E,
00660089,
0063008A,
008400A8,
00C7008A,
00C50043,
000C00EC,
00440048,
00BD0083,
000E0076,
001B00E0,
008E002D,
00740043,
00ED00E5,
00820083,
006C0083,
00BE00C3,
0082002E,
00720060,
004500B4,
00880077,
000400DC,
00C300C7,
00C50000,
00EA00EC,
002E0080,
00450006,
00350022,
00110085,
001200DA,
00580032,
00820016,
00D000CE,
00980083,
00EA0079,
007B0006,
007800D4,
00DE007E,
00C0005A,
004600B6,
004A0053,
002D00B4,
006100CD,
005C00D0,
008D000C,
00BB0027,
00810054,
00C00030,
007700D7,
008E00EB,
00D60008,
00120003,
00070090,
007B00C2,
004C00AA,
00580022,
0095003B,
002000CE,
0061003E,
00DC00DC,
000D0062,
002C00DB,
00E80000,
002400BD,
00CB003D,
00660088,
00270089,
006A00E9,
0005003B,
002600C3,
001C002B,
00BC002A,
009A00AD,
006B00DC,
003700CA,
00A600BB,
006B0007,
006600C2,
006800CD,
00700025,
00DC00D5,
008B00C8,
00460084,
0079005D,
007C0019,
00C200C0,
00EC0020,
0039007E,
006800EB,
00E600A4,
005C0040,
000B0020,
00720020,
00A800CB,
006500C0,
003900CD,
001900A6,
0011000B,
005100CB,
002500E7,
00B400B2,
00D900C1,
00A600C4,
00210002,
00710077,
00690039,
00270010,
00C8007D,
009C0003,
003100D5,
003300D8,
004C0063,
002D00D8,
00B60012,
00ED00E9,
001C0076,
009B007C,
00630094,
0077007E,
00D10003,
00BA0025,
00C60014,
00EA00CC,
00B80016,
004000B5,
00C90071,
00170094,
00150093,
002400AA,
000700B3,
00D50072,
008D00A5,
007300C5,
004E0047,
0054006E,
009E00B5,
008E008D,
00390071,
0048001A,
00D900BC,
006A0080,
008500B9,
006A00D0,
006800BA,
00E90048,
0010002A,
004C0020,
009E00D4,
00670091,
006D0019,
00D70000,
00170071,
007000B8,
0024001B,
00D0002A,
00C80000,
001D0050,
003900D5,
00430026,
008800D7,
00D8001D,
00E80071,
00AE00D6,
00AB0054,
00C7003A,
00A1003C,
004B0047,
00560094,
003000A0,
004600D0,
0041009E,
008D00E6,
00C5004E,
00DC00A8,
00B90035,
00430012,
006C0074,
00E600A2,
00E60014,
007C0087,
0005001D,
006500A1,
0031002E,
0041008D,
001D00DC,
008600A3,
00E600CC,
005600C7,
000800A0,
00E40011,
00C900CB,
00480043,
00230010,
00680017,
0013005C,
00170041,
009A0007,
002C0015,
0011002C,
00B10035,
00E300D1,
00DA0090,
006C00A5,
0039008E,
002700CB,
000E003C,
00DC0012,
00DC00B2,
001000BB,
00B80032,
0028003C,
001D0076,
0070009D,
00830092,
0001000B,
00B70032,
00BB0062,
004D00EE,
00460060,
00A800A6,
00A50067,
00B70071,
009700DE,
00B500B3,
0076002C,
00150071,
005D00C4,
00B50066,
00730058,
0025007E,
00DC00DA,
00E600AB,
00EB0060,
004B00BB,
009A0091,
000D0013,
00DE00C8,
00080098,
00120009,
00DC0018,
00610007,
000A0027,
009A004E,
00CD0001,
00E40025,
002B00B3,
0036001C,
00C40050,
00C9002A,
00B80053,
00160013,
00220012,
002D009D,
00DB0056,
008100BA,
00370088,
009C006C,
004C0023,
000C00AE,
00C20057,
00A200D5,
00E100A0,
00250052,
008B00AC,
00DA0098,
00590005,
00210082,
008200C2,
008900D1,
00C700A5,
00C90060,
0049004A,
001C00B6,
007500EA,
0086004E,
008700CD,
00E400B1,
00AD003D,
00D90065,
0002006B,
00840029,
00CE00E7,
00AE0068,
000C000C,
009B0066,
00B100A2,
00EA00D8,
006600B5,
00EC00D0,
00ED00E7,
00A10030,
000300BA,
008A000A,
002000C5,
008B0098,
00770010,
002800DD,
003800CD,
00680030,
0087009C,
007E000B,
00320076,
000300D7,
007000D3,
009E00A8,
006600AC,
0067000E,
00BC007C,
00D400B0,
0024006E,
00E60083,
0017005B,
003B0021,
00A10020,
00120090,
00E20032,
00C50042,
00310050,
00C600CE,
00160047,
001A00C8,
002600CE,
00B60043,
00300007,
001D0055,
007A0028,
00280018,
00C90096,
005500AE,
00B5002B,
00BA0082,
0096008C,
007200D5,
006000A8,
00120013,
00BC003E,
00E00060,
00A9000D,
00E30048,
001500CD,
00B800B6,
0022003C,
00270038,
00910057,
00860051,
009C0053,
00B3008B,
001200E3,
002700AA,
0086008D,
007800BD,
001B0065,
00EC00B1,
00E7005A,
00A1002B,
0063007E,
008200ED,
0066008E,
0070002D,
00860019,
00AD00C8,
0004005A,
007D0094,
001D00C5,
002000E6,
001200E9,
00430072,
00040050,
00D8002A,
00810086,
008E00A7,
00360083,
00E60061,
007C0056,
000300B5,
00A700C3,
001000A6,
003200A4,
00AB00A5,
00B500C2,
00B80092,
002800A6,
0088002B,
00430056,
0030003C,
00690042,
00EA0093,
00AA003D,
00E0000B,
00CB0008,
00070030,
00AD0001,
00DA00AC,
001900AB,
00A600B2,
00960016,
00810044,
005D0028,
002A00AB,
007A004D,
0088001B,
009200C0,
0058003E,
007500B9,
00720097,
00110070,
0048002A,
00080041,
007E0081,
00000098,
00E800C6,
00C6008D,
008100CB,
00920063,
007B00E3,
00EC0055,
008700B5,
00B70047,
00ED0058,
00D900BD,
00540076,
00E300AE,
001C0002,
00860038,
009E00EC,
008E008B,
00B00007,
00C70044,
003C00AE,
00420015,
0041006E,
00160007,
0068008A,
00D0003A,
00CB00B2,
00B00013,
00AB0035,
00010023,
0050009E,
00E100C4,
00E80008,
00CA00AA,
00780022,
00D900E8,
008700C1,
00A300A3,
004C0019,
0097003C,
00B40073,
009D0017,
009D0064,
0027000B,
002C00EC,
00970047,
00E7008C,
00DE00C4,
00CB0008,
006700D0,
00BE00D1,
0070003C,
0007006E,
00870062,
00680028,
004C0057,
00630006,
00C40036,
00460085,
0072002A,
005A008D,
00B7002E,
00BE00B8,
00D80026,
00350046,
00DA0095,
00A800C0,
009E0096,
003A00A2,
0002003D,
001A007E,
003400E0,
00D90052,
00CA00CB,
000C0096,
00DB0078,
00680020,
00B1003C,
002300D0,
004B00A9,
001E001E,
00870009,
005A004B,
00EC0000,
00BE00E8,
00C500A1,
00770071,
00C000C4,
001A00B7,
001D008A,
00EE004A,
00D40076,
00600036,
00A000B6,
008D0025,
00CC00E4,
00EB00A2,
008400B7,
0011007E,
008D0030,
0011001D,
008400A2,
00C90089,
00D70093,
00C20077,
001A0099,
00B10093,
005B00D0,
00510024,
0012004C,
001C003B,
0019000B,
00B100D3,
001600C5,
002C0001,
00C000E8,
006800BE,
004B0033,
008200D7,
009C0026,
00AB00BA,
004B0097,
00190046,
00AE00BB,
002D0075,
00190012,
00C2003A,
00AE0070,
005500DB,
00550078,
00BB0082,
002A0070,
005E0061,
00700038,
003500C3,
00E70046,
00070012,
006C007B,
00560021,
00C30008,
002000CA,
001D0036,
00B40063,
003A00C9,
00DA0091,
00CC00DB,
00380094,
00B200B5,
00D800D3,
00C90079,
0020002C,
0018003D,
00A20011,
002A0011,
0075004D,
00AA00E2,
00DE0006,
0075002A,
00C700E4,
005200AE,
00AB00A5,
004C009C,
006A0035,
003A0009,
009300A1,
00AE0083,
008A00CE,
00380076,
00D5007E,
0000001D,
002200E3,
00920028,
00360018,
007C0065,
005D00A2,
00450095,
00300018,
00C10026,
00160064,
007B0042,
00BC00AD,
002B00B8,
00470057,
008A00B1,
00A700A3,
00D7000B,
00DD000C,
00EB0082,
004800E1,
00AB00A5,
00020095,
009400CA,
003D0070,
001C0069,
00D90047,
00D90049,
002B006A,
007700B3,
00610081,
000200CA,
00C10021,
009A002E,
00D80088,
00BC0093,
004E00E7,
009B0070,
00920043,
006C0016,
00760027,
00CA005D,
003300C8,
000B0042,
002E001B,
00550063,
00A00010,
008C00A2,
00CE0075,
00ED00EA,
00020068,
008700A1,
00C200B0,
001300B1,
00470038,
00C20054,
0063006E,
00D80061,
00BB004D,
0062005C,
0098000E,
001E007B,
004300ED,
00D700E7,
00BA0047,
00050089,
00230026,
00D500BB,
00A80061,
008E00D6,
001300A4,
00350017,
004C0090,
008600B5,
0054007B,
00A000ED,
009B00E5,
003800B7,
008A00E6,
00660053,
001000D5,
0091007C,
00C10017,
0088008E,
00A500AE,
008200BC,
00130060,
00490053,
00E700BE,
009400B0,
004300A8,
00900060,
0061005C,
00E30066,
001C00C2,
00EE00E7,
00480059,
00200038,
00800034,
00D400C3,
00D4000B,
00810097,
007C0016,
006A00DB,
007D0032,
002A0068,
00C00086,
00DE007C,
00D600BD,
0033000A,
00C60097,
00D60057,
005A0067,
005A00AD,
00D50082,
00A000E5,
004500ED,
00AC0055,
00E200E6,
008B004C,
00BE0026,
00B9009A,
000A00D6,
00270077,
00DD00DD,
006D0072,
000B007E,
003D0075,
00380089,
00090019,
0055000C,
008400C1,
00C100D6,
009B00C1,
007500EA,
001E004E,
00930025,
005D00E9,
0055006D,
00500097,
003800E0,
00E20095,
009B0096,
002D008E,
004A00C7,
0042008C,
008C00E3,
003200EA,
001A00D2,
00500034,
00DA002A,
007A0047,
009D002A,
00E90056,
007D0049,
00B800D9,
00430079,
00B90059,
006400DB,
00A50083,
00A70009,
007C0021,
004500CA,
001D006B,
006000AD,
00EB004B,
007E00A7,
00C300DB,
00D1002D,
008B003E,
006100DB,
001D0067,
0002004B,
00A800C0,
002E009C,
003D00E6,
00890080,
00D10035,
0044000A,
00050028,
000E0087,
004300C4,
00E00022,
00E6008C,
00ED00C4,
005100CC,
00270093,
00490019,
00230003,
00E70099,
00DC009C,
0043002C,
007E00EB,
00C30083,
0059001A,
006100ED,
005300C0,
00E1000E,
00910000,
00940088,
005100DC,
00A100E1,
009B0069,
00880037,
00AD0011,
0029008E,
003900A0,
00D900E8,
009700E2,
007900CE,
007C008A,
008A009B,
00C500D1,
00520043,
00A300B8,
00D90056,
009D000D,
00CA00BC,
0078004D,
00D70063,
00E9004D,
00EA0060,
00BA00EC,
00E50061,
00260025,
005A0093,
00830072,
008D0001,
00B400D3,
002E0086,
0015003D,
00C800C8,
003500BD,
004C0007,
00620020,
001B00AC,
005700B7,
00C300CC,
00610066,
009B001B,
00760076,
00170010,
00870013,
008D0085,
00A00027,
0027000D,
002300CC,
007D00DB,
00BB007C,
00BE00D4,
00080043,
0039008A,
0038008A,
00CB0027,
00D20075,
002A0029,
00CA00EB,
00B10061,
002A0003,
00960066,
0007005B,
00830026,
00670079,
00D7005B,
00E60037,
0025000C,
009A000B,
00A50021,
00840011,
0062007A,
001D0043,
002E0073,
009C00D6,
00D20072,
007B009A,
00240094,
00B2004E,
006100DE,
00A500C2,
009E0035,
005000A5,
00D5009C,
00DA0065,
003300EE,
00820008,
00AB000A,
00080087,
00D30050,
004D0093,
0044004E,
008E001B,
00B70090,
0099006C,
00060041,
00BD0028,
00820022,
008E0014,
000E00CA,
00240038,
004500D2,
0007009A,
002800A1,
0066002A,
00330026,
003E00B0,
00150075,
009600CE,
00DC0025,
00BB00E4,
00E90060,
005300BE,
005C00CA,
00160068,
009D00A0,
008D00B7,
00C80088,
000C003E,
004000EE,
001A00D6,
00DD00BC,
00CA0041,
00A20013,
00780008,
002B009C,
00EE0096,
006D00E1,
00D2009C,
00750084,
008E004C,
00A6008A,
0078008D,
006D0022,
00D100BA,
00AA007B,
002E0077,
009C003D,
00C10076,
00B30066,
00210070,
00E6007A,
00A60037,
00D300E1,
00EB0078,
003A00EB,
006A0008,
0059004D,
006A0027,
001C0039,
00A80090,
00750030,
002400CA,
00000098,
006D006D,
00210035,
00B80015,
00DE00B8,
005D0072,
008600AC,
00D1007E,
00A000AD,
009200D5,
009700CE,
00B60014,
001C0055,
004900DD,
002800CE,
00D20055,
002E000B,
00CE0076,
00E20000,
00110048,
00B4006C,
009200DD,
00090004,
00660021,
002A00E0,
00B00028,
00E0005D,
00DE00E1,
003D0029,
0019003A,
00A60082,
00230012,
00490000,
002A00AD,
002200C5,
00550085,
00A3003C,
00D40014,
00B80059,
008D00D5,
00E200E8,
00C500ED,
00B300DE,
002B0035,
0095005D,
005C0057,
00670083,
00960081,
006B0099,
009100C5,
00A8004E,
00DD009C,
00210034,
002B00A0,
006A00E8,
0037004D,
003E0062,
007400B7,
008C00CD,
0032002C,
00E400E2,
00A700D9,
00550099,
000C0081,
00580083,
001700EE,
00970041,
00340058,
00600010,
00720083,
00E4002A,
00CA0025,
00770051,
005A00A1,
00BE0052,
005800C3,
00240079,
00EA00B9,
0057008E,
00C90091,
00CE0035,
0060008E,
00B90016,
003E00E3,
00280062,
005000DB,
00D00097,
003A0089,
00CE00EE,
003800DA,
00C700BA,
0001001A,
000C007B,
000C004D,
006B005E,
00C90002,
005E005A,
00E500D2,
00960055,
00500034,
000E0013,
009E0077,
00610053,
00970058,
008B0071,
00D000B1,
00EB006D,
0001005E,
005E00E9,
004500DA,
0074002A,
004500E3,
008900DA,
002C00BE,
0083007B,
006100A8,
00B10010,
00B500C3,
00BB00E7,
000D0083,
009C00D3,
00000022,
00170020,
00810038,
00A300A1,
0020000C,
003D00B1,
00C1005E,
002600CA,
002E0065,
007200E8,
008500D2,
009D00A9,
006D009D,
0040007D,
00570041,
000600DD,
007C001A,
00E3005B,
007A0062,
00E9005E,
000D0016,
00B6001A,
00960010,
00B600D0,
00CE0071,
00240049,
00660041,
0048008E,
00CA00B8,
00E300C5,
00E60063,
007300B9,
008A0014,
0039004C,
001E00C2,
00A700C4,
001B0000,
00350031,
009E00BA,
00AD0030,
000000C1,
003000B3,
00C50063,
00220002,
00C7003D,
00D2008D,
00100025,
008000E4,
0087009D,
00C20050,
005700C0,
00AD00DC,
001C0062,
00E60053,
009C0025,
00A2001C,
0061004C,
002300E5,
006200D2,
003C00D1,
00D10007,
004700C7,
001A00BC,
000C0091,
00A6007D,
005A002C,
001B00E8,
00360027,
001C0078,
00E800DA,
0036003D,
00BA0009,
00B90022,
00060095,
000D0020,
00D70014,
00EA0016,
002C00B5,
00BC009E,
00B7004E,
001C008D,
00980024,
008000B6,
0041003D,
00AE00B6,
00610099,
00560001,
000200B8,
004000D9,
000C0069,
00AE004C,
00AD0069,
00BB0013,
004900BC,
00D100BE,
00110098,
001E00DA,
0037003E,
007700BB,
003B004E,
00830039,
00AC000A,
009C00C2,
004B00A4,
00BB00A1,
008B00A4,
0034002E,
00EC00B0,
0046007D,
009C0072,
00E200D4,
009500A1,
00B70073,
00DB00C9,
00B80016,
00040063,
0052009D,
00190061,
00C100DA,
00BE00B9,
007100ED,
002A0037,
00C50069,
00DC00CA,
005A00CA,
00660019,
0082004C,
00D30025,
007C00E2,
00C800EE,
0056007E,
005200B6,
004100B3,
0055005B,
005E00C6,
0098006B,
009C00E2,
00110019,
00C900A4,
009E00E5,
00B5000B,
00B600A7,
00A80065,
00CA00D5,
008E003B,
00040035,
001B0099,
0058004D,
0040008E,
00C60094,
00860066,
00590093,
00260010,
00680014,
000A00EA,
00850037,
00610030,
001800E1,
004E002A,
00E600B3,
003D0071,
00CE0005,
00C0001A,
00BD00A1,
00B9009A,
002C0091,
00B9004B,
00A90002,
00A900A8,
00440049,
00E90045,
00BD006A,
0069000D,
001E0053,
006900CB,
00800033,
003400C7,
000D00D0,
00150048,
007B0015,
00C10063,
00D90034,
002A003C,
00300085,
00D20065,
00D8008A,
009600D2,
005300B4,
0001005A,
00780050,
00B40095,
0086006B,
002900D6,
004E0039,
00830094,
00E800EB,
007A0061,
003500AC,
005D0014,
00A60047,
00BC00B3,
00C6001D,
00DC0068,
00B200EE,
00D80081,
00AD0013,
00750007,
00C000E9,
009200AA,
00700099,
00C30057,
00E700D8,
00760084,
009600A6,
0091007D,
005100D4,
00B800A5,
006D0004,
001E00C2,
00720003,
00000066,
000B0077,
00E300E8,
000C0035,
00BA0027,
00AC000D,
00310052,
00E5006B,
00460006,
00340064,
000A0000,
009C00A8,
004A0044,
001700A0,
009D0060,
009B0010,
007E00B5,
000300C7,
006000DB,
000E0028,
00640067,
00830090,
009200B3,
00D000E5,
0014005E,
00BB008C,
00C600ED,
000800E8,
00520068,
005900BE,
00D10099,
001600CD,
00870009,
005500AB,
005E0082,
00D000B0,
0028009D,
005D0002,
004100B7,
009E0093,
00D30080,
007400DE,
00B500BB,
00590074,
003D002C,
00D900D3,
001A00C3,
009100BB,
00DB0023,
006E00C6,
001A00A7,
003D000C,
00940056,
000B001E,
009400DE,
005C00A3,
0046002C,
002A00A6,
00B600E6,
00D300AE,
00210021,
000200BB,
009C0070,
0021005B,
000B00E2,
006E0011,
005B009E,
001300D8,
0047003C,
000300B9,
004A0031,
009A0039,
00CC0005,
001A00C8,
00550019,
00480074,
00080019,
004900E4,
00970039,
005100C0,
00360007,
0018001D,
0010004C,
00050066,
00150071,
00820026,
002E0035,
0068008D,
00080056,
002900C1,
0068002E,
004000A4,
0046008B,
007C00C3,
001D0020,
00280070,
00B40064,
001700B4,
003E00ED,
004100A4,
003C00E6,
00E30010,
00BB00A6,
00280016,
00B50054,
003700D4,
00CD0071,
00710073,
0087007D,
00C3004E,
00D20099,
004100A3,
00CE00AB,
00CE007D,
004B0066,
008A0010,
00230006,
00A000B5,
00E300E2,
003600EC,
006100CE,
000A00CA,
00D700CB,
002C00A1,
00120027,
003E005A,
00270063,
007D00B7,
00D4009B,
006300D8,
008B00C7,
00E700EB,
009C0059,
00520069,
0013008D,
0059007C,
00C40007,
00880050,
00690000,
001D00D2,
00760065,
002000D9,
00140055,
00470012,
000100A6,
0067006D,
00D2004C,
009D00E4,
00BB006D,
0017008D,
00E40093,
00A40052,
000D0002,
00450026,
003D00D4,
00D00005,
00C000A9,
00A500DD,
0008007D,
003D0006,
005200C2,
00310057,
00B30080,
00170016,
003300C8,
00400005,
00440087,
00C80049,
000900E4,
0095006C,
00570070,
00C1009D,
006B0099,
00000068,
003B0058,
00D60048,
00D300E4,
00990069,
007900C9,
00320086,
00260088,
000D00C7,
00B900A5,
003A0004,
007C00ED,
0063005D,
00DB0088,
00840091,
00BB006A,
009500EE,
00ED005A,
006C008C,
00D30013,
00D300EC,
00D6007A,
0082006E,
00DD0023,
003E00A3,
00C0003E,
00AE00A6,
004500CB,
0060000D,
00420061,
00E300A4,
0091004D,
00C300E0,
000300BB,
0044000C,
002E0025,
00A00006,
001E003D,
0054004E,
0077005C,
007E007D,
00C0005D,
00ED00A3,
00640066,
00660067,
008700E1,
000B00BC,
00CB00CB,
00BE0030,
005A0066,
009B0030,
00E100E9,
00700084,
00DC0073,
00A7001C,
003200B8,
00540079,
00D2005C,
000900E0,
005E00E6,
002A0089,
008400AD,
004400EE,
00BC0026,
00410037,
00C9007C,
00A2003D,
003E00C9,
00190023,
005000ED,
00430040,
002B0083,
00B30098,
005000D3,
008C0064,
002C0017,
003200AB,
00AE0058,
00BC0089,
00C100A7,
004C00AC,
0000001A,
007E0033,
00450013,
008C0014,
00E000C9,
00D4000E,
0055004D,
009A004C,
0013004B,
00710043,
00140011,
00480025,
003100B5,
000900DD,
00A10075,
00CB0063,
0082001B,
004800A7,
005B002E,
00860048,
004A0074,
001300A9,
00A40072,
0081004D,
000E00A4,
00C00052,
00BB0029,
00DC0001,
00ED0021,
008B0080,
00950040,
0023008A,
0046002E,
00ED0041,
00C60055,
00E1005D,
00B100B0,
008D0072,
00B300EE,
00DD0085,
004400B1,
00CE001A,
0051006C,
005400AA,
000D0019,
000A008A,
00000094,
00DC0028,
000C0020,
00140033,
006B00C9,
009500C0,
00EE001C,
00390074,
00A30049,
00CE0043,
005300B8,
008C008A,
007B0029,
00EC0049,
00D500D5,
000A0013,
00720064,
00110080,
00DC00B1,
00020000,
007B006B,
0095000B,
00DC0050,
00B200CD,
004E003B,
00AC00CB,
00CE00A6,
009E00E4,
004800CC,
00EC0006,
00BB0010,
00700018,
004A00BA,
00500042,
00530037,
00650075,
00B8003D,
00030049,
005D00E4,
00480088,
00DB00EA,
005A0071,
006D003A,
00EB0077,
00490083,
00C80059,
00A90084,
0003009A,
00C700C5,
00A60051,
00630000,
0013001C,
004E0038,
001D00A7,
00D90034,
002500C4,
00C10065,
008C0021,
00A1007D,
00BB001B,
00BD0093,
005C005B,
00C50087,
00DE001E,
003A00E8,
00DE00D3,
00E200C6,
0001009B,
003000AD,
004D0071,
00CE0075,
009A009D,
004B00D3,
001E00AA,
00E900B1,
00770089,
00E900ED,
001E0037,
00CB00A5,
003800CE,
006400B8,
001C0066,
00460077,
00620068,
001C0034,
004C0057,
005B00DB,
004B00C6,
00DB006D,
000E0083,
00D6000B,
00E9005D,
00DE00AB,
00210094,
001C00E7,
005700C0,
0012005E,
00230036,
00C60098,
00380035,
0032001D,
00800070,
00C20026,
00690089,
00A20079,
00B10044,
00DA0037,
00700048,
009C00B0,
004D00B9,
0089005C,
00C8005A,
00DE00B7,
00DC0062,
002900B7,
002200DB,
0028000E,
004C00E0,
00B10005,
0099001B,
004B00B1,
00060056,
00050079,
00840062,
006D0099,
0063001A,
002A0023,
00BA0075,
00E90005,
000200CB,
00EE0005,
007100E2,
008200B2,
00380082,
00D500A1,
00E90090,
006700E6,
00B8000B,
00A50072,
003D00C5,
006500B8,
00B200D3,
007A0096,
005E009E,
0049002E,
00C500EB,
00480023,
00CA0045,
00620012,
00CE0000,
00760077,
00560037,
009E00D1,
00880075,
00D3009A,
00400013,
00A100D7,
0002008B,
00B7005B,
004300E7,
002A0032,
00E1000B,
008700B9,
00C90060,
004E003A,
00A00002,
008B00B0,
00D200B4,
00AB009C,
00390040,
00CA0035,
00CC0095,
000B00D1,
00B400BA,
00B800B5,
00920024,
00690080,
0007004D,
00E90083,
00A90089,
00120095,
00C500DE,
00630053,
00540082,
00E400D9,
00690039,
0051007B,
00B90059,
001400E3,
002600E6,
009E009C,
008C0075,
00D80042,
00E400B0,
004A004C,
00DA0048,
004400A5,
00D800C3,
007C0024,
00CC0012,
00760076,
00E10055,
009900A0,
00970098,
006C009B,
00DC00A5,
00C3004A,
005700A2,
00E100A3,
00CA0093,
00E5008C,
00E30007,
00B50015,
0056003B,
00CC001A,
003E00EB,
008E000D,
00960041,
004E001E,
00BC00D5,
00E10088,
0087000C,
003C0039,
00E100E4,
00470088,
009B0005,
007C00C1,
00C300A4,
00580085,
00270062,
007600DE,
00180051,
00110019,
006C0088,
005E00D1,
000D00DD,
007400E1,
007C002E,
002D004E,
00D5000C,
002700C5,
00AA0056,
001900DC,
003600D7,
002D0000,
00210097,
004C0078,
00550098,
003800D3,
00A000A1,
00CC0002,
00690014,
007A007D,
00660048,
00C80082,
006900B7,
000E000A,
00A600B2,
004B00D1,
00CE0011,
00A800B7,
006D004B,
006B00CE,
0018005C,
007900B9,
00620068,
009B0041,
00350077,
0034000B,
00C20072,
00A1001D,
00B60035,
0037003C,
00570088,
00A00085,
00C10086,
008B0064,
004A00CB,
00C30035,
00860017,
00290093,
00240010,
0054005A,
00E80022,
00280012,
0027005C,
0055006B,
00430052,
007B0009,
00B40098,
006D00ED,
00010064,
00880044,
00D90056,
002000D5,
001100DA,
002D00E7,
00D800C7,
00C300EA,
00BA0049,
001D00B6,
008A0072,
000A00D4,
007B002D,
00110022,
00470095,
00B20084,
00E000A5,
00DA00C1,
00AB0008,
0058003D,
007A00B9,
008200D1,
00E10025,
0027008D,
000D00A3,
00C500E0,
0025006C,
005B00A1,
00B800E2,
009D0034,
001700AB,
00BA004A,
00D700B6,
003C00A8,
000400DD,
00A5004D,
00340048,
00EE0062,
006D002D,
00CC0054,
00C20026,
004900E1,
001100E9,
00D10059,
00C30018,
00E20098,
00680040,
00120040,
001C0048,
001000A4,
005800D3,
006900B8,
000D0082,
008C0068,
00A5008E,
009100DB,
002B0020,
00660014,
004D0026,
00C4003E,
00AB00B6,
007B004D,
00D20019,
0038005D,
0007002D,
00AC00E5,
008000EB,
00EA0087,
008C0059,
00EC00CB,
00BA00C4,
004400D5,
00B70032,
009E0042,
009C0081,
00B6002A,
00EA0009,
008B00C7,
0077001E,
001600BE,
00E40081,
00230048,
00AB000B,
004C008C,
001600DC,
00640074,
00CC00C2,
000400E0,
004C002D,
00AB006E,
004700AB,
00570056,
003000B2,
0096008B,
00BB005A,
00A10069,
006C00B7,
001B00AC,
006D0081,
006A0075,
008400DE,
002E002A,
0099009A,
00810075,
004D002D,
008400B4,
00D000D1,
00B500A7,
00E300DB,
00010065,
00620045,
00CC00E2,
00EC001C,
00970094,
0092006B,
00040010,
00E300E3,
00C7007E,
004C00D4,
00510072,
00A50069,
00C20054,
00A500B9,
006300D0,
00110044,
00380015,
00D70053,
00EE004E,
003B004E,
00A3006B,
00B700D2,
005400AC,
006E00C7,
00240099,
005A0096,
00CB00B1,
006600A1,
00380099,
00EE004B,
00770061,
00430014,
00630055,
008B00AD,
00EB00AD,
004A003D,
00D50046,
00890097,
00820090,
004D0014,
00BB005E,
009D0030,
00E8007D,
00E400DE,
00520008,
00D800E1,
00B80066,
002A00A2,
00D1002D,
008C00B0,
00900003,
00960042,
007D005E,
004100A9,
00CB00D2,
00B3005C,
00B50075,
00D100DC,
003D0035,
0033004E,
00540025,
005A00D4,
005000CA,
009500B2,
003300E6,
001B0005,
007000CA,
007C00C4,
00A70099,
000B00D9,
006B00C3,
00A000A6,
0058006C,
00790086,
008C0002,
00A60040,
00290030,
00B70003,
009A0025,
0045006B,
0017008D,
000D0047,
00480069,
00560067,
00C600DC,
00BC006E,
00020005,
00110069,
001700B7,
008D0009,
0088000B,
0088005A,
009E00D8,
008A00D9,
00C00047,
000300A4,
00DB0034,
003300C9,
00DA0044,
009E006D,
000100C3,
009800E4,
00A500D2,
003900BB,
00560072,
004A0043,
00300095,
003A001A,
007300BC,
006D0087,
009600C4,
002900D7,
00820068,
002A00CD,
00740019,
00C60027,
00290067,
004C00B8,
002E00A1,
003100A9,
00030060,
005100E1,
001800D1,
000600CD,
00970013,
004A0002,
005400A7,
00D20053,
00D90047,
007A00E4,
000D00CD,
00650096,
00D0000E,
0087000B,
0057005E,
00A0009A,
009D008B,
00E800D0,
0085002C,
00A600E0,
00BA00E0,
00370030,
00340069,
0055009D,
00A9000B,
0006000B,
009B004E,
005700E6,
00160058,
00E20007,
00D6006D,
00970088,
00A000A4,
00D3003A,
004E0040,
0067008B,
00A500B7,
00D2007E,
00BA00BE,
00930026,
006E00DD,
00E50098,
0008001C,
004B002D,
00D9004B,
001300A9,
00170073,
00EC005A,
001D00A7,
0096007B,
00A70055,
00060029,
008000D1,
00B10091,
009900EB,
00080061,
00AA00C8,
002D00C4,
00E400E3,
0093000D,
007A009B,
003400EB,
009700D4,
00330015,
00390055,
007C0058,
00AA00B8,
00D50094,
00AE00EA,
001A0084,
0040009A,
00EC0012,
000C0071,
00100046,
004000B7,
00EE0027,
005700A7,
00A90041,
003000C1,
00D300D4,
00E60079,
0057003B,
0082002E,
00B3007D,
008900BB,
00E30002,
00040011,
009E00D1,
008D0063,
00AB00C9,
003900D5,
00EA000C,
00090014,
00C0000E,
000600D2,
005700D7,
008800CA,
00C500D0,
00C10053,
007E007D,
007500E3,
00950040,
00E40084,
00CB00DB,
00B50024,
00080050,
00AE007B,
00080023,
00A80013,
0066004C,
000E0009,
004400AE,
00B10005,
00EE0003,
00CA0089,
001B0069,
00960081,
00EE0034,
007600A3,
00570000,
0001004D,
009A0048,
00DB00A8,
0049004B,
002400DE,
00A900DE,
004B0035,
00430098,
009D0066,
00C400CA,
00420052,
007500A8,
006700C3,
00D20071,
000C001E,
007600AD,
00070038,
00D00041,
005A006A,
005500AD,
00AC002D,
008E0059,
0087008A,
002B00CA,
00880063,
00CC0088,
00BC0093,
00AC005E,
00050010,
0003001D,
005A00C6,
006C001D,
00EA0099,
002D004D,
008900CD,
00080071,
006000CC,
000B00CB,
005500EA,
0057005B,
008C0042,
00B90089,
00D600C6,
00E50036,
00B30009,
00410045,
00690038,
00BB003E,
00490036,
00BD000D,
000C004A,
00B5003D,
0095008C,
007C0087,
0029004D,
0060008E,
001400AD,
00DB00AD,
00770029,
001D0066,
004B00A5,
00ED0056,
00B20031,
00900081,
002A0099,
009800C0,
00EC005A,
000D005B,
00CB004C,
00CD00EA,
001D001C,
003300E8,
0028007C,
00240088,
0062007D,
00E7000D,
002200AD,
0033007D,
00D900C0,
007800E3,
00B000E0,
009D0024,
00A80073,
00080091,
00A50097,
004200AD,
000400BA,
00030010,
00B40060,
00530065,
00AD0030,
0075001C,
00CA0082,
006C00DC,
00C300CC,
0081008D,
00DC00DA,
00CA00C7,
005700D4,
00450058,
00770061,
001500EA,
00410087,
00CB004A,
0085007D,
007800EB,
008100C3,
006C001B,
0004001C,
006B0041,
00C500AC,
00BC0018,
00C60068,
008800E4,
000E0069,
00D30067,
000B005D,
007300CE,
005600BB,
003B00E7,
0049007C,
00C700A3,
000D0009,
00BD00DB,
006500B8,
007700B7,
00540019,
0008009D,
005000EB,
00100044,
00480085,
00E2009D,
00560037,
00090044,
00200008,
008E0019,
003200E2,
00E1002E,
00860069,
0054003E,
0067005C,
005100CC,
0074008B,
00680027,
004B0012,
00B8001D,
0002009D,
00DC006B,
00B300E3,
003C0059,
00C300B8,
00850015,
00400022,
003A0040,
00BB0008,
0079003C,
00A90019,
00D2005D,
0033003A,
0078008C,
00EB007A,
006100CB,
00C00026,
002E0020,
000B00C2,
0038003A,
003A00A5,
001100A4,
00D400D7,
00040005,
00380033,
0066004C,
005E000D,
0093006A,
008A00E5,
009B0070,
008700BC,
003300A5,
00E00004,
008800EE,
00550062,
00620077,
00410039,
008D0016,
006E00AD,
002D00D6,
00A800D7,
00460002,
00EB0078,
00B500C1,
00B9009C,
009400E9,
00570035,
007C0075,
0033003C,
00890033,
004B0082,
00020094,
00A5001B,
0033003A,
004A002E,
002C00D2,
00390007,
004A00A6,
00E100B3,
00140050,
006A00E5,
000B00DD,
00E70053,
00010052,
0028006B,
007200B2,
00050011,
00C9004B,
0022002E,
00E400CC,
00EC008D,
00690070,
00D300DD,
008100A7,
00A00007,
004C0061,
00810003,
00250006,
003C0030,
0089005C,
005B00AC,
00780005,
009D0021,
00140034,
003E0090,
0039002D,
008B008C,
00D000DA,
00BC00CD,
00DE0056,
005B0020,
008B00B2,
00D00064,
00550024,
009000A0,
002300EA,
00900028,
00470077,
00040080,
00D20053,
0015003B,
00A600E4,
008E0037,
003C0082,
00700006,
003D0047,
008D006C,
003A0096,
001D00A3,
00C10077,
00E2002B,
00640080,
00C90078,
00E0009E,
0086003E,
002D0018,
00AD007E,
004B0005,
00B70037,
009400D7,
006A00AE,
00E0005E,
00D8005E,
0039002B,
002000A1,
00B400EA,
009E0086,
003C0068,
00060084,
0086003E,
001C0070,
00790026,
00D70010,
001800A8,
00830013,
00160025,
003C002A,
00C70051,
007800CA,
003A0057,
00DB00D7,
008A003E,
009D000D,
00710004,
00350028,
00DD0040,
006800ED,
00D8007A,
00E500A6,
004B0049,
00680098,
00610094,
00BA0066,
005C001A,
009C008C,
00650027,
001200A6,
004D002D,
0027007E,
00B80088,
005100E0,
00330030,
00B100BB,
009A00E3,
004000CA,
00740074,
005A005A,
007C00BC,
0012008A,
00CC0039,
00A100C2,
00E500C2,
00970097,
005200BE,
00040034,
003E009C,
002900D2,
0094002E,
006400E0,
006100B0,
0063005B,
0060001A,
00290010,
008D0002,
00E60095,
000A00BB,
003A002E,
00E90058,
00BE00E0,
00C50079,
00640053,
00D10057,
00E30023,
00D70030,
0000003A,
00BA0051,
00E70013,
00C0003D,
00BB0053,
001C00B6,
00C50073,
00040005,
00DA00D4,
0052005E,
00050023,
000600E5,
004400CD,
00230083,
008A00C4,
00DE00D8,
00240085,
006B0036,
0027001B,
005600D7,
00B50018,
005500BB,
00BC006A,
00B50052,
00A500A7,
00150047,
008100A3,
002E00E2,
00B80054,
00BA00E8,
0062004C,
006D00CB,
00A00004,
003200B4,
00670063,
00D400DD,
00CA0053,
009800B7,
00EE00E4,
00110037,
00B10089,
00210058,
00AE001C,
00A10048,
00A300C7,
008700DA,
00760045,
00EE0013,
00C000C9,
00E200BC,
000C0052,
004800C4,
00ED0081,
000E0079,
00E00040,
0034000C,
007A0063,
0038001C,
008900AC,
00D30071,
0014009D,
008E0082,
00470046,
00E500C8,
009B0044,
00550035,
00B600CC,
0073000E,
00900091,
0061005D,
00050062,
00EB0010,
00830006,
00D60096,
00140029,
00A5007E,
005D0051,
001100CE,
00B700D3,
001A0003,
007D002C,
007C001D,
00160020,
00E80011,
0046008A,
002300B7,
00DA008C,
000E00BD,
0059003E,
006700BA,
00AD00C8,
00920083,
003C002D,
00420000,
00580048,
006B008B,
00B500A2,
00BE00D1,
00B200DB,
009100E9,
006500EC,
002100AD,
0048000E,
00330002,
00A9003D,
00E80048,
00880051,
00EA002D,
00E40040,
00520089,
00600062,
000B006C,
003800E1,
005C0087,
007000B1,
00A9000A,
00D00094,
00980051,
0099008D,
00890043,
00D4004D,
0045002C,
005B000D,
00BA00A4,
000B000D,
00640091,
00C30078,
003E00ED,
00A0000E,
00E30013,
00060008,
00080066,
007D0090,
000B00C2,
00B100C6,
006C007A,
00B000A2,
00A50054,
00B900A0,
003600D7,
00C30081,
002400E8,
000A00D6,
00300005,
00CE00CC,
008C0008,
0014003E,
00C400E8,
0074006B,
00190042,
00500070,
00940089,
009300E6,
005A0010,
002A009E,
004400A4,
00BA0097,
00C000C3,
00790081,
00B50010,
007600AB,
00AD00B1,
005C00A8,
007500DD,
0041008E,
0060002A,
0094003D,
00ED005D,
00D1002B,
002400DD,
00A90081,
00190056,
00A9003C,
00C00074,
00880080,
00D30082,
00E100B9,
00930090,
00320025,
00530003,
007000A3,
001100CA,
0067008D,
00CE00AC,
006E003E,
00B90039,
00600095,
007900A3,
00B80027,
002200B5,
0025000D,
00DE008D,
00740032,
005200DB,
00680012,
0040003D,
005400E1,
00C0007C,
00720018,
00CD009D,
00E30093,
00CB0045,
006A0098,
00600082,
002E0054,
00E800EA,
003E003A,
004900AA,
0024009E,
0074005B,
00350044,
00720073,
00DE0098,
00CD002C,
00080001,
000100E7,
00650087,
0016006E,
00120079,
00680084,
005500D8,
00D4006E,
00A000D0,
00430091,
00CE00CB,
00B3009C,
00E80048,
00750074,
0063003D,
00320074,
004700A2,
0078006B,
006B0006,
009800D6,
00A700B1,
00310042,
005A004A,
001E00B0,
00C90044,
00160052,
002600AA,
00A600A2,
00210067,
00A80038,
00DD00CC,
00270088,
001300A2,
00380022,
002D00B9,
00040002,
005D0032,
005A0091,
00C60018,
00ED0039,
00420045,
00120058,
00230031,
00B30050,
00D0005A,
001400D9,
0074004D,
007800D8,
0085007C,
00490013,
00CD0033,
00E10009,
000D007A,
00CC00DE,
00B70069,
00910021,
00600058,
009200AB,
00E8001D,
0054001A,
00C6006D,
008A0048,
005300D8,
00C60045,
00A80049,
00AA0004,
00DE0040,
0063009E,
005600E0,
007A0048,
00630010,
00AA0062,
00E70093,
0086007C,
00400019,
00E40050,
00560070,
00ED0035,
00150053,
0016001A,
00640001,
00050082,
00D600B3,
00A50017,
0030009E,
000B0051,
00C10043,
008E0089,
004600CC,
005A0088,
002100D3,
00A10039,
00A000D6,
006A00BC,
00B200D6,
003B0049,
002B00EB,
00370066,
0092002B,
00B900BE,
008D0056,
006E0002,
00860089,
00650039,
006400C6,
001500B1,
006C0024,
00920015,
00B300B9,
00AE00DA,
00B30037,
006A0057,
004700E6,
001D00D9,
00400089,
00A10073,
00B20000,
002D00EC,
00DD00D2,
004300A7,
0026005D,
001E0010,
006300B0,
005B0034,
0064002D,
00BE00D5,
008D0030,
00E30072,
005A009A,
00680073,
0072008C,
0058009B,
00E200C7,
005D0026,
00980091,
00D500C0,
000A0099,
00DA00BE,
00580011,
005A0063,
00B3003A,
00130020,
007B0053,
00170029,
00410011,
008300EA,
004A00ED,
0017004E,
00280018,
000C002D,
006A0097,
00C200C6,
00610085,
009B00A2,
00000010,
004B0070,
005700DE,
005300D1,
00BB00C2,
000C00DA,
00030078,
006300B5,
00260069,
00E8001E,
00B50014,
00390038,
003900BB,
00920017,
00E10000,
007600D9,
00B6005D,
004A00C2,
008300D1,
00AE0033,
008B007B,
00E800EC,
00A000D6,
002D0027,
00DB0099,
00100008,
00D600D8,
006E0070,
00950055,
007D0095,
00DA008B,
003E00DE,
00E1000A,
00E400DA,
00B600D2,
009D002B,
0086005A,
007E00E5,
00C900AA,
00EC00E6,
00E80019,
0098002A,
00C90063,
00DA00AB,
0084004D,
008C0037,
00A9009D,
001900A4,
00DE0072,
00AE00EE,
00220086,
001D0039,
00B900D8,
00580005,
00730076,
00BD009E,
00D800D5,
00D20072,
002D00CE,
0017000E,
00EB0022,
000700DB,
00AB0051,
003A00A7,
00E9005B,
00240039,
00C90030,
0044008C,
00400051,
000B0058,
00BC0007,
0089006C,
002A000A,
004800A8,
00C60080,
00880086,
00A90039,
00D70011,
00EA00B0,
00850011,
007D00E8,
00D700B0,
0070004D,
00760052,
00E200A6,
00AA0010,
007500C8,
00D300BC,
00AB004C,
00650024,
005200ED,
0060004A,
00990044,
00DE00D4,
008000A7,
00BB007E,
00A5008C,
005E007B,
00800072,
00C400A8,
005B00A3,
009900CA,
0023004B,
002700A0,
0088000A,
002200E4,
0076007D,
002D0060,
00850093,
00B30028,
0092003A,
005400D6,
00D70047,
00400045,
00C10008,
0083001B,
00C7001E,
00860082,
00BA00D0,
004300A0,
00070098,
00A3006A,
0076004D,
0042003D,
00780048,
00540069,
008200D3,
00D00039,
00E100EC,
00110065,
00800011,
00EE0067,
00D60015,
00C300DD,
00630044,
006100D3,
00590015,
0066008C,
00640029,
00ED00DD,
00D500B1,
00170018,
00EE0075,
00A7008E,
000D008A,
006B00A2,
006300D2,
008700B9,
0060008D,
009E00D8,
00460097,
002B0002,
00870023,
007400E0,
00250053,
009D0035,
0022009D,
00700067,
00A800C8,
00D400A5,
00B0008A,
00750001,
00890021,
001A0047,
00C4009A,
0058001C,
008700EA,
00B50014,
002B000D,
00B9004B,
00290013,
00C90045,
006500E3,
00E90096,
0029007B,
00B4001A,
00610089,
00490069,
00920095,
005900AD,
003800BB,
00190070,
00B900A0,
00AD0081,
00560086,
00C60006,
00A8007D,
004B0031,
007900A8,
005E00D3,
009300B3,
00990021,
00070003,
008400D9,
004A00B4,
00E40005,
00C0006A,
00470060,
00D40062,
007400CC,
002500E7,
00340069,
00990043,
00A80063,
0005002E,
00E0007C,
00D20095,
006B00E2,
00BE001E,
00A5004A,
003D004E,
006800C3,
002000EB,
00780061,
00730034,
001E0084,
00A40005,
004A002C,
00900037,
0096006A,
00930075,
00140044,
00B100AC,
009600DA,
008100B5,
009A003D,
005900EB,
00AA00B7,
001000E2,
00350088,
00E900AE,
009B00E2,
006300C2,
000600D4,
00AC008D,
00C30092,
006000B6,
00100009,
001200B7,
00AB0063,
0091000B,
00580017,
009C00E7,
00A90003,
00330026,
005C00DD,
00A500C9,
001600C5,
00330069,
0036002A,
002100EE,
00DD007A,
007C0029,
001B000E,
00C5009A,
00170004,
0079002C,
00A9007D,
006D00E8,
000A00D4,
001E00C0,
009400E5,
002900B5,
009A009E,
00100032,
00890048,
006700E6,
000E0085,
00440076,
005E006A,
00AB00C4,
00C600B3,
006800E0,
0008003A,
0076006D,
00310028,
00C10071,
002B0003,
005C00E3,
00EE0048,
00B900BA,
00460071,
00A20074,
00B90096,
007B007D,
00C80008,
00E9008B,
00DA0081,
00B000D9,
00C5005C,
00A200B4,
006200E9,
00080019,
00D80025,
00DE0008,
00530019,
00B90018,
00A800CA,
00B2009D,
009800DB,
008C0054,
006E0036,
003D0011,
007500CA,
00A40039,
00ED00A0,
001D0031,
0052007B,
00EC0010,
0006000C,
000A007B,
00430047,
00780004,
00BB003D,
00BC0048,
00540050,
0064004E,
00200081,
007E00E5,
00B00048,
004B000B,
00860056,
004D00B7,
0032006B,
00120021,
005C0073,
000E000E,
004C00A0,
000100D1,
008C0078,
005700DB,
00DA00DE,
00A400A5,
001200B5,
00E6007C,
00A50077,
00BB00CD,
008C0078,
007E00EE,
006400AE,
00ED0007,
00E700DA,
0027000A,
005B0073,
005A00B8,
00A000C5,
00E80045,
00730002,
00080044,
005E00DD,
00070011,
000D0076,
0024006B,
00B8005A,
0002009C,
00E400EC,
0047000D,
00B700EB,
009D00BB,
0023002C,
008D00C0,
004800C8,
00C7005D,
008D0069,
00940083,
00CE001C,
00E10034,
00B300C3,
00C400EA,
006E006A,
0017009E,
00DC0089,
003A0066,
00DE00EE,
000A0072,
003600EE,
003200E1,
00DE0097,
00860088,
00560092,
00A7009C,
0074006C,
00030041,
006000B8,
00AE00B2,
0075007B,
005B0037,
00BD0078,
00960098,
0007007D,
00E20094,
00420035,
00E50010,
004D0025,
00160013,
00730052,
009300AE,
00EB00D6,
0065006D,
005D00AA,
00D40044,
00610093,
007E0057,
00A60061,
00CB00CD,
006C0044,
0020000D,
00CA004C,
00540076,
00DB0020,
00810022,
00870063,
00880064,
0059000C,
00380004,
007A0063,
001300BC,
00990063,
006E0047,
00BB0054,
008A00A3,
002B0072,
005D00CD,
00A9004C,
00A90052,
00980046,
008A00DE,
00D9002A,
00CD00CD,
008E0095,
00C500C5,
00E100B5,
0071008C,
00C00054,
00940033,
006B00A6,
00ED00CC,
00300038,
001E008B,
00BC0068,
008700C6,
005E00AD,
008A000B,
001200E6,
00B000ED,
005E0014,
0003001C,
00A70018,
00EE00BB,
009700AA,
00800048,
002800A8,
00ED0009,
00DE00B4,
007E00A7,
003C0099,
001A00C1,
00400083,
00DD0007,
00B6005A,
00A000E6,
00D90038,
004200CB,
00460075,
004C00EA,
00AE0092,
00D500A0,
001700CC,
00B10016,
00540035,
00390091,
00C7002C,
00B1006E,
00D9009D,
00950098,
00200063,
003B006D,
00A8007A,
006600D4,
003A0040,
0060005A,
00420090,
0061009E,
00D10087,
00160074,
00B80068,
000700ED,
00B000D7,
001500D4,
008A006A,
004C0036,
007300D3,
00570085,
00C6007E,
000E00EA,
0071002C,
00B6008E,
00AA007E,
00B10058,
005100E8,
00CA0079,
0055003E,
008000B5,
0074004C,
00330029,
004200E0,
00B90080,
00C6007A,
0007008A,
00060033,
00590007,
00DD0077,
00250095,
00E80065,
006200B2,
0008004A,
004600B1,
0080009E,
002000D6,
00760036,
000D0073,
00A100D1,
00A20040,
0044001D,
002600D3,
00CE00EE,
00BA00AC,
00940097,
00C30039,
002D0056,
00D100E2,
004A005E,
00D200A9,
00C90088,
00E000BC,
00DB0034,
0064009A,
00E40068,
00550056,
0082002A,
00CC0080,
00710020,
0086004B,
00DE00AD,
00D000AC,
00B70020,
00890090,
003A0018,
00C400A7,
00720068,
00D800D0,
003A00D1,
00E6008C,
002B0099,
009400A4,
00CE0039,
00B20005,
00B900D4,
00D900C9,
00DC000B,
00EC0033,
00EB0017,
007700B1,
008A0089,
00660053,
00200040,
003E0060,
008200DB,
008C00D1,
00D3000E,
00B30093,
00EB0025,
001700AA,
001800C5,
00E100EC,
00DB0082,
00510056,
00A70075,
00CC0020,
00AC0085,
0084009C,
0013004D,
002C000D,
0026005D,
001B006E,
00710054,
00C70029,
00BB00A7,
001D0021,
000A0095,
00DB00D6,
008D0097,
00A50017,
004C0054,
0043009D,
00E80089,
006400B8,
00A100E9,
00830096,
00B300DC,
006500A9,
00130009,
00D100CB,
0037000E,
00E100A4,
003400B6,
00D400E1,
007B0040,
00D400C1,
00EB0029,
00440029,
003100E3,
00C10039,
00DA0027,
00B500D6,
0028002D,
00EC0050,
003C0055,
00DE00CE,
00DC0012,
0022005B,
007D0072,
004200A6,
000D00A2,
00C80045,
00610084,
00E70050,
00A60080,
00A30042,
00A60052,
00850049,
0055007D,
00B400E8,
008300DE,
001A0074,
008800BE,
002900D7,
00E10068,
00B400CD,
00C80098,
00EB00A7,
003400C9,
00DB0055,
00880072,
003000BC,
009E00E8,
00D10041,
00D40047,
00E400D7,
00000051,
00170079,
00D30022,
00480015,
003C00EA,
00CB0050,
00510031,
00150085,
0076007E,
004300D1,
0034002A,
00CA0036,
008600B7,
00E50001,
003C009D,
001600CA,
00C50032,
00720053,
0023005C,
00710010,
007800C8,
009700E2,
00C300CD,
002C00BB,
0067006D,
00B20062,
003C00CE,
000400D5,
00E40077,
0032007D,
00C0001E,
00060012,
0061009D,
00E000AE,
004600B2,
001400A0,
0019001E,
00B700EB,
00E7007C,
00700003,
009200B7,
00A5002C,
00160076,
000C005E,
00B600C5,
00B80003,
00D50068,
00B30068,
005A0033,
00020091,
00110083,
002C009D,
00190014,
00C400A8,
008C001A,
00E20038,
00AB0016,
00C200DE,
00CC0090,
005E0076,
00450004,
004B00D8,
00C50047,
00CD00C9,
005400CD,
00410010,
00720055,
006A009A,
00D00092,
00990028,
002B00EB,
008200A6,
00120042,
003A00AA,
00C000A4,
003C0058,
0089001A,
00910017,
00AB00C8,
003300E2,
00A000CC,
00C1007A,
00000085,
00A20016,
0000005D,
0066002C,
00CC0018,
0038004B,
00BB002E,
0030007A,
00850009,
005A00EA,
00450002,
002A0085,
00C3009D,
00E30042,
00B500A7,
002A00D0,
00B20097,
009600A2,
00E20013,
00E60025,
00910089,
00250050,
00D10005,
00C400B7,
00D20020,
00CB006E,
002A002E,
00C1009E,
000E0001,
00110080,
003E0022,
006600C0,
001E0016,
006C00EB,
00A4000E,
00A800AE,
00E20080,
00C0007A,
00190037,
009500C2,
00D500C9,
00B700C0,
007900EA,
00350011,
00DA00D2,
00E000A1,
005800D4,
00700045,
00970082,
0042002A,
00B300BA,
00A100B4,
009000A3,
00D30034,
000400B3,
004800A7,
0027007E,
006900D3,
008000E7,
00A700A9,
00CA0022,
000500B1,
0043009C,
00950054,
00BB00CA,
0085009E,
00E7001A,
00D400CB,
00690002,
000B0019,
00AC00C3,
00B2005C,
00DA00E3,
00B70088,
00CA00ED,
0083007D,
008C003B,
009600C4,
0096003C,
00D300EB,
00420005,
00940061,
00BA0060,
0058003E,
00B90045,
00D000DB,
000200A0,
00D300ED,
00E900B2,
00CA000A,
003700A4,
00E300B9,
004500E6,
00160046,
004A0018,
00C50077,
0029001D,
00D200B8,
0094007A,
00AD004C,
00DD0036,
005300ED,
000C0077,
00D10008,
00900004,
0072001C,
00C100B6,
00AB0070,
00D3009B,
00450065,
00320021,
0073004A,
0058000C,
00C1001E,
00770012,
0081001E,
008300C1,
00E30014,
00D800AB,
00B000A3,
00C70057,
00970087,
004100A9,
00460060,
00640043,
002C008D,
00280086,
006600AE,
0070003A,
005B0097,
00C700D2,
007800BE,
00C2009A,
00C10021,
00B700E6,
00E3001B,
00520070,
002E00B9,
001C0018,
0035007A,
00EA006A,
000B00BB,
0030009D,
006500D1,
00A9006A,
00520035,
00D70037,
00E600DB,
00760094,
00A80072,
00DE003C,
00E40038,
00E7007D,
00510095,
00980037,
004B00C5,
00290042,
006200E5,
00E600C0,
005300B0,
00BD00B2,
00D80013,
006E0000,
00020071,
00C2004C,
00E90039,
00AE0058,
008A003C,
0089002A,
007700EA,
005600E2,
00D8008E,
001B0056,
00D4001D,
008000BC,
00DA0018,
009D008C,
00DB0076,
005E0078,
006B008D,
00DC0004,
00710080,
003100BD,
0021008D,
003B0075,
004E00CE,
006B00C2,
005D0033,
006B0068,
007A006D,
008E0085,
00820066,
00500034,
00D60000,
00C5001B,
00BE00B3,
00950052,
0006008C,
0062003C,
00CA0024,
00E50040,
008B00D4,
005B00E3,
001D00D1,
0083005C,
001400E4,
0029005C,
008B00AB,
00350013,
007C0074,
00CD0075,
004C00BE,
00530072,
00C80031,
002C00CA,
001B005D,
002500B3,
000500E7,
000D0066,
008C00E6,
006500B7,
002100B3,
004700DB,
00460084,
00EB0048,
0054004A,
00CD0012,
00B800CB,
000B0005,
003D0073,
0099006B,
001D0013,
00770029,
000600B2,
000500C8,
00160029,
008000B2,
00250078,
00B700D4,
003200D7,
00EB00A5,
00220009,
00A3003C,
000A00BD,
00260037,
002A00A5,
002000DE,
00E900D1,
000D009C,
00D9007E,
007A00D6,
002E005C,
001A0010,
00CA00CD,
007000B1,
0002007D,
00070082,
002B0003,
009500E4,
007700EC,
00E6006D,
00870016,
002300D4,
0091008C,
006C004C,
0091003A,
001B00BD,
00A6007C,
00470016,
00E40067,
00460097,
0057002E,
004D00B5,
002E003E,
00110079,
000B0010,
0087000B,
00D3006E,
003900E5,
003700E0,
00C200D9,
006C0093,
00D900E0,
000A00E8,
00340007,
00450025,
005C00E2,
00420014,
00070072,
00E00018,
005E00D8,
00310042,
00CC0032,
00470024,
00A600EA,
002A0002,
00E800B7,
004A0063,
00340046,
00DD00DE,
000C00B4,
0058000B,
004100D2,
0091009A,
00950036,
0098006B,
00510070,
00B60029,
00360063,
00B6003E,
004E0053,
001800C9,
005E002A,
00A600D5,
0067003D,
00E800D5,
009E0025,
004B0018,
00E100AC,
00DE00A4,
003800B4,
00270073,
006200CA,
00C7000C,
00C100E9,
008B003E,
00E90052,
008C00AD,
009E00C7,
009300BC,
0025005A,
00E2000C,
008000B1,
00A90050,
00D50048,
00E3007D,
00220038,
00270007,
00D200CC,
005A007E,
0000000E,
00E500A9,
00AA0091,
0071004B,
00190017,
00D700E5,
009700CA,
00040077,
00A6001A,
00B20086,
007A00C3,
00700006,
003E00C1,
007B0065,
00380093,
00410067,
003300BE,
00B70075,
008500ED,
001E002E,
00D60086,
002E0026,
0044008C,
00DC0089,
00480013,
00D100D5,
00180089,
00E40057,
003600B0,
002B0035,
005A006B,
004500AE,
004400D6,
008200A4,
00280087,
00770004,
000A00E1,
0021008D,
00A30019,
005800CC,
00460096,
0091006C,
00160024,
00310047,
005A00B7,
004C0021,
002100E8,
00290013,
00790008,
003C0030,
002E0036,
003200B8,
006B0048,
008E00E9,
003700C5,
006C008E,
00680089,
00900060,
00860097,
00B3003B,
00220095,
00870063,
00750046,
00B300E4,
00EE0006,
00C30065,
00DE0011,
005D0073,
009100D8,
001B0047,
003D0028,
00E300B5,
00850096,
00040015,
004D008C,
0068008E,
00AB0076,
007A0035,
005C00D2,
00810038,
008200E8,
006A0091,
00E10017,
0026009C,
00B6007E,
00140006,
009A009C,
0014009E,
00E6002C,
009A001D,
00B600E7,
00AD0045,
00D0000D,
00070024,
00D200B7,
001D005E,
009A0081,
00660078,
00370011,
007900EC,
00950000,
00A00031,
00AA0097,
006600B1,
00D400A4,
00630011,
00C90001,
00A10001,
00EC00B2,
000C0000,
008B00D6,
003C0000,
00450052,
00060030,
00C40082,
00460053,
00810004,
0097000A,
006C00A1,
006A0046,
00A0006B,
00E300BD,
00E800D0,
009600E7,
00D400D3,
004100A9,
00450088,
009500D2,
00230004,
000A00BC,
005C00DD,
00EA00BA,
003400A4,
00C30078,
00E100D1,
00C600B3,
007400AE,
00BA00B1,
00480001,
00090079,
00910086,
00EA00D1,
003D00D0,
00D50045,
005500C8,
002700E8,
00AD00D4,
00D500C0,
00A20047,
00410024,
00850012,
001A001D,
00800096,
002D0057,
00DA0053,
00CC0077,
00A800BC,
00E2000E,
00C70067,
00E90066,
00B600C4,
0094003A,
004500D8,
0097003A,
0080007E,
00330070,
00410045,
00630011,
00AD0037,
00D200E8,
004B00D5,
00C500DD,
007C00A4,
005A00A8,
003E0002,
00AA00DC,
00BD00C3,
00C600CC,
00780098,
00CC0029,
00EC0014,
0064007B,
00E700A7,
00BD0006,
000300B7,
0009007B,
00520077,
007B0071,
005E00B4,
00D100E8,
00B300EC,
008500CE,
00B4005E,
00820025,
00620077,
00B10042,
00160062,
005500B9,
0051008A,
006B00C6,
00D5003C,
00CC0058,
009E0058,
00590025,
00BE00A0,
00770089,
00650019,
000800A7,
000E00EE,
00D900A9,
00CB00B8,
005E00C0,
0072001D,
00D50080,
0079009B,
000000D3,
005E00AE,
00460027,
007500ED,
009C00DE,
001100E5,
00E70013,
00AC0067,
00900024,
00E900E6,
009000B7,
0084007D,
004A0051,
007A0057,
002C00E0,
006900E3,
009C0064,
00890059,
00E70085,
008800BD,
008C0026,
00E70080,
004D00A5,
001000B9,
000B00EB,
00640090,
009D00EA,
006B0042,
008400D8,
00A300C7,
007C0096,
00CA0043,
001900B5,
004800C6,
003100B6,
001C0088,
00810031,
00280036,
00B200A1,
00DA005C,
0087008E,
008E0068,
0099000D,
00B40093,
00A6000E,
0003007C,
003D0007,
0034004A,
00E8003E,
008D0082,
00D600CB,
00D900D3,
00520014,
00A4004D,
003A00AE,
000E0073,
00C50090,
0003003D,
000600AE,
001E0060,
00310071,
00200056,
001400E4,
007000A5,
00A8007D,
00C700B0,
00A2003D,
00C50093,
00240085,
00DB0078,
009000C5,
001000B3,
008D0072,
00BE0066,
00570070,
003D006E,
007E0063,
007B00D9,
004900D1,
00070029,
005700DD,
003500B3,
00B70008,
003D0048,
0042005E,
00340094,
00BD0076,
00140040,
00E80039,
00390054,
00EA00E5,
009E00B4,
00070034,
003600D6,
005700C0,
002300A3,
00C60069,
00A8008C,
005A0099,
006D005A,
008E0077,
007D0064,
008500DC,
00920093,
002100E5,
005C00BE,
00850015,
003A00E5,
00B300BD,
000100BD,
001A0000,
00280051,
004500D9,
004C007E,
0002006C,
00EB0087,
00490030,
006E0089,
004500E0,
0084001B,
00000062,
00270098,
003E0050,
00C900CA,
00B500C3,
00520061,
00370063,
004A00C9,
00EC00AB,
000D00A4,
00B400A1,
002C002C,
00B60039,
005200A1,
007C00AC,
0084009D,
00020007,
00BE00B1,
00910084,
00460064,
007A009E,
00410037,
00360068,
001A0089,
00210021,
0036006B,
0015004B,
007A0010,
00040089,
0046005C,
00ED0020,
00640042,
00400063,
006200A2,
000E0058,
004D003E,
00E2004C,
00050042,
00470057,
0047002C,
00B200D2,
00B000C3,
00770056,
00490045,
005E0062,
00CB005E,
009B0093,
004600AD,
00B600C0,
00700073,
00860098,
00DE00AA,
00570042,
00C5006B,
00080063,
000100B7,
00A900C4,
003D0057,
00A20092,
00B70035,
009A004B,
000800A2,
00D10005,
009B000E,
005B0023,
00000089,
0048008C,
00EA0051,
004B00A5,
008400B8,
007C006B,
00A8003E,
009C0069,
00100089,
009900BC,
00130068,
004E0067,
00BB0053,
001A0035,
003B00D8,
00E700AE,
001400A9,
00D60000,
00B90067,
00050080,
000E0075,
004D0050,
006E0012,
003C007E,
000E00C6,
005C00A2,
00070008,
008200D1,
00160032,
0080007B,
00C400D1,
00DA009B,
00EC00C7,
00CA0017,
001B0075,
005B0009,
00A2009A,
00D8000C,
00DD0013,
000100B7,
00160037,
003D00DC,
00690049,
00D9009A,
007C0044,
00280047,
000A0090,
0080003B,
007B0071,
00EC00AE,
00500069,
00960039,
003C009B,
00880025,
00190038,
00140081,
003900EB,
00E80003,
00BA00D2,
000000AC,
005C0030,
00B80026,
00800053,
0026002A,
00C800B4,
00B200E5,
00C90018,
001500D8,
00860051,
00CB0061,
007500B6,
00BA0090,
001B0098,
00B20089,
0052001C,
008700A4,
00DC00BE,
0073003C,
004E00D5,
00810048,
00CD00BB,
001100DC,
0088003D,
008A0098,
002100B9,
008B00B1,
005A0089,
008A0024,
006E00C9,
00120098,
002600B9,
00650092,
006700EE,
00C0002A,
006D0007,
002E003B,
00D20087,
002E00D4,
0082003E,
00210088,
00E90076,
00C40084,
0025004B,
00510073,
00B60039,
003700A7,
00CE000D,
00AD0033,
007200A0,
002E002C,
00A400E7,
00E100C9,
0012005D,
003E004B,
0052001B,
00170052,
00E80020,
00770039,
00660058,
00BC00D7,
00BE00D2,
00C300BA,
007D0084,
005D002B,
00EE0059,
004B0084,
00080082,
00D3003D,
005B0011,
006800B3,
00E40088,
00110074,
005B00BA,
00480065,
00D600BD,
001000DC,
00EB008C,
00E30011,
00D20084,
00BC003D,
00A500A5,
00370029,
006000EE,
00E10035,
00360012,
00BA005E,
00E300BB,
00450029,
007E0099,
00330024,
002D003D,
0098008B,
000300AE,
004A00BE,
00A6005E,
00D40024,
000C001C,
009B001C,
00B000EB,
00470067,
00AE003E,
008600A0,
0024008B,
00000027,
005C00D8,
00680024,
00700010,
004500B6,
00850006,
002B0000,
00E90069,
00A70051,
005C00DA,
006B0010,
00C00062,
00A00041,
00660064,
00A8002C,
00E400E2,
006600D6,
00AD0018,
007600B6,
00840037,
0081003D,
00470071,
00B00030,
00CA0006,
00790007,
008E00EB,
008D003C,
00C20026,
00D10025,
00460064,
002B006B,
00870074,
00330057,
00CC0007,
00C500BC,
00A9004A,
008E008C,
0015000D,
00A00076,
00630053,
005C003E,
00710035,
00920005,
00ED007C,
00850018,
000A0083,
00A90020,
002E001E,
00A9006A,
00E000D6,
008000DA,
00090036,
002100A2,
00870061,
003B0015,
0053002A,
00DB0062,
002400B5,
004C004E,
008B0061,
001D00BA,
008C007A,
00E70064,
00870027,
00B3004A,
00A90022,
002E00DE,
008D00AA,
00960045,
00220012,
0081008B,
00E200B3,
00260035,
00C2000B,
0090009B,
00BC0056,
007900E3,
00090038,
00D60053,
00E0000E,
003600ED,
008200A5,
00CD0098,
007D0084,
00B8001E,
008B008B,
00CB003B,
004E003B,
00D30016,
002A0077,
00B800A0,
004A0097,
00410077,
00E600EB,
000C0027,
007C0089,
005700BB,
003500C3,
00180001,
00730072,
00C40020,
00BE0079,
00D50066,
006C00BD,
006A0084,
008C00D9,
00DE0058,
001500A3,
0033005C,
001400AA,
0059005B,
007300DE,
00B800ED,
00A000CD,
0051000C,
00D50006,
00C30072,
00CE009D,
0012002A,
008C007E,
00B300C2,
00950080,
008E00D6,
0009002C,
00D70029,
00B100D1,
0007006B,
00BE00EB,
009D00CE,
00850003,
008E00A4,
009C00B0,
00680045,
00A50038,
007500EB,
001800B7,
003200A6,
00140048,
00EB005D,
00C400D5,
0067000E,
000D00AC,
0019001E,
00D2004A,
00200069,
0044004E,
0026001B,
001A0026,
0007006A,
00630069,
0055003D,
0091007B,
002900A3,
001C00A1,
00080003,
006A009E,
00550018,
00DB00CB,
002300B6,
005E0053,
002C000E,
000600B2,
003100A7,
00C70020,
003C003B,
009E0055,
009E006E,
00A900E7,
002C00C1,
001300C3,
0046008A,
00010011,
00230026,
00BC007A,
00B20046,
00BB00B8,
00C900A4,
005A00B7,
0071002A,
00150097,
00B40020,
00980063,
0051008E,
000500DE,
00630098,
006100EA,
00D600A4,
00A6002A,
0097005C,
007100E2,
001B0085,
00C40036,
00770018,
009C00A6,
00970032,
00C300CC,
00240090,
00C10071,
00780081,
005D000B,
004D00AB,
00030004,
006C0087,
008D00C6,
00250011,
00CB0071,
0057000C,
002800AD,
00780019,
003B0086,
002B00D5,
0045000D,
001C0076,
00180015,
00D800B0,
00C2002D,
0016002B,
00C20054,
00AB0018,
00D2003B,
00CD0076,
00680006,
00120098,
00610085,
00CB0026,
00100086,
00D500C1,
00380067,
009E0067,
0075007E,
006700CC,
00610063,
00D700D5,
00D60053,
007500D4,
002500E2,
00ED0079,
009B008E,
0057002B,
00D500BD,
00C6003A,
006B00EE,
00AE002E,
000C0061,
00D00029,
00690094,
00B90041,
000C00A1,
006400C9,
006600DE,
004A0074,
002200BE,
005400A2,
0039008C,
0048004E,
00090029,
000400B9,
007400C9,
009900E2,
00E10073,
000700A3,
001E0054,
003A0030,
00810023,
0026003E,
0033006B,
007D007E,
0044001A,
00170099,
007B001B,
009C0021,
00CA004D,
000700EB,
00510089,
00C100AB,
002C0019,
003D0045,
00AC00B0,
007E0060,
00C70096,
002E00B6,
001D00E5,
008D0009,
00C800C3,
00B7000E,
00B6007A,
00400076,
001B0041,
00D60005,
009D00A6,
007600A9,
0046000B,
00A0001C,
00560056,
000900BD,
00170018,
0098005D,
00110075,
00A100E3,
00B300BE,
00630049,
00DB00DE,
00CE00A6,
008A0069,
0065001B,
004200E4,
00DA0089,
00480000,
008300E7,
009A0050,
00D20092,
009700A7,
00EE00D9,
008700DD,
00EA001C,
00C1007D,
00A200E0,
008C00AE,
0004005B,
00760017,
003500B9,
00DE00A7,
00C400D8,
007000CC,
00670083,
00590064,
00C1008B,
00A00043,
0088005D,
003100B2,
001A0012,
00C400D3,
008600DD,
00770065,
00430016,
005E0098,
00E50097,
00A9002A,
00AC0083,
000700A8,
00BD0048,
00190028,
00BA00C6,
006600BB,
00C900B3,
000A0077,
00D700D3,
001A0087,
00840040,
00180069,
00B1002E,
00700064,
001B006C,
00ED0003,
00840050,
00240085,
00540037,
002A0039,
00C50026,
00420005,
00E8005A,
00D000E3,
00D10031,
00580053,
00280046,
00D10007,
00080022,
00D200DE,
004D001E,
00A20054,
004D0021,
000700B9,
007E001E,
002E0019,
00DD00DE,
00D800B4,
006400E1,
003C0014,
008A003D,
009700CB,
00B80003,
00550014,
00380079,
005E0079,
001B0018,
000500B0,
0021005D,
009800C1,
00C900AD,
007A0063,
00500069,
000D00A5,
00CA008B,
0065006E,
00640078,
00180063,
0080009B,
0025003D,
0072009A,
007E0028,
00AD0048,
00D40072,
00A20029,
00970098,
00570002,
003D002C,
0022005D,
00BB00C0,
00ED0016,
00B30028,
002200CE,
00920043,
004E009A,
008000B0,
0049002B,
00E50067,
00B0009A,
008B00E7,
00E90056,
00EC005E,
000900EA,
003A00E4,
00E20091,
00D4008C,
00040056,
00450034,
002200AD,
00E20075,
00E600D5,
000A009A,
008700CA,
009600A1,
00E3009C,
004A0007,
00950081,
00B00066,
004E0038,
00D10015,
0000004C,
003C009D,
0071000E,
0046004E,
001A0078,
0079007D,
004B00B5,
00330076,
00800018,
004D00D8,
00670059,
003A0036,
00D7001D,
00B3002D,
00960022,
0019009A,
00630094,
00480046,
0002000C,
00EA0000,
008D00EE,
002700D3,
00E40089,
00260074,
00060020,
0097008A,
00640093,
00D1004B,
00DA00A3,
004D0045,
0085007C,
005D008B,
006E0083,
00A5004B,
00B4008B,
009900A3,
004300B3,
00CB001C,
00A600C0,
005C001C,
00C4001E,
0036006B,
00290091,
003B0024,
00330077,
00B8007D,
001100A9,
00200083,
006D00A6,
00E500EC,
0027009C,
005500D9,
00BA001D,
00A60040,
003A00E2,
00DA0047,
00C10066,
0040006D,
008200B9,
00D10021,
002E002C,
003C009E,
00B40096,
0013009C,
00DA0083,
00650061,
008B0084,
0053006E,
005D00A2,
00230057,
00830097,
00B900E5,
00490008,
0095008C,
0048003A,
006100E2,
00AB0070,
00B3009E,
00A40098,
00C90065,
007E00D0,
00CE0004,
009B0061,
004300D6,
00E60070,
007C0003,
00490088,
002100AA,
003E0097,
006E00EB,
00C100C5,
00CD0000,
00C000C6,
009C00CD,
001000B4,
0090001B,
008B002E,
00D30067,
00710097,
00B300AB,
001C00DB,
00780025,
00DE007C,
00AC0052,
0035000B,
006C000C,
00660032,
00680015,
00DE0099,
00DD0002,
00080061,
00CA0055,
000A00C3,
00080026,
00C900B2,
00ED00D5,
00AB00EA,
008400BD,
007D0079,
006E007B,
00E7004D,
00280022,
005B00B0,
006600E3,
0005007D,
009A0073,
00800037,
00D80062,
002D001D,
00C9003C,
002A0016,
003900AE,
001A00ED,
00C30065,
003D008E,
00770059,
00760075,
00D30038,
003D002C,
00D7003D,
00660003,
006000C7,
001C0014,
00240081,
002C00A7,
00170054,
00590033,
00200025,
0032006D,
001C0015,
000C00B6,
000C005E,
00E50094,
007000B4,
000C0048,
00550019,
00D700BA,
000700D5,
0029000B,
0023000D,
00C7001D,
009D0041,
00AE00AA,
00B00045,
0065009A,
00D4003B,
00660026,
002B00B9,
00E900A2,
00DE000C,
00D70055,
00B900E3,
00A900E3,
00C60007,
008B00D0,
00A30058,
00D300DB,
0073007E,
00B9009D,
003400B2,
00600049,
006A0039,
00C90075,
000100CB,
00220068,
00E0007A,
009800D6,
00190072,
00480044,
00E60091,
00E800D4,
004D00D8,
00CB0020,
0021006D,
00B50060,
00EA00BC,
0008007A,
00A20031,
000B001E,
00B30038,
00A100BB,
00AC005B,
000B004B,
00B7009C,
003C00C1,
00D80049,
00630009,
00580071,
00E7009B,
00190026,
00670065,
0057002B,
00C200D9,
0077001B,
00830024,
006800E7,
00CB00E4,
0092007E,
00B20002,
00C60076,
001200AB,
00BA001E,
00ED0064,
000300C3,
00660089,
00160006,
00520001,
0006000C,
006400A4,
0068003B,
001200C9,
0027009B,
00100059,
000C00EB,
00850050,
00C40008,
006C00B8,
0043000C,
003A00C2,
00BA006D,
00A40035,
00070039,
005200CC,
000E0034,
00C6009D,
004E009E,
004E00AE,
0058005D,
0086001D,
0048004B,
0015003E,
00C3008E,
00BA0028,
00DB00A5,
003B0081,
009700E7,
00E500D9,
00DC00D6,
00D80082,
0070001B,
0024007D,
00D0006E,
00B400C5,
008100BC,
00B70006,
00B100BE,
004C00B2,
00E60086,
00160073,
008B00EC,
00C100AA,
00BB0091,
0081005A,
00A500E8,
00B30090,
00D90096,
006300D5,
0073003E,
007700A7,
00880017,
00140023,
00D10074,
00290042,
00C800C8,
000C0062,
00A4009E,
006C0001,
00900001,
00A6001B,
00C000C5,
00910092,
004900ED,
0032000D,
00C800DD,
005E00E5,
006700DE,
008600A9,
00ED00C6,
008400A0,
00ED003B,
009E005D,
00DE002B,
009A00B2,
00120061,
008000B2,
009C0004,
00B400C1,
008B00A7,
003C002C,
00750070,
006900B2,
006000A0,
006000A8,
00CD00C3,
001E00A9,
00680035,
00AD0002,
000900CE,
00200021,
00EC007C,
001E00EB,
00BC00CD,
004300ED,
004C0056,
00D50055,
0035007D,
00EE005D,
009B007A,
00280072,
00E500B3,
0027000A,
00820095,
00ED002C,
005500B9,
0091005C,
005A0091,
00790036,
0017004E,
0087008C,
00D30043,
002800D9,
0037006E,
00B60065,
007C002D,
00E70028,
00560067,
00A00073,
003300BB,
00DC0045,
0009000B,
00DB0055,
00410070,
008400B5,
007B00C7,
004A00BC,
001500B4,
003D0024,
002B00A5,
00320023,
008B0089,
00930049,
006E0083,
0073005D,
005900BB,
003C0059,
002100E8,
00C1002C,
001800E3,
003E001B,
00DB0006,
004A0053,
001B00AA,
0020008A,
00EE003C,
00100033,
006700D2,
005800C2,
00E5000C,
00AE00BD,
00740073,
0079003C,
00980089,
001B008A,
00D300CE,
003C007E,
00010003,
005B0029,
00DE0039,
00440045,
00B40087,
00A100E3,
00DA0019,
00D000D7,
00A50089,
00AC00BE,
00DE0008,
006300A2,
0035000E,
00CB007B,
00410060,
00B40036,
00B400A8,
006500D7,
008B005E,
004B0029,
00DE0002,
0004005A,
006300B1,
00E200C6,
009E0021,
004D0029,
0034009B,
00720013,
006A0044,
00DC00D0,
004B0037,
00AD0012,
0062001B,
005400C3,
005800E8,
00A700E8,
00AC000C,
000C0042,
00EE00A6,
00E300D4,
00890018,
003A0081,
00C900E5,
0010002A,
00CE000D,
00100087,
0070006C,
0065004B,
0006005A,
002A0008,
009600A5,
0046006B,
00EC0029,
00D6009D,
006A00D3,
00E200D9,
00E800B0,
007700A9,
00B30003,
0030002A,
00C800DC,
00DB0077,
00B2003D,
00C70060,
00DA00EC,
00660058,
00630090,
00D30050,
00840060,
005600B4,
000500AE,
00220019,
0067002E,
0031002C,
00910011,
009900D5,
009000DC,
00E70001,
00E50014,
0081004D,
006A008D,
006800A3,
0026009C,
005C0023,
00DC006A,
00A4001A,
00440015,
004000E5,
00060062,
000700C1,
00130077,
00A3001D,
00E600DA,
008E0054,
001200EA,
00D300C3,
00AC0050,
00730099,
0019001D,
004200DC,
00240019,
00A3006D,
00080052,
004C0076,
002500DD,
0040008E,
00190047,
00BA00D9,
004E00A1,
00220089,
00B2000E,
00A10061,
00A5002A,
00B600D5,
002E00DC,
00DE0034,
007B006C,
00C00051,
00DE0073,
00E300D9,
00880064,
00A800AD,
006200A6,
0028002E,
008800E8,
00200043,
008C00AB,
006100E6,
007300EB,
006500DE,
001C0038,
000B0073,
00DD00AB,
008B006A,
00D60024,
00800079,
00B80080,
00C20079,
00520019,
007900AE,
0092004D,
00720043,
00160054,
00D700AB,
00E90038,
00E000E0,
008C0037,
000C0055,
00E70044,
002C002C,
004C0051,
00770077,
004900ED,
00820071;
