003900BE,
00C200ED,
008D00BA,
000100C0,
0065001C,
006700C5,
006500AE,
0032008A,
00230014,
00D100DC,
00D50008,
007E00C4,
0090009D,
00BE00CC,
00C20006,
00950040,
002300D5,
00820004,
006C00A9,
00A3009D,
004C00BE,
00D50090,
004300CA,
0049007A,
004E003C,
009500B1,
00A30094,
00B60048,
00B0008E,
00EA00C1,
007E0069,
007A0071,
00A100B4,
009B00DC,
00AD0070,
000A0037,
00B70002,
00E90011,
0054001A,
00A00021,
006C0015,
00A70048,
00AA00A9,
00680023,
00820027,
00000079,
00C100A9,
00D500B4,
005C0069,
008D00CE,
00650086,
006B0099,
009800D6,
007D0031,
008B0066,
00840096,
00DA00ED,
00CC002A,
005A0002,
00E900B6,
003B001D,
00BA0012,
00A50070,
00D500BB,
0080008D,
00490072,
006C00B1,
00E60000,
005300AE,
00A70049,
003C007D,
008E00AA,
00D10088,
00670066,
00C700E7,
0074009D,
00730085,
007E0047,
002E0014,
00490095,
00A30033,
00550013,
00570093,
007A004E,
00BC0043,
006D004A,
00A50047,
000600E1,
002D0060,
00C00064,
00D5002E,
007600D7,
000900E6,
005000DC,
007800B3,
00C10075,
0064006C,
00280055,
00600082,
00350022,
00C50058,
00E6000B,
004700DE,
001C008B,
006D0090,
003D0074,
00E90070,
00670049,
002700E0,
001100C0,
000B0080,
00380045,
000D0067,
00030012,
006B0066,
00DC0094,
0045004A,
00EC00D6,
00590000,
002B0060,
002E00E0,
006400D6,
002400D7,
003B0086,
00A5009B,
00C600E7,
00E800BB,
00AC00D4,
003E008E,
00A300B0,
00D400AC,
000300C0,
0031004C,
007200C3,
0040002C,
00AC00C9,
00D8009B,
005E00AB,
003B00EE,
007A0051,
00BA00AB,
00B700E8,
00390079,
006300C9,
00E4001B,
00C40024,
0013001C,
00970019,
0055004C,
00990095,
004800CE,
004800C9,
00310015,
00D000DD,
00E3001B,
009D0084,
005800E1,
008E001B,
004600E5,
0010004B,
00E50000,
00940062,
00B500DE,
00120018,
004D009E,
00BA00D5,
004A00C1,
002A001C,
007E0009,
00D100CE,
00D800D9,
00E20013,
000800D2,
00BE00AB,
007E0076,
003B00E1,
004C00C8,
00380025,
00E20024,
00950043,
007B00BC,
006700B1,
009C00DB,
00860077,
00E50035,
001D0088,
006B004D,
00170009,
00D7003E,
00910000,
00590034,
00910048,
002A0000,
00B900A5,
0027003A,
004400D8,
00D10059,
00D10048,
00680014,
0052002B,
006D0048,
001E005D,
00B10091,
00A90078,
00EA00C5,
004E0019,
00760001,
006100BA,
00EB006B,
00070057,
00EE0097,
008A00E4,
00E00024,
00B500D6,
009600E3,
00710071,
001B0071,
003700D3,
00B10035,
004B00C0,
001B008D,
001C0032,
00490021,
00410058,
00E10004,
002E0040,
00DC0007,
00440021,
00AA0053,
003A00AD,
001E002A,
007600ED,
00B7002E,
002E000B,
00A00094,
00DB0092,
008C003C,
00D60020,
00D20087,
004E0005,
000A001E,
00820093,
00E6002C,
00B40016,
00220008,
00E700DC,
00290045,
007D00C2,
001800B0,
00A400A6,
00E700B3,
00170018,
002900DA,
0003009A,
0037001A,
0070005E,
00B30044,
00360088,
003500E1,
00D70076,
00EB00AE,
0098008D,
00280039,
00D200C4,
00BD0029,
009B0055,
00610020,
00C5004A,
004A00AE,
006000E3,
0053009E,
007A0058,
004E003A,
00680002,
003B0049,
005B001E,
002C002C,
008600AA,
000400CB,
00AA0046,
0016007C,
00D900AE,
00A800DB,
00510096,
009500E8,
00980014,
009600D8,
0059001C,
00940092,
009600DC,
00900045,
00D800AC,
008600A6,
00CA00A9,
00E70082,
00DB0050,
00E700A0,
00A200C5,
00C800E6,
00B600B9,
00E700DD,
006A00C2,
000D00A2,
004E0074,
00CE0036,
005A0095,
00C60034,
00A70035,
005B0058,
009E008E,
007700B4,
006D00CA,
00970010,
003D0066,
00C10027,
005000E4,
005300B2,
004D0064,
00CD0040,
007400D7,
00180032,
00DC001D,
00A10006,
00D300D9,
00CE0058,
00C900CB,
00C4001D,
00CD00C7,
007B0037,
00C80036,
00470053,
0081002B,
00660088,
0055005E,
0081000A,
005900BA,
005E00E4,
007B00A3,
0094008E,
001700ED,
008600E4,
00100013,
00560079,
00330043,
00090010,
004200A2,
00DE0069,
004D006B,
002500D4,
00EC0010,
00DE00C9,
002A0035,
004D00D9,
002800BB,
009600A4,
0083007B,
00AA00AB,
0029002E,
00290074,
009E004D,
003200A4,
00870015,
00270049,
002300DD,
004B00BD,
00300083,
00E10063,
009D0098,
001300A8,
001B00ED,
005B003B,
009E006D,
009100C2,
005700D9,
00060039,
007A00D6,
00860044,
00A3008D,
007800E4,
00D80032,
00A6008C,
00130009,
000A0041,
00B300CC,
00270082,
008C0093,
00200022,
00520061,
00560035,
005C00D1,
0048007C,
006100DE,
0074003B,
00C4008A,
004800A0,
0051003E,
00E20051,
00490023,
00BB0057,
00950053,
00D00008,
007A0033,
005700EB,
0079000C,
00B4007A,
007A00EB,
0083007E,
004200B9,
00DE0048,
00D90074,
00BC0060,
009900A8,
003800C4,
007700E6,
004700D4,
00680097,
00890032,
00A20019,
006200AE,
00230035,
00990081,
002C0089,
00E1005E,
007B003E,
0070001D,
0051008C,
007500DD,
00D9000B,
00EB00A2,
00B80064,
0066002A,
00D10066,
007B003B,
009B0021,
007C006E,
001E00D1,
007400D6,
00E300BA,
00680083,
002C003D,
008400C9,
009B009C,
0085009A,
002800D6,
000700D4,
00BC00AD,
00160001,
00CA005D,
004400CB,
004400C5,
00CD0062,
00A20090,
001000D1,
00A1005D,
0095008A,
00E20082,
00540099,
00850070,
002C0037,
009C004B,
00A50006,
00E10025,
007E006B,
00820045,
00850085,
005B0000,
006700B1,
001D00E7,
00BC0054,
001C00B9,
00640006,
004D007E,
002E007B,
0096006C,
002900D9,
00720066,
000200A2,
00420012,
0023004D,
0052002B,
000C0050,
0008002E,
006300D8,
00A10020,
00200079,
00080089,
008300AE,
006000E8,
00360003,
009200E5,
00BB00A9,
006B00BA,
005A008D,
00350041,
00D30009,
007400D3,
001800EE,
00070000,
005200D0,
00480064,
00CA0094,
00850009,
009A0019,
0024005D,
00B600EA,
00340095,
0076001E,
006C00A9,
009800B8,
009800EC,
0098006D,
00DB005E,
001A0015,
0059006B,
007900C3,
002900C5,
0085008A,
00010077,
006200D4,
00CA00D8,
00AC0015,
0065004B,
005800EB,
00050009,
006700C2,
00780076,
00C90061,
00EA002D,
00A50096,
004D001E,
00E9003C,
007E0026,
003C00CD,
006600E5,
005600B0,
005E0005,
00B30060,
000900A1,
001800D7,
009C0095,
00D10017,
0039004E,
00AD00CA,
00B2003A,
00CE008C,
003E001D,
00B600B0,
000E0083,
00300040,
00410076,
009B00EC,
00EE004A,
002900C7,
00530020,
002B00D7,
004D0070,
005800EE,
005C0034,
00CB0084,
00A70035,
009A008C,
00A000A9,
0093004C,
007100CE,
006B0025,
00CA006B,
006700DC,
00CC00E8,
00AD00E2,
00030059,
001400A1,
00C80021,
00CA0058,
00300098,
006500C8,
006600ED,
00D10039,
006D0017,
00C50057,
006700EE,
00640064,
00DA0049,
009100DA,
00C8009D,
00050090,
001600A3,
0077000A,
001E0053,
000200E4,
00C200B1,
00480099,
00990047,
00A200CD,
006A0019,
006200C7,
00BE00DB,
0059007E,
00520010,
004C00A6,
009700EE,
00E50096,
00040001,
009700BE,
00520065,
00EA0083,
0008001C,
008D0023,
002B00B3,
00010041,
0040007A,
008400E6,
009B00C7,
006100B1,
00510003,
007700D1,
0038002D,
00D700BB,
00290006,
004100E5,
00850092,
009400E6,
00A40082,
00540042,
00C20012,
0005004D,
008400E1,
000D0052,
005700D9,
00C200C0,
009E00A0,
00900099,
00BE0052,
00E40043,
0074002A,
009700A2,
002100C7,
00A1002D,
001C00BA,
007D0012,
0019004E,
00D4008D,
00DE000B,
0097007A,
004400B7,
009700E1,
005B0064,
004E0091,
00660072,
00D40018,
003300A5,
002200A8,
006B00DD,
00B70050,
00A60094,
00A9008B,
00D0008B,
004100CC,
00C30055,
00DB0042,
0017000C,
001E00DA,
00A40008,
00C60069,
001E0038,
004E0062,
00B30033,
0048001B,
009D009A,
000A0087,
008200C4,
001A0053,
00B000E1,
00950029,
004D00E5,
009800E8,
006B00EC,
0001005C,
005C00C9,
002E0020,
00D20014,
00E2000A,
00A400E4,
00B90012,
00900011,
008800CC,
001800D7,
005D0035,
00D50055,
00AC0072,
00DC00C3,
003C00B1,
001400B8,
00820072,
004C0037,
001A0027,
001A0086,
00BB0080,
00E8000E,
00AB00C4,
00B100D6,
0072005A,
00EA007D,
00710043,
00040042,
00A50091,
00E900CC,
00C70083,
00690028,
009B0069,
00B300DB,
009500C8,
00CA0028,
009A00B6,
00E0000B,
00100004,
003D009D,
00E8000A,
0033002A,
007E00C4,
000B00A0,
000C00AB,
009D0015,
00A20006,
008100C9,
00B2003D,
001A00A9,
00D50049,
007C0088,
00C700E0,
00E60035,
00570020,
00930068,
008B0031,
005B00EC,
00330056,
00AC0016,
009B0038,
00A90026,
00020057,
002C0056,
00CC008C,
00AB0072,
000D001A,
008A0040,
00E70035,
00B000AC,
00D5002E,
00E0009C,
00A400BA,
008E0049,
0056002A,
006E006E,
00D50094,
00E30008,
00880056,
00320083,
00140031,
002C00E1,
00BB005C,
00860039,
00A2000B,
00E500D3,
007E00DD,
007E002A,
000C0052,
00AC001E,
0033009E,
00C70048,
007100EB,
00C60031,
00D4001D,
004E0069,
00B40029,
00E100D4,
00DD00AD,
00DE0072,
00D70087,
00EA008E,
00DC00C8,
00600048,
0052009A,
00A20048,
00090067,
00660059,
007C00CD,
00CE0017,
00650053,
00640079,
002A00CE,
00B300C5,
007A009E,
0000007D,
006E009B,
00A4001E,
002E00CA,
00420033,
008700B3,
00320063,
0006005D,
0095007B,
001B0056,
00780008,
00270045,
005200D8,
000C0052,
00E90018,
00D7003E,
00C500DB,
005B009B,
004200DA,
00270056,
00320086,
003E0007,
00700049,
00BD0068,
00560000,
00340006,
00A60067,
00980039,
00C200A9,
00910034,
00620046,
00C400E1,
00530036,
00130025,
004B0063,
006900B1,
001500C8,
000C007D,
00E00024,
00000064,
00D30051,
005E0021,
007600C0,
0038001A,
00790029,
00B6007A,
00720048,
00770020,
00210043,
00910091,
00010060,
00380033,
00E50091,
000C00C4,
00D000B8,
00DA0071,
002C0073,
00850048,
00940022,
008E006C,
0086006B,
008E0044,
00110059,
00CB002B,
00D0003B,
006900DB,
00610083,
00BC00B4,
00020040,
00380028,
00130032,
00EA0082,
009200CE,
008A0045,
0036006B,
0043002E,
00070010,
000C0043,
00C20051,
00E2006A,
005E005A,
00670010,
002B0062,
00E60020,
002D000C,
00C0003D,
007800A5,
009100C7,
00B3002E,
00330018,
00D500D7,
001300D6,
002C0062,
006C0012,
00040031,
00A90001,
00ED0003,
006C00E4,
005A0095,
00B00015,
0029007D,
00570073,
004900E1,
00C3008D,
005100BC,
00880096,
0050001A,
000300DA,
003D00C3,
006000AD,
00BA0045,
00CE003A,
008400A1,
009E00AE,
007B0026,
00090093,
0036005A,
0030001D,
0078008D,
0037007B,
00DB005D,
001E00A3,
005D0067,
002D008A,
00E70040,
00760043,
003A0055,
001C0093,
002B00DC,
00B2005B,
006500D2,
00D50096,
00C60039,
00E30078,
006200C0,
00EE00C9,
00910008,
00EA0008,
008700D8,
00C300D6,
0068003C,
0009007C,
007C00DA,
006700D9,
007300EE,
0067000C,
004200BB,
0085002A,
00990037,
00180031,
009B0062,
003C0053,
002D0046,
008D00B3,
00E10081,
00050051,
004200A3,
00000057,
001600B1,
009E0041,
00D50041,
00D80063,
004A009D,
00A60008,
00B80074,
009500E5,
002B00AD,
004700D8,
000100B1,
00980021,
001C0018,
004B0090,
004B0000,
007D0059,
000E006B,
0073002D,
005100D2,
006C00C8,
00D100B2,
004D0056,
0037005A,
00D20086,
009C0034,
00AB0027,
00D600E7,
00870017,
00690039,
006D00BE,
00410049,
00B30034,
00970096,
00500096,
0048001B,
00A0005A,
004500EC,
00790083,
000900D2,
00D200E6,
005D00EE,
000A0065,
00C600BB,
0055009D,
00DB00A8,
00E900D4,
005900AA,
00C400A6,
00D7003B,
0087007E,
007400C7,
00650085,
00AE0003,
0089009A,
00D00097,
003C0056,
0043009D,
00B300B0,
00870052,
00C6006B,
00DA0001,
000600CA,
003800E8,
008000E5,
00A40067,
005B00AC,
002C0075,
007400B3,
00D30003,
00540032,
002C00DE,
004A00C6,
00B300D6,
007D0097,
00290008,
00D9007B,
0075000A,
000A00CD,
00CD00DC,
00200026,
007700E3,
00220037,
00A300C4,
00D300C9,
0019003A,
008E00C0,
006500E6,
005E00A1,
007400A9,
0026008C,
00A20051,
002E005E,
00EE0057,
004500E0,
006900D0,
00060064,
00D200E0,
003C00B5,
007D0028,
00A60003,
001100BB,
000D002B,
0001002E,
00880040,
00A700C8,
006900AB,
000B005E,
007D00AD,
00C80004,
00D00010,
008D00E0,
00D30010,
008100C9,
0013006D,
004500D3,
006600E7,
00ED0039,
00E90039,
009500BE,
00CE00AD,
002100D0,
00EE00C1,
0097000E,
00A90096,
009E00AE,
00500078,
0083007A,
006400A2,
00870033,
005D0019,
005A0021,
00EA00D4,
00C6004B,
00B000A5,
002100D1,
007A00E6,
00760009,
0097008D,
009C001E,
0094002E,
00870063,
00EB0097,
00D20070,
00850082,
007E0070,
006300ED,
00210029,
009000CD,
00900049,
007E0069,
003400EC,
003E004E,
00160080,
00D0007C,
009000C7,
004A00EC,
005D0027,
00B4005C,
00570049,
009D0034,
007800D3,
0041008D,
000100D6,
00110046,
007D0062,
000C0038,
00950088,
001A00D1,
00DC0014,
005C00D3,
00D800BD,
00A4009E,
00900059,
00480077,
000A00B6,
00E0008D,
0049002B,
004B001D,
00DE004D,
0024000B,
00CB007E,
0014006B,
0072005D,
009D0076,
00B0006B,
0066009E,
00AC0052,
00D900EE,
001900C9,
007E00DD,
00690037,
007B00E9,
00BA004D,
004300C4,
00180020,
00DD0005,
00B0008B,
00A200C0,
004400EE,
00620021,
00050070,
00C20001,
0056002B,
00980074,
002C00E5,
008A0002,
0013006D,
00D6008A,
00AB003D,
00A90073,
00C400CE,
0080007C,
00BD0064,
0097003D,
00550056,
00A80001,
009B0023,
007600B0,
004A00B5,
00520033,
00840004,
001D0059,
0041002B,
00750007,
00710013,
00320063,
00AD00C9,
002C006C,
0022004C,
00760060,
00A200E2,
005B00C2,
004C0041,
003700AE,
007B00DA,
00C60072,
00970026,
00460034,
001E00D9,
00DB0044,
00A70025,
007E00D2,
0064003C,
007A0000,
00840016,
00D7003B,
001E0053,
00650020,
003A0042,
00290088,
008D00C1,
004C00CB,
002000BC,
00AC001E,
00A60034,
006700C3,
00D00003,
00340031,
00670024,
001E00D5,
00A40060,
006C00A3,
00A900A2,
003500B2,
00B4002E,
0069004B,
00C9004B,
0084007C,
00E00009,
00A40050,
000400E8,
001B00E2,
00E00008,
00C8004A,
005A009B,
005200C3,
00B30062,
00C90034,
0060008E,
009A008E,
007600BD,
002800CE,
00EA00BA,
00700051,
000100C7,
000E000A,
00D50016,
002700BA,
001A0021,
000C0070,
003000C3,
00BC009D,
00480055,
00390022,
00470071,
00170089,
00D40091,
008E0043,
00C60057,
005100A2,
00BB00C6,
00340089,
000D00CD,
0082004B,
007D0078,
00200027,
008900E7,
000B000B,
00D40044,
005900E4,
00B70020,
0010002D,
008B0024,
00A40043,
00A200B2,
00D50066,
00B50072,
00790068,
006E005C,
003D0019,
009800B0,
00540098,
001D0074,
00E80075,
007400C3,
009D001E,
00750099,
002200CC,
005C00A5,
001400CE,
007D0004,
0031004C,
002C00E7,
0091006A,
000700DA,
00D20016,
00BC00D4,
0079008E,
003C0092,
00C40080,
00E90055,
0091000A,
004C001D,
00D900CB,
00600066,
00290096,
005500D9,
003D006E,
002000EB,
0079002E,
004D00D0,
00D000AE,
00BE0067,
002900A3,
003A0048,
00E9009E,
005300DC,
004300D7,
006C0038,
00E000A9,
00AC00D1,
003A0082,
005200DD,
008C0083,
00030054,
002A0011,
005800B5,
00B70057,
001B00B6,
00CD0049,
00340063,
00470016,
007A0020,
00AE009D,
0058004E,
00BE00E3,
00360070,
002C00AE,
0015003E,
000B0039,
00EA00AE,
0028008C,
003100C5,
001B007B,
00620082,
003E0017,
00570011,
007200A0,
00A6005E,
004B0032,
00450083,
00060089,
00CA0069,
00AD0072,
00C4005B,
005E00EA,
000300DA,
006400D6,
000C009C,
008C00E0,
00C400BD,
006B0074,
00380048,
0095000B,
007C0037,
00A60047,
00200072,
00B50072,
00C70041,
006100D7,
00D60059,
00A4002D,
00310037,
00740003,
000700E2,
00C8003D,
002E00AE,
004000AA,
00EE00E2,
00A70087,
009500B5,
0052004A,
00330054,
004C003E,
009900D0,
00B70053,
005200B7,
00010035,
0057009C,
00BB00B9,
004E009A,
006500E5,
00EA0089,
009B00EB,
0065008D,
004700D0,
000B0046,
0032000C,
004500BA,
00AC0076,
00B900C4,
00740015,
0097002E,
00340012,
00A90064,
00C400DB,
00E70096,
00A30050,
00200022,
00A90063,
009100E7,
00EE0063,
00B60018,
003D00D8,
00DE007C,
0054009E,
0056008C,
006C0039,
00580026,
00B000AB,
00AD0069,
004C002A,
00850046,
002B0039,
003E00B4,
0092004B,
009200CC,
0077006A,
000E0068,
000E004A,
00D70051,
00A5001E,
001200CC,
004100E2,
007B0053,
00630010,
00BD00A7,
00A00089,
00300045,
00A900B5,
00D6009C,
00180034,
00AC00C0,
003E00B0,
009C0071,
00430078,
000A0020,
00860095,
00160096,
007E00C8,
00960054,
00140014,
003B0012,
00B50080,
00E4002A,
00A200D0,
00C300AA,
00090098,
0041007D,
00B80059,
00C40035,
00750096,
00060042,
002800DD,
0087002B,
0011006E,
0059004C,
00250098,
001A0017,
00970093,
00D00045,
00330021,
00640038,
00190015,
00B800DB,
00A000B7,
00CD0017,
00C40031,
003B00BD,
004000B2,
002C0023,
004900E3,
002B00D5,
00A50077,
00E3006A,
00190026,
009E0056,
006D0002,
000400E3,
00CB0017,
00AC0074,
004D0098,
00690038,
00950076,
00D2002B,
00430029,
006700C0,
00750028,
004800B8,
00660095,
003D0079,
003A0009,
002B00A7,
0057003C,
00B60063,
008900C4,
00D600D8,
00740043,
003A00C8,
00B00030,
008500A2,
00140050,
003D0015,
0005001E,
008E0076,
00E10077,
00230095,
004000D4,
00280075,
000100A5,
00A700E1,
00BD0015,
00870054,
004200E9,
00CD0054,
00BC0079,
004C00B5,
00D700D2,
008600B1,
009C00AB,
000B004D,
00CE00C3,
00E20055,
006E00D1,
008800C9,
008D00A2,
0072009D,
000D00EE,
00D00048,
00A10071,
008C0006,
0072005A,
00310066,
00C40060,
00250024,
000C003B,
00090043,
001C00CA,
00170058,
009800E9,
007600C9,
00D600ED,
00A80026,
005E000B,
00180083,
0047007D,
003A00CD,
00210032,
00BA0040,
00440051,
00C20074,
000100DE,
00E7009B,
00450052,
00C50000,
00DC008C,
008A0055,
00B1003B,
004B0070,
00470080,
007400B9,
00590073,
00B8001D,
000A00AC,
00A100B8,
00E3003E,
00EA0001,
00530082,
006E004E,
007E00BE,
008E00B1,
00EB0005,
002500AD,
007700A5,
005A0095,
00150043,
006B001D,
00600007,
009D0092,
006A00C5,
00E10004,
005C00CB,
00960043,
00EA00C8,
0090009D,
0068003E,
00890051,
00AB00E5,
0056004E,
0087004D,
00000070,
007D0022,
00930095,
00D800C2,
00E50074,
00B000B8,
00CE006D,
00EC002C,
00AE00B7,
00B70041,
009E004A,
006800BA,
009600BD,
00400096,
00290071,
0072006E,
00760087,
0003007C,
00620094,
007E0050,
008100B6,
007B0004,
00800029,
00340028,
003D0028,
003A00B8,
0009004B,
0000006D,
0096009E,
008B00B4,
00290028,
00900056,
00DD00A5,
007B0018,
0018009B,
001C00B4,
007000D1,
009900C9,
00D00095,
00B90061,
00ED00D8,
00AA00EB,
00ED0093,
009E0058,
002500B7,
00D0004D,
00D8000E,
007C00A3,
00D500D1,
003C002E,
00C50016,
00AA00CE,
001D002E,
0026009B,
00230097,
0068007B,
00A60052,
00E7003B,
005E00D0,
00C700B5,
00670024,
0073000E,
00940081,
006E004A,
00AC00AC,
002D00AB,
00650088,
00270083,
002100A6,
00B300C9,
00BD00C2,
00210064,
00880065,
004B00AE,
00000006,
00D400D9,
00720073,
00AE009B,
004D0095,
00C20019,
00900010,
002400E9,
005B00DE,
006E0032,
00970032,
002300B9,
00D700C3,
00BA00BA,
00150064,
00C800DC,
002C0078,
0067006A,
00330083,
00390015,
005E0074,
005C0059,
00700060,
00C10023,
00A50080,
00DB0099,
00980010,
00460093,
00C20079,
0031003E,
008900ED,
0076002A,
00380081,
00E40062,
007E00C1,
00B8001B,
00210047,
00BA0007,
004000D2,
00E9004D,
00D6002D,
00AB00B3,
00B8006E,
00270085,
00E20079,
00B30022,
0060001B,
00B900B6,
00320061,
008300C0,
00300004,
007E002C,
0001004D,
006500D7,
0099009C,
005C0068,
009300C2,
00CB003E,
00E100E3,
0032003C,
006E0095,
003B0088,
006A0052,
004D00A0,
00BB0086,
00AB005D,
00050096,
00540061,
007A0016,
00E500E1,
003000D0,
00C500D2,
001A0060,
006700AE,
0046007C,
00A900CA,
007400A0,
0002006A,
00400096,
005900A8,
0050001A,
00EA0060,
004B005C,
00DC0016,
000C0074,
000600B0,
00EE00BB,
00360046,
00720065,
00BD005A,
002700CC,
00D80061,
00DE0097,
00220032,
008300B4,
00310090,
009900D9,
0064006E,
007C00EC,
0032009B,
00380031,
002E00C9,
00C500DB,
007C0012,
00450083,
00ED005C,
009C0065,
00BE00CC,
005E0051,
00050019,
00D800DB,
00080091,
00400010,
006B0082,
00B40096,
00D4007B,
005B0076,
00E30091,
00240050,
0036000A,
00EC00BE,
00EA0053,
00DD00E4,
00740077,
004C002E,
008C005D,
00B60053,
0093003E,
00C60032,
009B0044,
005400D2,
00C1005D,
0018004A,
00120075,
00D100BE,
00B300B5,
005D009D,
003400B0,
001D0060,
00820082,
004A0077,
007C00B8,
00050039,
00C80097,
005D00BC,
00D000C7,
00A40091,
00030007,
00BB005A,
00830050,
00B10096,
00B80043,
005100C9,
00A40061,
001B0078,
00B1008A,
008500E1,
0012002D,
00260099,
00270025,
00D3006C,
00A400AB,
002B0039,
00110020,
0011007B,
00DE0044,
00EC0075,
00370004,
00B2009D,
0000006C,
00DE00D2,
00E40000,
006C00ED,
00620053,
00AA0083,
00D300E5,
006400C6,
00490000,
005B00D2,
00C300A6,
00CD003B,
009000BB,
0048005A,
00B000D4,
004D0040,
00D000DE,
00370064,
00960028,
009B0085,
008600C6,
00A90030,
0041005B,
009100CD,
00A00080,
00E00055,
00820028,
00EC0043,
00090072,
009200AE,
004C007B,
00950018,
00200063,
00140090,
0017007E,
004E00B1,
00560068,
003800AA,
00ED0068,
00990083,
00630009,
00E0006A,
00450094,
001200B6,
00E400C3,
0079003E,
00830095,
00A3007D,
00760002,
00B50065,
00470016,
00C80026,
008E0060,
001C0078,
00190038,
0069008E,
00CD0031,
00230030,
0069009C,
00790093,
00920032,
000A0083,
00C00069,
008900E9,
00AC0013,
000D0053,
00660059,
00800070,
00BE0018,
003B003A,
00370075,
005000DA,
007900D1,
00E70062,
00A5009B,
00020060,
009C0012,
00920051,
0070003E,
002E0061,
00EC0054,
007B00B2,
00D500B3,
001D005A,
00C50047,
008900E8,
00310092,
007E0034,
00C200EC,
00B10028,
006B0000,
00E70022,
00B4009A,
0070006D,
009D0051,
009B004B,
00B10099,
00300059,
00C900EC,
001900E0,
003C00BE,
00450066,
00440031,
0008009B,
001A00B9,
00000053,
00920058,
008C00CB,
002B00C4,
0033007C,
00700061,
003000D5,
00EB0005,
00790072,
00420034,
005C00E0,
009B00BB,
00E90052,
00630052,
00C3005D,
00D300B9,
00620073,
002500D4,
00A2006C,
0084000C,
005900ED,
0046008E,
00BE0027,
0039007D,
00A900C3,
006C00D8,
009D004C,
00C000C6,
00980079,
001A00A3,
00000036,
00EB0017,
00B600B7,
00190095,
00AC000C,
00AD0097,
007700D1,
00130027,
000B0086,
0089007A,
002D0028,
00A600DB,
00720072,
00B80033,
00DD0098,
00D60027,
00120038,
00C00083,
006800B4,
00990000,
008A00A3,
0006004A,
00840098,
00D500DA,
00D600CC,
0018002D,
002800B2,
0035006A,
0084002D,
0032008C,
000E009A,
004500A5,
00EE006E,
005200A9,
002100D2,
000B00BD,
008A003A,
0041003C,
000400C5,
009C0085,
00A30091,
00790013,
00850009,
00EE00B7,
002C000E,
008B002E,
004A00C7,
007700B4,
00000052,
0016005A,
00440012,
00AE008C,
00C20020,
00A10005,
00200045,
002D0084,
009900E4,
004D004D,
0075001C,
001D0052,
00690050,
005700A0,
001100DD,
00390081,
00ED0020,
007400A3,
00DA0055,
007A00AD,
001C001D,
00680062,
004300A9,
00720003,
00E800E6,
001800CB,
000300B0,
008D001A,
00A600C0,
00D700A3,
002D0037,
002000CC,
00130056,
006500A0,
006300CC,
0010009D,
00260074,
00A300AD,
001700D1,
00B40076,
0014002C,
00AB003D,
00680008,
00180038,
00C900AC,
00510023,
00B20097,
00440062,
00130014,
00690092,
001E0048,
0078004D,
00D40038,
00C5008E,
000400C7,
00060086,
00E4000D,
00E0000D,
00E900A9,
00CA0097,
001B000C,
004300A9,
00140088,
00AB002E,
00E8003D,
00CB00D1,
00EE0086,
00090067,
005D0020,
00CB0097,
0047000A,
003E0012,
0021004E,
0008000E,
00A600BA,
00030062,
00BD002B,
005500E4,
00200018,
00D10098,
008D005A,
00770067,
005D00E7,
00CB0073,
009400E8,
000B007E,
00020048,
00920027,
000900BE,
008C0048,
00CC00BA,
00A3009E,
002100AA,
007C0016,
004500C9,
00C100BA,
002B00DA,
00E10057,
005D00B4,
009A0060,
00E900CB,
000E005C,
0048005C,
005100B2,
00D5000C,
008000D7,
008700DA,
009A0030,
008500EE,
00C40082,
00E30071,
00730062,
0090004A,
001200B7,
00140086,
00D800C9,
00310026,
0031001A,
007D0060,
005A0091,
00D10071,
00B100DA,
00C00098,
002200EE,
0040004B,
00DD0053,
002600DD,
000A00A6,
001B004B,
00510012,
00A30067,
006B00D9,
003C0074,
00410092,
0065007B,
00280051,
005100BC,
00CD000D,
003800DC,
009A00E2,
00EB0000,
00BB0077,
009D0093,
003E0041,
00AC007E,
00B1008E,
00DA0065,
00B20043,
007400E1,
00770084,
00E000D1,
005A0067,
004900A7,
006200E7,
00370051,
00D4005D,
00860029,
006D000D,
006400CB,
00990056,
00E4006B,
009E0085,
007D0097,
00910026,
00CE0060,
00810027,
00290059,
00C900BE,
00070053,
00E60022,
00C500E3,
00BC0090,
00DE0090,
00C4008E,
002000EE,
00BD00C3,
005A00D8,
009E00A9,
00A100B1,
00AC0069,
00C400E1,
0006000A,
00D60064,
004400E2,
00690069,
00C200D8,
007C004C,
0063000A,
00D8009C,
001D0041,
00B400B4,
001700DC,
004A0022,
00CE00E7,
0058002E,
0059000B,
0027003C,
004E003C,
00740062,
0012008E,
000A006D,
00B70013,
00100069,
00C40033,
00760019,
0050009A,
00150043,
00870051,
00AA0049,
00480070,
001B00EE,
009B0039,
00C80057,
007E0017,
00680019,
00D50032,
000100B1,
00110048,
00710067,
00C6000E,
00680092,
009C00D7,
005D00C4,
006A004A,
005000D0,
0091000D,
005B009A,
00A900BB,
00E400BC,
008E007A,
0024007D,
00530068,
007800EC,
00340025,
0039008C,
00A70086,
009500EA,
00650018,
00370083,
001C00A8,
002800B1,
004800EB,
005D0039,
0070002A,
000A0060,
00170038,
00A300D4,
00AC009C,
00D100E2,
00760014,
00C70088,
00BD007B,
008600CB,
00E80044,
005000CE,
000300BA,
00ED0097,
007700B4,
00660059,
002C0090,
00D000C7,
00570068,
00AA00A4,
00220004,
00C50001,
001900A9,
003D005B,
00E80088,
004900EE,
00870015,
00B800CE,
00BE0016,
008A00C0,
000B0049,
004400E5,
00320092,
00780046,
005D0099,
003E00B3,
003D0063,
002E0000,
00260052,
00A1008E,
00BD0005,
006500E0,
00670047,
006E007B,
0093007E,
00D200CA,
00DA00AA,
00770030,
00030092,
002A00B7,
00C30068,
009C00CA,
00420026,
00720029,
005900EE,
00E40074,
00890045,
00890034,
00990019,
00680054,
00290023,
00D600A3,
0085008D,
00E000E9,
007E0043,
0097000D,
00ED00DD,
005C0050,
006E0046,
004700AB,
00A80069,
003600D1,
00D3003A,
003E000E,
00730058,
00980011,
009B0047,
0053006B,
0059004D,
00D300E4,
00A20039,
009900E0,
009400A2,
00C400EE,
00DC0053,
00BC00E4,
00C60035,
008D0049,
00980042,
006E00B0,
00DC009C,
009B00CB,
007E003D,
00CC004D,
000A0015,
002A0086,
00A60042,
002B0093,
007C0092,
00A80009,
004D0019,
00200068,
00A30046,
005900BB,
00510000,
002E0024,
009E0090,
00D6006A,
00540075,
007B00E3,
0083008E,
006800C3,
0031006B,
00CE00D4,
005600DD,
009700DC,
007C0005,
001400AD,
009D005E,
00CD0005,
009B00A1,
00610098,
000E00E4,
005D0080,
004C0035,
0002001E,
00650055,
00650052,
00060026,
00440072,
00BA000D,
00420026,
00E2009A,
0001008E,
00C70067,
00DD00CA,
005E00AE,
001E007C,
00BC0059,
000C00C5,
00B0001D,
00290004,
008B000E,
00A10088,
00CB000E,
008D008B,
000E00CA,
00E2003C,
006700B4,
003400AC,
008200E9,
004B0031,
00C40025,
009400EA,
004E00D4,
00C60047,
00B20098,
00560091,
00AB00C3,
00C6002D,
00870098,
001A00D6,
009900B2,
005700B7,
002D006A,
00430088,
002100B7,
008300E8,
0083009E,
008C003C,
008D00C9,
001B0011,
00730003,
00DC0020,
00D10091,
006C001B,
0081002C,
00D400E1,
00E70091,
00560097,
00990050,
00120096,
0051008A,
002B005D,
001B0069,
000B0050,
00E1004C,
00C20041,
00B00007,
002C00DE,
00BA0016,
00C70037,
00710049,
002D00D3,
003A0081,
00680024,
009200D3,
008E00D4,
00B600B1,
009C00B1,
004900B2,
00D1003B,
00590061,
00350005,
00A60051,
00220088,
00DE00A5,
004B0029,
005800A3,
00790009,
00710095,
0031004A,
002700E1,
0020006E,
004500A7,
005D006C,
006800ED,
006E0088,
00120034,
00120089,
00E1002E,
00260056,
00D3004E,
00BD0091,
002300B6,
00680083,
00030033,
00D20015,
007400CA,
001E0037,
00010019,
008B0045,
007D003E,
00CA00B9,
00520062,
005D00B3,
000C0005,
00A7005D,
00A20087,
003C0050,
00B10034,
00E100A6,
001800EA,
002B005A,
00C000B2,
006E008A,
003C004D,
00050093,
00310056,
00BC0088,
00250075,
003700DD,
00D70043,
00D300D5,
004600A5,
006D0079,
009300B2,
00740069,
00C50041,
005400B6,
007E0060,
0075004A,
002C0035,
00490007,
00650080,
009E0011,
00CC00AA,
00B300A1,
008B0071,
005E000B,
002900BC,
00240034,
00180024,
0046005B,
00340096,
00490008,
005E0004,
00600077,
009300AC,
006600B6,
001C0024,
0046002A,
00690090,
001900EC,
0027008B,
004700BB,
007500C3,
00A200C8,
00D2003A,
0029008E,
00B4007E,
00BB0081,
004500BD,
004A00AE,
005B00A1,
009A00D2,
00420041,
00E70071,
00B60007,
002E00DA,
009500AB,
00700035,
00D500B4,
00C30058,
0045007B,
00060092,
008E002E,
000D009A,
00760042,
00A10048,
00780056,
00360061,
00A900A0,
002700A8,
00DE006C,
00010024,
000D0008,
00700050,
008B000D,
0019004C,
00C7000C,
003E0077,
003E008B,
001500D9,
0047008D,
00390019,
003800B0,
002D0001,
006300EC,
00C300CB,
005B00DD,
00080061,
00D900B7,
000700BC,
008100CB,
0069003A,
00A60078,
00590033,
005500B8,
003400EB,
00A40047,
00B20089,
00160097,
00000068,
00230074,
000D00C2,
007200DC,
00380061,
008700A1,
00DC0003,
00570090,
004A00A1,
0088002C,
00CC00B1,
000500B6,
00B10012,
008C0058,
003E000E,
006500EB,
004000E6,
00EC00A2,
00B40043,
00610078,
004B0081,
00C70009,
00CE00A0,
00D5008A,
0018005B,
00350092,
000A004D,
007D0003,
003900CB,
003200E4,
00760098,
00DC006E,
00B200D1,
00150052,
00150068,
00000029,
007900CB,
000200B2,
00A400EE,
0011005C,
00400083,
00270001,
009100A5,
00B70026,
009A00C7,
00A60004,
005400CD,
001600D6,
00A300AD,
000400AC,
0006001D,
0035004E,
0071009E,
00670011,
001D004B,
000C002B,
00AE002E,
001400A4,
00DC00A2,
00A30077,
00D100B4,
0022009E,
008400A2,
00420082,
003A00A4,
0052005E,
00350079,
009600B8,
0074004E,
008000A4,
001400CE,
00EB007B,
00AD0064,
00B40063,
007D004C,
000A00CC,
0019009A,
008100A5,
0007001B,
00A50018,
00D600D7,
00E00099,
0047007D,
009B004A,
0013000D,
005B0084,
000000BE,
003D00DC,
00D4001A,
003900DB,
00580009,
00A60030,
005B00B9,
009700CA,
00950003,
00B10092,
0065005C,
00630000,
008600B7,
00AB00E7,
004C00BB,
000600C5,
00AA00EC,
00DB00A1,
00B900B1,
00160018,
006E00BE,
003900D8,
003000D7,
002400B4,
003500B9,
00E000DB,
00470047,
00510035,
00500046,
009A0047,
003A0091,
006500EB,
0008006C,
00400031,
00E7002A,
00DA0016,
00C2001C,
004000E4,
00EC0053,
00610044,
00860099,
00D100EC,
00B2000E,
00CB005C,
002A0036,
00B100B1,
004200EB,
009B00D7,
0094004B,
005E0047,
00930044,
00EA0040,
00E200E4,
00A800ED,
008100DC,
002100D6,
00960022,
004C006D,
0041004A,
008D00B3,
008A006D,
00EC00B6,
00290050,
001300CA,
00B20056,
00E70072,
007800C4,
00C500A2,
008600A8,
00530071,
00790077,
00AA002E,
00C200B4,
004C00E2,
000A006C,
00670066,
00C200E2,
00E7003E,
00D90038,
00550030,
00990042,
008C0016,
006800D9,
00A500B5,
0035006C,
00B000D6,
003000D6,
006E0011,
004C00A4,
008400A0,
00500070,
0007002E,
00B600A8,
009D007C,
00D40006,
001200A8,
00AB0090,
004C0037,
0084009C,
00DE0029,
0083007B,
00D50025,
00B40097,
007800DD,
00C300A0,
007A006A,
0036009C,
007700EC,
007800EE,
002700B1,
006C002A,
00340004,
00560020,
00D4007B,
00A5004A,
00B00081,
00D20048,
00E4007B,
00BE00A3,
00E00098,
005C0066,
008C004A,
00020091,
00AB0079,
0066007E,
003E0042,
00BC004B,
005B00E0,
00E10063,
0069008C,
00D80001,
00D6009D,
00C800CA,
00BB008C,
009A005A,
00530026,
00150061,
00B50062,
00C4003C,
00CD00D9,
00A300B5,
001500EC,
00B100A8,
007A0074,
00540062,
00090071,
0003002A,
000200D8,
007C0091,
00BA0010,
0036006A,
001C0018,
006A0080,
000400DD,
00D00050,
00BC00AC,
008900AC,
0098002A,
0070007C,
001200D8,
00780086,
000800B5,
00060078,
007800B4,
007600B8,
00B900C0,
00D6002C,
0039006A,
00A800A1,
007400DC,
002B00B0,
00210026,
001C00CE,
00BA005C,
002A0030,
00AD0075,
00C200E2,
00A2006C,
00A600DC,
003B00B1,
00A60082,
0015002D,
00C700AB,
00E90017,
008A0041,
00770046,
00D200D7,
00D20006,
005400E2,
008D0057,
0097001E,
00C700E8,
00DB001C,
0083005B,
000000DA,
00250036,
0066003B,
000E0022,
00B700EC,
009B006A,
00E30084,
004A00C5,
00730010,
00AB0026,
004E00B5,
00AB005A,
00470051,
008C00A6,
00BB005C,
00AC005E,
001900A7,
002900BA,
00C2004E,
00690056,
00DD0022,
00A400DB,
00660074,
00870081,
00180019,
00150008,
00A60028,
004300CE,
00E70001,
00C1000C,
00BC0000,
003C0020,
00D3005A,
0064000D,
003900E9,
00BC00E3,
00300023,
004A00BA,
00C300D4,
005B0013,
00160066,
00C60015,
00A10065,
0007007D,
000E00CB,
009A0095,
00D40063,
00230055,
0030002E,
00B800AB,
00E3009C,
007200AA,
00B000A2,
001E0041,
00BB009C,
00B60028,
00B200B5,
00620030,
00BA0018,
006400E6,
00C10019,
00B900E4,
001200E1,
00CB00AA,
0032007D,
00BC000C,
00B70082,
0042000B,
0060008A,
00EE00E0,
007B0083,
0028005E,
004D00D1,
009B007A,
007C007A,
0046001E,
00220087,
0059005A,
00B600A2,
00C500C9,
00A600A0,
00580032,
00B600A7,
005A0080,
000400A0,
00C4004A,
00C200E4,
006C0094,
00D0009A,
00340087,
000D003A,
00B900B2,
00CC004E,
000B001C,
00CD00ED,
00C7007C,
0045000E,
00C300D1,
00C4003D,
00210099,
00620024,
003B0058,
00B400E7,
00600038,
00C60000,
00E400DC,
002D00C4,
00870034,
00010083,
00D700CB,
00C60021,
0027007D,
002800D3,
008700C4,
0001004C,
00ED0086,
003100C6,
00A70050,
00C90023,
005600D5,
00CA00E0,
00B200A2,
00DD000E,
00070066,
003B00A3,
0049007E,
00EB00AB,
006B0015,
00A1001D,
00A90065,
0035005D,
002C0053,
00840047,
00910025,
00C6001B,
002E0076,
0078003C,
001B0098,
00E50036,
00400096,
00390038,
004800E5,
0026007D,
000A003D,
008600B6,
008900DD,
002C00B8,
00DE0061,
00A10010,
0018005A,
00EE0027,
00DA00B9,
00AC0021,
00160073,
00910098,
00EB00BB,
00360045,
005800B0,
00880001,
00B10048,
005A005D,
00BB005C,
00C900ED,
00AB0018,
002700AD,
00A00073,
000E0083,
00330025,
00660090,
001D007E,
00210022,
00B10085,
0017007E,
001D00A3,
005B0020,
005C008D,
0008003D,
00E90085,
00D800B3,
002C00CE,
00B5002E,
007100E2,
007800A8,
002800B6,
0037005D,
004500E1,
00210054,
008D0055,
00DA0099,
009E0040,
004B00EE,
00220013,
000C0065,
00C50053,
00C90034,
0035000D,
00D500C2,
003B0074,
00E70035,
00DD008B,
006200E8,
009700EE,
006600DA,
00C800C8,
00D7009C,
002200E6,
00630013,
00D0002C,
008500E1,
006200A8,
002C00EE,
007E007A,
008400EA,
00D20027,
00870051,
00580084,
00920010,
00BC0098,
007000B8,
00B2001D,
00150040,
00130072,
00150099,
001200CB,
00AC0079,
004900CE,
006000DA,
00AC0081,
00C5006B,
00C000DB,
008E008E,
00CA00AD,
008600CB,
00AA0014,
00270063,
002C00A2,
000100A4,
003A0041,
004C0076,
00B00032,
00D30054,
00550076,
0034002A,
00B000A3,
00E50010,
003E0039,
00040081,
00D3008E,
00000062,
004400E9,
00D6005B,
00E700DC,
00A800C5,
00090007,
00CB0027,
00970011,
00710025,
00740011,
00250053,
005800C4,
009A0065,
0061003D,
00DE003D,
00E90068,
00880033,
001100A1,
00290025,
004E00E9,
004D006D,
00CB007A,
00CD00B4,
009B00D8,
003600C7,
00C200E1,
00170099,
00CC00AB,
00C8009A,
00850049,
001A00E4,
00DC00EA,
00140075,
00C600BB,
00C500CB,
009B000E,
003B00B4,
001D008A,
001A0033,
00D70014,
00460049,
00B7004D,
009C0089,
00190037,
00DA005D,
00A4003B,
006500CD,
004B00D0,
00610088,
00870058,
00BC0072,
0033001E,
00610049,
0097005C,
00C400D6,
00A300C5,
00AC00EC,
00570042,
00A80093,
00BC00C2,
002D0044,
000600EE,
007B0029,
00920044,
00390048,
00C70003,
008D004D,
00DB00B3,
009C00B0,
001800B4,
007A0005,
004E0082,
008A0013,
00110009,
00A2003C,
007C002D,
00AA000E,
009E00A3,
006700BA,
0034000E,
00B50017,
009A00E7,
003A0047,
002B005C,
000D0008,
007D0090,
0028008C,
000E0017,
001B0056,
008100D2,
00E10085,
00D000BA,
0074002A,
002E0064,
005C00D8,
005D00CE,
00CC0014,
007D00B7,
00440099,
008900B5,
0047002B,
00C30025,
007800C7,
003D00D8,
00C70005,
00BC0003,
00660062,
0073001A,
006A0011,
00360043,
00E4009D,
0073005A,
00020007,
00C2001C,
00E20060,
00D80095,
00370020,
00BA00C5,
005800C4,
00D30019,
00550052,
00C300C7,
00640032,
0022007A,
00AA0030,
00260033,
00020036,
00700094,
000B0043,
00630085,
00ED00A9,
007B003C,
00B7003B,
0057003E,
005500A9,
00650076,
00BE0050,
004500BB,
007800AD,
00CE0078,
001800EE,
008400EE,
00E20013,
00BB0025,
00CB0010,
002D00E2,
003B006D,
008400E4,
00950097,
00B9001A,
00280077,
001300E6,
004300D9,
00D400AB,
00DD0078,
003D0028,
009600E1,
00490012,
003900B0,
00170088,
00D9001B,
00910014,
00C00014,
004300B0,
001000EB,
00B70028,
003000CA,
000C002A,
00C4006D,
00DE0032,
001B003E,
000A0050,
008300A6,
00700043,
00B000B4,
009B000D,
00CA00B1,
002C00B3,
002400D1,
00440091,
00420023,
00CC0094,
002D0097,
00720041,
00C50056,
0090005E,
00180007,
006600C9,
00E80090,
00BB00BA,
003A0045,
00B90055,
00B200CA,
00BC00DE,
006700DE,
003E00CD,
005800BC,
004E0072,
00C7000A,
00780020,
00EC0007,
007000B0,
0045002A,
0024001E,
0007009D,
00C30076,
006600E9,
00AC007D,
005000A2,
00210027,
00B800C4,
006C0043,
0034000A,
002C0092,
009500B6,
00020078,
004D008C,
009D0018,
004000BE,
00E20045,
00820076,
009400CB,
003D00B6,
005A0048,
0021001C,
00D500C3,
00A00010,
001200AE,
00CB0029,
00060036,
00DC00E4,
008B0069,
00000007,
002D00A2,
00CE00CA,
00AC00B1,
006C0067,
008A0044,
00CC003E,
00C50077,
003B0024,
00160015,
00670077,
00C200EE,
005E0057,
00C300D7,
00840095,
006E0085,
005B0065,
008B005C,
007E006C,
00B2008B,
00790063,
00B70021,
004A0071,
002800B1,
001D0030,
00DA00C7,
00E400C5,
004200E3,
00D500AD,
006A00EA,
0017001B,
00DD005A,
0094002B,
00A5005D,
005700A8,
00930063,
00EB00E0,
00000016,
00C9000B,
003E0029,
002D0035,
00AD00D2,
00ED008A,
006600E8,
001100C3,
0062008E,
00E00026,
00D30064,
00CE0062,
00DB0059,
00A8007A,
00AA0046,
00470035,
008D001A,
00740080,
00D80007,
00690053,
00BE0036,
00990003,
00190079,
004E00D2,
00BA00C5,
006B007B,
00CE00C6,
00CC0063,
00D5005A,
00430081,
00140047,
000D0097,
00E800E6,
0086003A,
0095008D,
00DB0091,
00B30064,
00810080,
005A00A7,
00A20002,
00B5008A,
001B00DE,
003B00B3,
0021009A,
00110016,
00D000BE,
00BE0048,
007900D7,
002A00C9,
0055009C,
00D20043,
001D00D6,
00AE004D,
005D0078,
00550047,
006600A7,
008800D0,
00CB0015,
00A50098,
008400A3,
00D400B2,
003500ED,
00850019,
0049003B,
00A6003B,
004C00C7,
00810065,
00BC000A,
0040004C,
00270068,
003E000E,
00AA00BA,
000300AE,
0035004A,
002A0090,
003E00B5,
007C0032,
004200D5,
006B003A,
005A0026,
00AC0098,
006900DB,
006300C7,
002B00A4,
00BC0033,
002E0049,
00E90088,
00220023,
004C000B,
00AE003D,
00A3000D,
0008002D,
008E0080,
00490078,
00480093,
0068003C,
00DD004A,
00710089,
006000D3,
00940000,
002A0002,
00BC00D7,
000D004A,
002D004A,
002C00EC,
007C0024,
0087003D,
003D00D5,
00E1005D,
009E00A6,
000600CC,
006C00AC,
001A0071,
00A00055,
00AE006C,
000E00D7,
00CC0019,
00C60091,
00030049,
00000075,
0012003B,
002B00D8,
00A50024,
000E0050,
003B005D,
00CD00D9,
001200D9,
00C20043,
00D4000E,
00E900EE,
003C00E7,
000A0091,
00720009,
00490016,
00CB004D,
00CB0034,
00850079,
001400AE,
00250035,
00E800D2,
00BC000A,
00D9006C,
00AC001D,
00150083,
009A0075,
00EE00C9,
00D5008C,
00630044,
0047004D,
009A0005,
00B70001,
00EC00EA,
00A700D8,
00C50004,
003B0021,
009400CE,
007B0033,
0081009B,
00DE00BD,
004100EA,
008700ED,
00AE0009,
005B0029,
000E0062,
008400A4,
00D00094,
000E005B,
004E001C,
00CE00DA,
00300057,
003A0067,
001D008D,
00D4003C,
00470035,
009A0032,
004E0088,
00320080,
00BB00A8,
009300EB,
00B500CA,
004200D7,
00EC005E,
00330058,
00E200B2,
004B00C4,
00AA000C,
00D900C5,
00B900C2,
00B30001,
0034008E,
007700B7,
00D90074,
007300D6,
007600D4,
0005000B,
003700B4,
00870010,
00350065,
004900AA,
00A7006C,
002600D5,
005A00D9,
00E70086,
005800A1,
006C0074,
005C009C,
00D90071,
00500097,
00EB00C8,
002400B3,
003E0083,
006E000C,
004200D1,
0014000C,
0003008C,
00B70042,
00DB003A,
00250054,
00970018,
00C3009E,
0006000A,
00130016,
006700A7,
001100B2,
001300B5,
009400C1,
00240074,
001A0083,
000100E1,
0042006A,
0092000B,
00C30014,
00D5000E,
00E1002E,
00D80063,
00C60088,
00D80009,
003B00C2,
000E00BB,
0012001E,
009700A0,
00CA00B6,
005300C6,
008000BD,
002C00E1,
00AB0012,
009B0021,
00E600A9,
008100C1,
005A007C,
0016000D,
0093009A,
00E10081,
00830076,
005400B4,
008B00C2,
00480037,
0027009D,
00AC005A,
007C0035,
0055002B,
00400014,
00BE0055,
00760070,
002400D0,
008700EA,
002100B3,
00560099,
005C0098,
008E00CC,
00230084,
00B20099,
00660033,
00840086,
00280004,
00810082,
00410071,
00920034,
0050000E,
00110067,
005B002B,
00E600D9,
00680000,
00B30040,
00BB00EC,
00A800DC,
00B60078,
0056006D,
00A30041,
00280099,
00670055,
00790022,
002000D5,
00630008,
00600071,
00E20042,
00AA0078,
00BD00BC,
0046006B,
003800B4,
001700E0,
00AC00DB,
00DD00D4,
00020043,
00040032,
008700C3,
00A10007,
007500D3,
0002007C,
006A004E,
00420071,
00300088,
00B000D5,
00CD0011,
007B003A,
00C00099,
00EE0014,
00D600D5,
008700BA,
00C40018,
00B50047,
003A0099,
00220093,
00C80000,
00B90061,
00710037,
002B00E3,
0066004D,
005700E9,
006D0043,
001700E0,
00A30086,
00610086,
00E30051,
002D0047,
005300DC,
00770097,
00A80017,
00290082,
00080016,
002C0014,
00C700D6,
0091007E,
00A2005C,
00B700A8,
00510037,
0042003C,
002000B1,
00B8008D,
002E0054,
003D00BE,
003B0015,
003B00AB,
00C30082,
003D0011,
00070083,
00280045,
006A00C0,
00DA0094,
002800EC,
00E700C7,
00D6009B,
003800B5,
00730017,
00B1009E,
008800EB,
0024008D,
004E001D,
002D00E4,
00BC0011,
009B0089,
009C0054,
001100BC,
00710096,
00460000,
000D0042,
00340067,
000500D5,
007C00BA,
003B00D5,
00A300B3,
006900B4,
008D00B0,
00D20029,
00E900E7,
00080087,
00C90059,
00A800E1,
00000067,
00A400C2,
005D006E,
0033000C,
00030072,
008D0036,
00B60008,
0047004E,
00C8008C,
0032003A,
00670088,
00C500AB,
007D000C,
003600AA,
002100CA,
00E80091,
00AB0036,
00590006,
00850051,
0011001C,
002000C8,
009B00D0,
00880064,
0079001B,
00540082,
00A900B7,
00540021,
000D0068,
00230016,
00910078,
002E0016,
00D0001D,
00670004,
00130051,
00E70072,
00EB0026,
00920040,
007C00D2,
00DD0056,
0010005A,
00B30050,
00CB005A,
00C9008C,
009B003D,
005600A0,
00DE001E,
004E0027,
0077005E,
002A00E7,
004E0084,
00340055,
00E20066,
00DA0087,
008B001C,
00AD004B,
00690005,
00B200D7,
0002006B,
00C80082,
006B007D,
00060065,
003700B0,
003400A2,
000600CB,
00E300EC,
00510083,
00AE0033,
00E800A7,
00980053,
0020004D,
00450035,
00BD0081,
004900BD,
0068001A,
00A10000,
0038001E,
008D0082,
00A30073,
00B00049,
009400D4,
00430027,
00190060,
000700B8,
0004000D,
00580078,
006D009E,
007400D0,
002C00EC,
002300CB,
0015005E,
00E50071,
007300C4,
003400CD,
00410045,
00AE00D7,
00A60049,
004200D7,
00C9002E,
007E0019,
001B00A8,
005400B4,
003D005A,
00720058,
002200ED,
00E60007,
001600D1,
004B00CC,
00BC0073,
00A700E6,
00E30025,
007400B7,
00B10024,
000100BB,
00A100C0,
00D60070,
0002009B,
00C600AA,
007D0079,
000A004A,
00260016,
006C00D4,
00E200B7,
00470065,
00EA00E8,
00B5001E,
00D10074,
006000DE,
008A0011,
00E90039,
00E00098,
001D006D,
006100D2,
00EC00B8,
00B100E8,
00480016,
00D7005A,
00CE00D2,
0036001D,
001000DC,
00DC006B,
00A9002B,
007D0003,
004500B3,
006500D0,
00450060,
00940092,
002300E5,
0089009E,
00D40004,
0052007E,
0077009D,
007900E5,
0006004D,
00B30060,
00070086,
00BD0098,
00950022,
00610007,
00250096,
00C00059,
006C00A7,
002400A2,
00670095,
00AE0045,
002D00AD,
005C00C5,
007C004B,
00450092,
006B0004,
003000A8,
000D0000,
00DC00D6,
00D50094,
0050003A,
00CA0022,
00B1003A,
00650007,
007800A3,
0081003C,
0077008B,
00BE00DC,
00040064,
000A00A3,
007900D2,
002D009D,
00CB0060,
0005008B,
004D00E5,
000B0039,
00760048,
0048002D,
00CD00A0,
000B006A,
0035005A,
00A8001D,
002400EE,
00A400B1,
007A0046,
0037002E,
005700DA,
004B0071,
00E40063,
00BE005B,
00AD0039,
008D00AB,
0007006A,
00620036,
00AD0079,
00A20034,
00D1000A,
0069007D,
0050005D,
00760021,
008C00DA,
00420020,
00AB005B,
007B005B,
00D10034,
00470024,
00B3003C,
0039008C,
002800CA,
0041006C,
008B00B8,
007A001A,
0076003B,
0024006B,
007C005C,
00100092,
007E00D7,
00780098,
0091008D,
00B400B3,
002700D1,
004D00E3,
005C00DE,
00CD0070,
00130098,
00AC0064,
002B0057,
00AB0054,
00D10053,
0070004B,
00A3007A,
003C0040,
00C10044,
00E10017,
00490080,
004300A3,
0049000A,
00680033,
00800086,
00B200EA,
001100A1,
00CC007E,
004400D1,
00A400E2,
00AD0009,
00C40059,
000600BB,
008700B0,
007E0027,
00230021,
000900C2,
00820062,
002C00B5,
00B70088,
00E30055,
007E00BD,
00530048,
0006001B,
0029009D,
001D00D0,
002E005A,
00E10075,
007200AB,
005C00B7,
00DC0026,
009C00EA,
000B00B7,
006200BA,
007E005A,
00BE00B7,
00EC008A,
00910025,
00060029,
00B90012,
00D20022,
003C00CC,
001B0038,
00980004,
0091001E,
00D20097,
004E00DE,
006C0058,
00CA00C7,
000800C2,
00670037,
00D40073,
00440088,
003E00B6,
003A00C3,
0060001C,
008B00B6,
00B200B7,
00140060,
00130077,
00010048,
00800018,
00C80025,
00BC0029,
00AA0062,
00DD008C,
00D10075,
001A0025,
003A006B,
00380085,
00200035,
00C900CA,
0031005E,
002B00BD,
00C10015,
00B90044,
001800CC,
008400C1,
004A005C,
008000E1,
00E000DE,
00890044,
00CE0044,
00BD00E5,
002800A1,
00D70066,
00B4006B,
00690014,
0010000C,
00920058,
001B00E9,
00000007,
005A000C,
00C30070,
0046009B,
00230004,
00C3003A,
007800BA,
008700B2,
00EB00B8,
00330072,
00C20035,
0047001B,
0094004B,
007A001E,
00C80066,
00A3000A,
0012008D,
00910060,
005A0020,
004A0086,
00E200CD,
00BE005C,
005D006C,
00C10061,
00A60088,
001C0056,
001000B7,
003B008B,
00E6008B,
007400E4,
0083002E,
00A900C5,
00EB00B7,
00B600E6,
009600A9,
00AC00A6,
00550060,
00410018,
00AC004E,
00B600B2,
00AB0018,
00C200C5,
006A009A,
00450030,
00CC009A,
000900D5,
00030052,
00D90030,
00010004,
00C9004E,
002000D0,
00860090,
003B00ED,
00590047,
004500E0,
002200D7,
0013001A,
002E0060,
00C9002D,
003900B3,
002500C5,
00910005,
00980073,
00550025,
009300EC,
006000A8,
00700013,
005A007A,
00D500B5,
006800C1,
0054001C,
006E0010,
006C0027,
00720024,
00180032,
00BE002E,
009500C4,
00D100E4,
00BC00B8,
00040008,
00D70006,
004500AC,
00E100D5,
00960062,
006A0035,
00EB00C1,
00720030,
001A0063,
00930013,
004000E8,
00BD0042,
00AD0092,
00B9006C,
00A20055,
00D90086,
00D700AE,
009D00B6,
00C800A0,
0063009C,
001B0052,
005D00DB,
006500CC,
00A40099,
00D40087,
005400AA,
0011003C,
009E00DD,
003C0001,
00890055,
00630007,
00EA0065,
00CC00DD,
002C00BD,
002A0068,
002400D1,
00A200B0,
00000007,
0026003B,
00E20057,
00D2005E,
0067000C,
00A70025,
00B400A0,
007C0071,
00C7003E,
00840020,
00900018,
00960050,
00AA008A,
004400E3,
00E200BE,
003300AD,
00210009,
000900A4,
00EE0043,
007D00B4,
000B0059,
002200D5,
00BD00C8,
00B300DC,
00E500D9,
000800A0,
00120045,
00660073,
00130051,
00BE00AE,
00BD0056,
006500D6,
00CB005B,
00D30012,
001D006C,
00A10038,
00C40002,
00B3009C,
00B500C8,
005B0055,
002D00B1,
004B0020,
003B005C,
002A00EB,
004D008A,
00650077,
00000013,
00930066,
007D0015,
00640032,
009B0078,
00000083,
00780036,
00230064,
008800CA,
00AC00E6,
002E0020,
00BA007A,
00940047,
0078009B,
000E0070,
002D004C,
00C200C0,
00A00018,
002A0098,
008000B6,
00460073,
002100D1,
0050009D,
006A0052,
00DE002A,
00E500CC,
00B100B5,
003A006B,
00B30072,
008C00E6,
00AE00C6,
00A50051,
00610049,
0099009A,
00200078,
0028005D,
00E9001C,
002E0004,
00A800A7,
00960099,
0001008E,
002E0082,
0088001B,
007200E1,
00AD0019,
00570062,
00C30079,
004C0001,
00E10019,
0093008E,
009A007A,
0025008E,
002A005B,
00570049,
00B8007A,
00D600D3,
000100ED,
0066009B,
000D004C,
00E800E6,
00A700DA,
009600AD,
00C80036,
00E300DA,
001300B1,
00220037,
00DE00B5,
00A400E8,
00E10036,
003600BB,
00E10037,
00D10092,
00BB00A1,
001C0021,
00C400CB,
0076000C,
00270049,
00E40020,
00200059,
00C2003B,
002800C1,
007E00B6,
00CE0032,
008A00A2,
00760025,
00DD0023,
0049002D,
00610024,
003C00C7,
00D800A9,
00B900B8,
00750014,
009000EA,
002500A9,
00D500C7,
0024008D,
00E90096,
0011001B,
000000C2,
00E8000E,
006C0035,
007100C3,
007D005A,
0098007C,
009C00B8,
005400EB,
002100A6,
00000094,
00720004,
00B1002C,
004700DB,
00A60026,
00C60079,
00A40061,
00430002,
0054001A,
005C0074,
00D50083,
005200C1,
00A7007C,
009500C7,
008A0012,
00A200C7,
0021001A,
001E0018,
00C60076,
00500077,
00560005,
001B00B7,
00DD001A,
007C00B5,
00A1000B,
00990082,
00A90051,
0079009A,
006400DA,
00BB00E7,
002400CD,
0066001B,
006100D2,
0085003A,
00CA0040,
00590050,
001C0010,
00570069,
004100E8,
0007007D,
00130085,
00290087,
00680005,
006C00A0,
009A002C,
005900A5,
006900C4,
00060068,
0027004B,
00DB0082,
00D1002B,
001B00A8,
00BB0064,
00CE0047,
000200AA,
00460038,
00B20095,
00720041,
006400BA,
00C50045,
001E00E2,
003900D3,
004A009B,
00E0004D,
000A0067,
00740088,
00E00043,
00E70072,
007700ED,
00270004,
001900C3,
0095006D,
00630086,
009A00CA,
00EB0012,
00360032,
00E700CD,
002E007E,
00D40015,
001D00DD,
003B0078,
00C7009D,
00A2004E,
00D2007E,
00BE00DA,
00BA00E2,
00180049,
00540043,
002900CC,
009800C4,
004300B1,
00C200A5,
004500DA,
00D3001E,
00BB0047,
00CD0094,
0099006E,
00310099,
000D00D9,
004800D3,
00C80002,
00EE00B4,
00E70076,
00930070,
00050093,
00E800D1,
000300A2,
003300A5,
004D0061,
007100B6,
002300AD,
00320025,
00CD00D5,
00CE0072,
00BE003B,
002E003B,
006800EE,
00C200E1,
009B002A,
00A00016,
00E40054,
00BA0000,
009C0000,
00350097,
008E00C5,
00B600D3,
00660053,
00B500E1,
009300DD,
00AA0090,
00130099,
004E0003,
0013002D,
00150015,
00EE009B,
004B00B0,
006100B2,
000C0020,
005700A8,
00430002,
00BE007E,
000E003D,
003A0030,
000B00CD,
00910097,
008400D8,
0031003D,
0067002D,
00B20080,
004B00CC,
005E0021,
002E00ED,
00AC0069,
0060008A,
00BB0040,
00810021,
00E300DB,
008E00EA,
006B00C8,
008B0019,
00B6005A,
000B0086,
004A00B0,
00120012,
00B70041,
002C003C,
002D006D,
0045000E,
00A80077,
00530070,
002C0045,
0052006E,
006000B1,
00B000D8,
00CA0092,
00E40064,
000600CB,
0059002E,
009C0020,
00080046,
00C5001D,
00E50092,
009D0083,
00480042,
00D60022,
00220069,
00190057,
00CD00CA,
00A9002E,
00950011,
000700B4,
008400BA,
00390082,
00780073,
00E70064,
00B20077,
001000D3,
00E000D3,
00CA0004,
00EC00A6,
008C0096,
00230080,
00C200E5,
00B20035,
00680084,
00A600AC,
007D001C,
0073006D,
00350035,
00930049,
00D300B3,
000800B2,
006A0049,
003200E1,
00360035,
007E00B9,
002100B0,
004B005C,
00D200EC,
00140091,
006900A9,
000B00D2,
003B00B0,
00420056,
00AB0011,
00920098,
00260061,
006900E1,
00670082,
00520031,
0038008D,
007300BA,
00B6006E,
0033001D,
00870092,
00C200B7,
00930098,
0099001C,
007B00E4,
004B00C3,
003C00D3,
00230052,
00770033,
005500A5,
00800056,
00850074,
00B700A2,
009B008C,
006200A6,
0010008B,
00C600ED,
00130092,
00AE00A0,
00A6007B,
002A00D6,
005C00C2,
00ED0009,
00D900A6,
00EA00E4,
0087001B,
0074000B,
007A0006,
000700D7,
00CC0045,
004400E0,
00B100AC,
00A70073,
001900C0,
00370058,
00E200B9,
0068008D,
0087005E,
003100D8,
000D009E,
00E4002A,
008900A4,
00A300E8,
0093008D,
005B00A9,
00CA0049,
0023000C,
00A400E8,
00C400C0,
00B80055,
00850062,
00CE00E1,
0044002B,
00880058,
008600EA,
00CB0099,
00EE0063,
00280087,
00D10009,
007E009A,
00EA0029,
001E0024,
00220043,
00340091,
003D0091,
00520027,
00850053,
004600A0,
00650078,
00360088,
0060004D,
00EA0012,
00250053,
005C0064,
00D60038,
00AE0008,
00AD00CB,
00E7008D,
00E60091,
003C002D,
00BB000C,
00DA0074,
001E0011,
00B9000C,
006000D7,
000300B4,
003E005C,
00180069,
002E0015,
002E0008,
009800E1,
00690058,
00C70089,
005E00EA,
00170081,
0081001C,
00840089,
005800BE,
00EA004D,
0090008E,
00A6009D,
00CE008B,
005B0053,
00E40023,
001B00D6,
006A00B8,
00870007,
007B002B,
004500B0,
009300C9,
00510035,
00320053,
003E0058,
003100A8,
00D30042,
003500C1,
00D400D4,
004D0062,
00940017,
008900AA,
002700EB,
003E0039,
002300EA,
00C8006A,
000800B2,
001A0041,
00900015,
00C700D0,
00C4003B,
00920028,
00950040,
009A007A,
00A80005,
006000B6,
003D00D1,
00C9005A,
0090005C,
00010012,
00110024,
004D00D7,
00C100C2,
00C80087,
00690067,
00830019,
00530003,
00D800A1,
00D300D7,
001300DD,
003C000E,
00B9000C,
0098002A,
00300017,
00ED0020,
00260042,
004A00A1,
002900D7,
00050049,
007900D3,
00C4005D,
0064007B,
002C004E,
00010097,
0096001C,
00B6005B,
00970062,
007C0023,
001700C7,
009100EE,
00C9009A,
008100E7,
004200A3,
00860097,
008A0077,
005E0076,
00370042,
002B00D8,
00900013,
001800AD,
007700E6,
00E00015,
00E000A8,
00C2000A,
00BC0016,
007D0037,
00540022,
00DB0049,
00B10046,
00B000C4,
00C700E1,
00D00095,
0058006E,
008300E6,
00DB0080,
00D4006C,
00EB0030,
002E009E,
006900CD,
0074002A,
00A60014,
00110094,
00EB0044,
007C00ED,
002B00E2,
00B90078,
003B0029,
00500051,
00C6003C,
00A20047,
00E20092,
00310092,
0083008B,
00C100E9,
00CE00A8,
004D002E,
0098006A,
008800B4,
00E00009,
002D00E8,
00060079,
00D90036,
00230044,
00160017,
00100033,
0098000E,
006100D1,
00C000D0,
00350075,
00E7009A,
008E0050,
00A20051,
00DD000E,
003700C5,
00CE00CD,
005A0062,
00A000D2,
00A100A3,
00C10026,
0073002A,
007E008C,
00DC0028,
00BC00A4,
002D0091,
007300A3,
003C0059,
000D00D3,
0086007E,
00920020,
002B009D,
00890048,
006900DC,
006C00BB,
00770067,
00D2007E,
00160016,
000200DB,
000E00C0,
001C00B3,
00E8002E,
00D800BD,
003E0080,
00C80084,
0075003E,
00D000A5,
000D00E2,
006A009A,
00A30016,
00E30086,
00690033,
00EC00B6,
009300D9,
0073000C,
00E400A6,
00E10099,
002A00DB,
00BC00AA,
00510002,
00B30009,
003B0068,
004000DB,
00E90044,
003D0050,
00C10057,
00BC003C,
005B0092,
0097000D,
00490062,
00CE0071,
008100C3,
008E00C4,
00BA00D0,
008500E0,
00A700D2,
00EE00A6,
0091005E,
008C0043,
0052008C,
00E7002B,
00DA00B8,
0033001C,
000B0040,
00C700DC,
006B0054,
00BD0033,
00D30052,
00B20000,
00C70046,
007C00C0,
00C900E8,
00C70096,
00270045,
002000A5,
00620021,
007200AE,
00A3007E,
003200EE,
00BA0040,
00CC00A7,
006E00EE,
00CA00E6,
00680099,
00310091,
001E00DC,
00D400B6,
002A004C,
00350071,
0077003E,
002000C9,
000E0016,
00BE0019,
000100BC,
001900D7,
0008005B,
009C00A8,
0078005E,
0040007D,
005C00C0,
002200A6,
001C0038,
00C80050,
004D00E3,
00D10012,
008100EA,
00C40080,
002E0088,
00420006,
00D800B3,
00CE009D,
00420061,
00AB009B,
009600A0,
0011001A,
00A600A4,
007B0056,
00E100B5,
000C002A,
00270076,
0001006A,
00690042,
00A300A2,
008B00A5,
002A0054,
00EB007B,
00E80088,
00BC00AA,
00A900D8,
00EA000D,
008A00C2,
0097003B,
00D8000A,
00700066,
008C006A,
00CD0088,
002600D6,
0011006D,
0011008B,
005000A4,
005C009B,
002A00A7,
00C60088,
002700BC,
00750003,
002D001C,
00350056,
009200DB,
00C000BB,
00A00019,
002900A5,
00C30084,
0062000E,
00720042,
009300CE,
00B400D5,
006700C1,
00A900BD,
00800009,
009E0019,
00080001,
00B900E7,
004A00AE,
008C00A6,
009E0093,
00020016,
00DC00B4,
00480056,
00A200B7,
006600C6,
003900C8,
00750074,
007600B9,
001B0085,
005D008B,
00D90092,
001600D1,
0016008B,
00880022,
00940082,
00ED0075,
009A000D,
00E900E8,
00580016,
009600CB,
001E00AE,
000200C3,
00D50042,
00B100DE,
001A0086,
003800A2,
00500084,
00E80015,
00810077,
002D0045,
003B0001,
00290000,
00D80031,
00CB0068,
0019001B,
004E0052,
00950039,
003000B1,
0010006D,
00DA006C,
008D0040,
009C00DD,
0086006D,
006D00EE,
000A001A,
006D00D4,
00BB0039,
005200B2,
001B0006,
00E500EC,
00750005,
002E008A,
009D0041,
004E00C3,
006E005B,
001C00A2,
00950003,
00DE00E2,
008C0016,
006000A5,
00EB0079,
006E00D3,
00E80099,
007B0029,
0081002B,
003900A6,
00B7009D,
00E70012,
00AA0035,
0082008C,
00460032,
00D1004E,
00CD0075,
000800E3,
008B00CB,
005D0061,
0024005B,
003D0081,
000C0084,
00350032,
00760078,
001300AA,
00C50084,
008900A1,
00950013,
00B80056,
009E006D,
00C200D0,
00070044,
00E00062,
006A008B,
00110078,
0058005C,
00A400CA,
006900A0,
00AC00EA,
00E3005A,
002B00AE,
0061006E,
00C50053,
00AB0007,
000900E7,
001E00CB,
00B20099,
00B0001C,
0093006A,
003E00BD,
0041006B,
00CB000C,
008C003D,
00B20041,
0000006E,
001A0089,
009A0049,
00760014,
00370075,
00AD002B,
00D80086,
00880032,
00670009,
0074004C,
0053000C,
00E90020,
0084009A,
00710090,
00860011,
003C00EB,
00EC0043,
005C0072,
004900C8,
00210084,
003400C8,
006D00BD,
00C200A2,
008400D6,
007B00D6,
00D800C8,
00AA0059,
00600057,
003100D0,
00820020,
001B009E,
009B0061,
00A00085,
002A0043,
008C00D5,
004C00DB,
00D90022,
007E00BA,
004900A2,
00A00060,
007800C4,
00A900AB,
002A0069,
007700A3,
007D0076,
00C30064,
00E70063,
00C100E0,
00B4006D,
00BE007B,
001E00AC,
005C0009,
00690060,
00B00056,
00510004,
0066001A,
00AA006A,
006B0043,
004400C9,
001500BE,
004500C6,
00D800A5,
005800EB,
002100E9,
002A0006,
00B800AD,
0007008D,
00DA0076,
00B600D0,
00870039,
00CC00DC,
00E00054,
00D400C5,
00380082,
00250040,
004600EA,
00860072,
004E009B,
00B70054,
003B007A,
00D900C4,
005800E9,
00D10066,
00410060,
0003009D,
003400C5,
00100058,
00900053,
002D00DB,
004C004D,
00430072,
00C0007C,
004C0003,
00790087,
00EA00A8,
00A1001C,
00D900C3,
003C0037,
0075003A,
00B00099,
005000BA,
00B40036,
00C20008,
00E10044,
003A00B2,
0048000B,
00A40086,
00B50020,
00800032,
00770048,
00E0007C,
002500B4,
0016007B,
00EE001E,
00AE0086,
00930076,
007000D0,
007C00EA,
005D00E6,
00AE001D,
008B00A3,
00A00026,
00B80022,
00500016,
00680075,
003A0000,
009A000B,
00220023,
001C00BD,
00930077,
002400D8,
008300A7,
00340097,
009E0079,
00540069,
00EE005E,
000500D7,
00370042,
00170093,
000A004A,
009800ED,
004500D7,
00A90068,
00850002,
00ED0024,
000100A9,
006200EE,
00B300AA,
00860011,
0058002E,
006B0095,
00D8003E,
00140079,
001700AC,
00C200DB,
003C00B3,
00AB0020,
00DA00A3,
0030001E,
0072009A,
0073006C,
00760017,
00960019,
001E00DD,
001200DE,
00CC0079,
00C30044,
00E20022,
000C006C,
0049004E,
00B800E5,
00DD00E7,
00DB0059,
00330084,
003C000C,
00730079,
006E0091,
00910012,
00780023,
009800D1,
000B00A0,
003500C6,
00890088,
00B70096,
007800A1,
0027001E,
00BC00C9,
00B30099,
00B5008E,
00E000ED,
00D80002,
000000BA,
00D1009B,
007D0072,
004B007D,
00850025,
00E0005B,
00900033,
00290075,
002A008A,
00150087,
0041001E,
00C100EC,
00050007,
00BB0007,
007D0048,
00C00066,
00230093,
00B30081,
00200008,
00A1007D,
00360002,
00140025,
00540017,
00C700B3,
00A30057,
00A7001D,
006C0048,
009D00D8,
00E60078,
003D0053,
00B40075,
008400B3,
000C0024,
007100D2,
00A90008,
003500C2,
00E90020,
00EB00E0,
00CE0024,
00C800CA,
00010016,
00080040,
00E60099,
009100D6,
00590009,
00A100B0,
003E0068,
009B0067,
00B2004E,
00E80074,
0001001A,
00170081,
000A0070,
002A003C,
00130007,
00A4001E,
00070078,
0066009D,
00780081,
001C00A6,
00B700CA,
0032003B,
00A6004B,
00B80055,
00B00018,
009C009C,
002D0084,
008C0051,
00B100B0,
000700D1,
00CE00C2,
000500B4,
000E0020,
006E00C4,
0072006A,
003500BB,
00AA0060,
009600D1,
000A00BB,
000900EC,
00B1007A,
00050045,
005800BD,
00440073,
004C00A4,
00040008,
00C3009C,
00AC002B,
00B700B4,
00830092,
009700E2,
00E70040,
0066006D,
00AE00CB,
007C00C9,
003B0050,
0067003B,
007D007C,
000D00BD,
00E700E8,
00B6005B,
00D80084,
003E00A8,
000600C5,
007A002D,
00D300C4,
00110048,
00640069,
007100D2,
006B00D9,
00960047,
003B0075,
005E00BC,
0024008A,
0076004A,
00E9002A,
00270091,
004A0046,
002B00DC,
0004002C,
006900A0,
006300C3,
001800CD,
00AC0062,
000700B3,
00580036,
00ED0054,
004700EE,
008500BE,
009600B6,
00A100AB,
004C000D,
00B3007E,
00770053,
000400B9,
009A006C,
00A60077,
00C40052,
009C00D0,
00930052,
00690059,
00880084,
001800C0,
00B400B3,
0012000C,
006A009B,
00EC00A4,
004400A6,
007100C5,
003B00AB,
00030046,
00A7008E,
0004002C,
00120013,
00440014,
00E1004E,
0039003C,
00A40038,
007B0005,
00E1004E,
003A0009,
005500DA,
001100B5,
00140023,
002D0023,
0021003B,
00730012,
00D20096,
005B0026,
00A00028,
00570043,
001E004D,
00ED008D,
00E600DC,
00AD00E7,
00D50068,
003300E8,
0029005B,
00B800E9,
00BD002D,
00EA005C,
009700E5,
005D00BB,
00350070,
004C00B7,
00B900D8,
00580014,
00620057,
0069002E,
0093006A,
0009004C,
006C009D,
004C00A9,
00310044,
006100C3,
0086007E,
001A0016,
00AD0057,
00E7005A,
00250078,
00A4000C,
00960037,
005400D2,
004B0009,
00080046,
00A50066,
00D800C5,
007D009C,
00B8007B,
00B3006D,
00CD0041,
00D700D1,
002B0010,
003700DE,
008900D4,
00DA0014,
001C0067,
0016005B,
00EB00E4,
0029000B,
0030002C,
001500A9,
009E00E9,
002900A1,
00D8000E,
005900AA,
002D0033,
007100E3,
00B40037,
00760029,
00B60059,
006C00D1,
002B0072,
004E00C1,
009C0047,
00DB00D0,
00A3008C,
00CB0074,
001C00CD,
008E0096,
00D9007E,
00A50003,
0061001B,
00100023,
0053008A,
001600C9,
00280001,
0022002C,
009700D0,
008700CC,
00310025,
001400D4,
0031004E,
00A10088,
0067006B,
0086007C,
001E0090,
00950065,
00D100ED,
00220045,
00770004,
000600A7,
00460035,
00350069,
003900D1,
00B000B3,
009E009C,
00E4001E,
00A7009A,
0038000B,
003A0068,
008E0007,
00420066,
00C20097,
00090061,
002800AD,
00E500BD,
00020029,
00D60092,
00230088,
000B00A8,
001800A4,
000000B8,
007800E2,
00D40042,
00510045,
00000088,
00DD00E4,
0011002A,
00D6007E,
00BD0043,
00120066,
0008005E,
00CE00C2,
00CC0015,
00C20043,
00BA00AE,
00B70094,
0076007D,
007400E9,
002E00DD,
009D00DD,
00CD001B,
00D200A5,
00A50016,
00510090,
0090007B,
0000007C,
002A0005,
008700B6,
00A50065,
009C00D7,
002500E9,
00CB00A6,
007A0074,
00720038,
0069003E,
00E700E2,
00490073,
00B60018,
005A00DA,
007E0039,
00CA00A7,
001400B3,
006D00C5,
009400A2,
00EE00E5,
00B50080,
0085003B,
00660082,
00B1004E,
0038007E,
00BC002A,
006B00BC,
00B00010,
00E2008D,
00650092,
0027004E,
004D00CB,
00B10035,
00E4007C,
009B00EC,
007A00C6,
003A009B,
007300CD,
0002005A,
008900CC,
005A00E7,
00A7003A,
000B0045,
004600CC,
002200A1,
0088007A,
005B0040,
005A00A1,
00A50060,
00B600A3,
00D700BA,
003D0076,
00D9004D,
003A003E,
00A00086,
00B0000C,
0031008D,
00560028,
00050061,
005700D8,
0047003A,
009300BA,
007600A3,
009E00B8,
00B600CE,
004C0017,
002B001D,
00B90061,
0090006A,
00E100C6,
00210044,
0070002E,
00750051,
0042009A,
002700D0,
003300D0,
00330001,
005A004C,
00CC000A,
00CA00DC,
007200EB,
00D900E1,
00530017,
008D00DA,
001A00A1,
00D90081,
00B20069,
00B800CE,
009000EE,
00D700B5,
004900C9,
00640045,
003E0073,
007B003E,
007B0054,
00B5004E,
003700CE,
00D0008B,
001C0052,
002B005B,
00C800A5,
007B0089,
00330042,
00C400C2,
00AB00A5,
008900A1,
0096008B,
009300B1,
0013008E,
003400DA,
00880053,
00A600E3,
005C0057,
00EA0040,
008C0055,
00410001,
001E00D1,
00A100A5,
00D400D1,
00C50057,
005E0090,
00B300B8,
00D800EC,
00AC0032,
00740005,
0040000E,
0001001D,
00640080,
003700BD,
0081004A,
004000CE,
006D009E,
007400E3,
00DE00DA,
003C007C,
00C00057,
005E0096,
00770029,
00C00093,
00E8005E,
00870051,
00AC00AC,
00C100A3,
00490001,
00730028,
005500DC,
00560051,
00DA0055,
005000B4,
006100C2,
004E0069,
00BB0036,
000600AC,
00B1005E,
00D0004A,
006C006E,
00470016,
00C20098,
002B00D0,
006800E7,
00EC0033,
00B7001B,
00440057,
00050044,
00D80028,
008300B8,
003100DD,
004200D1,
003000A5,
004A00EE,
00D60042,
000D001E,
0088000A,
0086009C,
000A00D0,
00B70046,
00DE0065,
005A0047,
00080084,
00EA0042,
008900BC,
00E800C1,
007400C4,
007C002A,
003600EE,
002B00CD,
0048001B,
00640022,
00280044,
000A00D0,
005C0094,
00B50015,
0007007B,
00D60030,
003B0017,
00080035,
00B900DD,
000700CD,
001900C9,
00CA00A7,
00B70074,
008C0044,
008600E7,
007C0012,
00BB00C4,
00D20042,
00EC00DA,
00C000A0,
0053009D,
00940061,
00B40071,
006E00A3,
00EB007C,
00A30085,
009A00CC,
00A900B7,
00530021,
00350088,
002C00B1,
009200A0,
004300B1,
0042004E,
003A0096,
00560010,
00B0003C,
00940079,
00900051,
00EC008A,
0088003C,
00900049,
00EA006C,
00450034,
00620085,
009E009E,
00BD0031,
000A0006,
00E10045,
009A00BD,
00640050,
00370050,
00E10037,
00E60051,
00D8000B,
00150035,
003E00BB,
00C20001,
008100A3,
00720012,
00120087,
00240024,
00A800BB,
00710065,
000100AD,
003400E3,
006E000E,
007E00DC,
002D0047,
006100A9,
0051006C,
00C40021,
00D30010,
009A00EC,
00570090,
003E0089,
00A80032,
00640041,
000C004D,
00700040,
00440016,
0051005A,
00880073,
001800D0,
0049001B,
000000CA,
0046006C,
00E40003,
00DC0089,
007A0059,
00100036,
00A30037,
00D00016,
00AE00CE,
00030046,
0068003D,
002D00B8,
007500D2,
0005005B,
00A3008B,
007000D2,
004D009C,
00EE0024,
007A0040,
00B5003C,
006B004B,
009C0025,
00BA002D,
00B1006C,
00A0005E,
00480070,
00CB004E,
0037006E,
000200C9,
005D004C,
00BC00ED,
00220072,
007E00DC,
009400E6,
00B500A6,
00490049,
00B6004C,
003800C3,
003900A2,
00A400AC,
00480035,
006C001A,
00E50025,
00BC0033,
001D0041,
005500CA,
00C600BA,
003C004C,
005B0053,
007200D7,
001900CD,
00EB0044,
000100D3,
003C0055,
0075001D,
00760056,
00AD0053,
006C0096,
003E000A,
004E00B5,
00D0009E,
003E00D4,
0069005A,
003200A0,
0066008B,
00AA006E,
003A0052,
00320011,
00DB0057,
002E00A6,
005400EE,
00940072,
00690068,
006100E9,
007900A8,
00A10069,
00340086,
00740037,
00AB0065,
003E000C,
006C004A,
002B00BC,
000E0051,
00840094,
001C00AC,
00C200B8,
00E40018,
00E80072,
00D8009C,
00C7000A,
008200A2,
00B50046,
002200DA,
008D0006,
0039004B,
00130034,
00CA0004,
007200EE,
004D006C,
004300A6,
00A60014,
00820001,
00E40075,
008B00ED,
001400EC,
00120068,
005600B7,
0014000C,
003B00D7,
008600E5,
00430007,
00D800E5,
007900C0,
00EE008C,
00E70001,
00CA007C,
00EB00C2,
0064005B,
00E50088,
00570009,
006B00E4,
004E00C6,
0075006E,
003A0084,
00B10031,
004D0080,
00380072,
0022007D,
00D400D3,
0038001B,
00CA00CE,
008400B1,
00470079,
00E800C0,
001D0013,
005B0084,
0070009B,
006A0010,
00E9007D,
004C00B2,
00620099,
00900024,
00160031,
0022009C,
006300DD,
009A0087,
00DA0095,
00D800D8,
00A4002D,
005D00B1,
00250023,
00480044,
00EA00EE,
000A0045,
000D008C,
00A300A1,
00A300E4,
00C00014,
00DA008E,
003A007A,
00A90015,
0038003D,
007C0057,
00B00015,
00230039,
00AB005B,
005B0073,
0051001C,
003B00DE,
005C0037,
00A400B6,
001E0030,
00910034,
00BB0035,
002400A4,
00CE0087,
00C50034,
00D80043,
00490068,
009C0048,
00E10007,
00200091,
007D00A6,
00D2004D,
0099002D,
005E00B3,
006A0029,
00CD005B,
006A0037,
00120054,
00050012,
00D4006E,
0059004E,
00B800B8,
00C70008,
00800019,
00810020,
005700CE,
00C60089,
00430020,
002000A4,
0097005C,
0091000D,
00790088,
00BD0061,
003B0098,
00D3009A,
00910011,
008D00AC,
00AA0039,
0060007E,
00E700DB,
000500B2,
002B00DC,
00C500E9,
008B00A7,
00A80005,
00C000BC,
00400066,
00900003,
00B900C6,
008E0045,
00320040,
004600B9,
00CB00C4,
00740012,
00C300E5,
00460099,
00260053,
00470031,
005700C0,
00030009,
00710047,
006500D7,
00220012,
00CE0073,
005A0083,
005A0017,
003D008D,
00940057,
003200D0,
003B0087,
00820030,
00E40093,
00590073,
00CB00BC,
001700BE,
00B100A5,
003100E2,
005B00D4,
00B7001B,
00D000B7,
0038002D,
002A00D5,
008A0010,
0073007B,
00A6008B,
00980032,
00EE00B1,
0088008C,
00780013,
00940020,
00E00090,
00E10090,
0070000A,
003B0074,
00A80068,
000B001C,
00E80013,
00B9001B,
00CB00DA,
003300A2,
00EC0041,
0082004B,
006400B3,
0088005C,
004C0071,
00CE00DB,
0030003B,
008800CB,
00CD00B6,
00D300B2,
00740061,
00300075,
00630039,
002E00CD,
00600007,
00530092,
00A70077,
00D10075,
00860099,
000000C8,
004500E7,
0075003E,
0094005E,
005C0006,
006D0041,
00DE0012,
00590082,
00260013,
009E00E9,
006D00EC,
00BD00EE,
004E0011,
00780037,
00CC001B,
00EC00C6,
00260038,
00C7009E,
005E005D,
0093001E,
00DE00EC,
0006003B,
006D0077,
00430060,
00DA000A,
007C0097,
0037009E,
00C60095,
009D002B,
007800D8,
008E0082,
00680043,
002C00E6,
006B0097,
00E90002,
005D00BB,
002200E8,
000A006E,
0041005D,
00B90010,
00CE0015,
00E1003E,
006E003E,
00260052,
00E20087,
00C90043,
001C004E,
00280097,
0011008C,
007700CC,
00920012,
00ED008A,
00DA0075,
005300B4,
0042001D,
002900C3,
005B0094,
00AA0060,
009B005D,
00400098,
0064004B,
00340054,
00360007,
00C000E8,
00B100AB,
00A600C5,
000A00D3,
007B000E,
00E30055,
00D50096,
002E001D,
00DA00B3,
00780083,
00E300B8,
00CA00E2,
001C00BD,
002A00D5,
00650019,
000A003C,
00C3005D,
00790008,
00B00024,
009300A0,
009A0046,
001800B6,
00880061,
004A0049,
00BB0014,
00C90036,
0018001D,
005700A8,
00C700BC,
00720030,
00A30070,
00820070,
00CA0057,
008500C3,
002100B5,
0070008B,
00EB006E,
003500D3,
00590042,
00A50025,
00DA006B,
00A0001E,
00560051,
00060055,
000000C3,
00DA0012,
00140066,
00140085,
00C1003C,
005E00EA,
00150027,
00E80057,
00BE003A,
00D8005A,
00DC0077,
00AB0023,
007E004B,
003600D7,
00A200BB,
00570067,
000000D8,
00D700B5,
00E800D8,
00E800A2,
00BA0088,
00960081,
00590086,
00B300A4,
003E0080,
00C600A0,
0030007C,
00C1006E,
00B500E1,
003B00EC,
0012005D,
0072007B,
0029009C,
00A300C5,
002B0024,
00B90001,
007A005A,
009700DB,
0029004A,
009E000E,
006100A9,
003700D6,
00C3009C,
007800AB,
001400AC,
00B6006E,
00E40081,
002B00C0,
003A00DA,
005C00EA,
00D300EE,
008A00A6,
00E600DB,
003000B1,
00B600A1,
005800C5,
00400008,
0007002C,
00A4004A,
001C00DA,
00CA0055,
0043006B,
00E900DD,
00620078,
003100B2,
00170071,
0071004A,
00B7007D,
000D005B,
00850010,
00B20044,
005A00C0,
003E00DB,
005E0017,
000D00C9,
00BC0010,
007C00E1,
00B20021,
0094005A,
00710093,
005D00CC,
00B10072,
00AB0095,
00080003,
003100E9,
0009008E,
00CB0032,
008A0014,
00610080,
00C80000,
00700059,
00B200DE,
00D700C4,
0013001E,
007A0085,
00E5008E,
00D8009A,
0001006B,
0074001E,
0058001C,
00ED00EC,
001700DC,
00A500A8,
00330014,
00AB0001,
00B500EB,
0047009B,
00990085,
00500085,
0094003E,
009800A2,
00420018,
0016005A,
008B00BE,
00BA0048,
00CE001C,
00C900A8,
008A0006,
006D0083,
0091003D,
0057006B,
00900014,
000C002A,
00170009,
00C700B4,
001000C6,
00A3004D,
00E100A8,
001500C1,
009000C4,
00750006,
0059007A,
004B008A,
00CD004A,
00660051,
007C00C5,
006400CD,
00660085,
00B10056,
00B7005C,
00190052,
0057000C,
003E00B4,
007400EE,
00180040,
00CA0084,
001200E9,
00E000D7,
004100A6,
00910042,
003D00A8,
00ED0046,
004700A0,
00E900BD,
003D0045,
0083001C,
00770093,
00C1007C,
006D0021,
00B700E8,
00B30092,
002C00AE,
00A500C9,
00270004,
002A00A8,
00C200A3,
001D0073,
000600CB,
00BC0089,
00D50044,
00810055,
00DA00A3,
006E006E,
00C7009C,
00ED00AD,
001E0074,
00B700A9,
00D20027,
003000A1,
00000029,
00CC0021,
0032000E,
0066003D,
000B0069,
009C00B4,
002500EE,
005E00ED,
00E100A5,
00370046,
00E80033,
007C002A,
0037007C,
00E4003E,
00EE001C,
001600D5,
007A00A5,
00300044,
0014003E,
005E007E,
00B6006E,
0079002C,
00BA00D8,
0078000C,
004600D8,
00E00076,
009600B0,
008B0008,
002000C8,
00470041,
007D00C3,
008500C2,
00250084,
002C0075,
00EB00DA,
00DA0026,
00D100B9,
00620099,
00D7004A,
003E0050,
003E0075,
00890097,
0088007C,
00E700BB,
001400C6,
00C400D7,
009A0032,
004000CB,
00130092,
004E0044,
00D60074,
0066007E,
00C5006A,
00C20097,
007D0038,
00B9007A,
00B500A1,
00D200BD,
00EA0036,
00230079,
00A70073,
00050068,
006200B3,
00CE005D,
003800DB,
00D50013,
0037008C,
007600BB,
007300BB,
00C100DC,
00270016,
005800E0,
0000001E,
00CD00D3,
0081008C,
00300038,
00660003,
007100BC,
00600036,
00140096,
00A20057,
00CC00C6,
003A0045,
00680074,
009D0027,
00AC00A6,
002700E5,
000B00B2,
009100C3,
0094008E,
007E00C1,
00AD001B,
00A5005E,
00BA00E3,
00620089,
004B00E3,
00190042,
009E009C,
009000BD,
001D0069,
00540064,
00BD00E2,
003800C8,
001900A2,
009400A8,
006400D1,
00CD00EC,
00A000C4,
00080018,
00520003,
00DC00D5,
0027002C,
00650056,
004D00B3,
0045008A,
00DD0029,
00B70048,
007E00C3,
004C00B2,
007B00B6,
00E700CA,
00AD000D,
001800E4,
007500C0,
00840093,
0086004D,
0088008C,
00A600EB,
00540033,
0016006D,
00D70090,
00610011,
007A0003,
00E00012,
00B00049,
006700BE,
00B000BB,
000700D8,
00180058,
001E009A,
00DA00A9,
00A20051,
00ED004B,
00540008,
00860037,
007A00E3,
006900AD,
000B00A4,
00990092,
000200B2,
00B50015,
00180076,
00C10073,
0012006C,
003100BB,
001E0097,
00460012,
0036008D,
00A5003C,
00D50004,
001D0065,
00700059,
004A0057,
00E00023,
00D6005B,
00930027,
00A50033,
00B80020,
009D0050,
001800DA,
001100ED,
00B40029,
002A00C6,
00D000B2,
00940057,
00CB00D2,
00C5003D,
00BD00D9,
00AD00D7,
00CE009B,
007B004D,
007700BC,
000200DC,
009A0050,
006800CB,
00BD0067,
00440081,
00BB005A,
001A00CC,
004700A2,
00340028,
00ED0063,
00A00079,
00A800E6,
0029005A,
00D60027,
00D700D3,
00A900E4,
00AB00EA,
00C0005E,
005000D8,
009600ED,
002E0072,
00A00068,
006D00E4,
00CA0049,
009A0046,
00B00032,
0017003D,
00D300BD,
00D30062,
00390015,
006000B2,
00DC00C9,
00E50075,
00B80030,
00A900B1,
00B90064,
007C00A4,
003500CE,
00E90012,
00B50086,
00A60010,
007A00D1,
0018004C,
00300082,
009E00EE,
0048000A,
003D00A3,
0006004D,
006000D5,
00910022,
00EA004B,
002800AE,
006700A6,
00A5002B,
009200A5,
0077004E,
001A0006,
00760025,
00CC005D,
00B30050,
0073000C,
00B8007A,
00150025,
00A100B0,
00EC001A,
00930030,
002C0061,
004200A3,
004B00AE,
004D0027,
00170013,
00C90028,
007B009B,
00C20056,
0094000D,
00E8003C,
002200B2,
00B20088,
002000E2,
00A70061,
003D0060,
003A00BE,
001300BA,
00290074,
00EE009C,
003E0006,
008A009E,
002000E6,
000800A5,
00A00076,
00860005,
00480059,
00BC0037,
000A00D0,
00EB0004,
00A800C3,
006500D6,
00A200CD,
0062004D,
005C0063,
008400AE,
001000BB,
00B90014,
00D30061,
004800EC,
0085004D,
00A1007E,
0038000D,
00CA0044,
00450004,
005600C7,
00280053,
008200EC,
0098001A,
002100C2,
0087005A,
00DA00A8,
00060096,
004E000B,
004900C6,
002300CC,
006600D2,
00B60095,
0002001D,
003C001E,
00630019,
00D3009D,
007C001A,
005D009E,
00B700E2,
006D00BB,
00ED008A,
00070012,
00360059,
009B009B,
002D00D4,
00C10065,
0004006C,
006B00C4,
004500D6,
005700DC,
007600D2,
008A005E,
00E900DD,
00960031,
00490057,
00D400E6,
00C2001D,
00D700E0,
00EA0024,
008A008E,
00AB0075,
006B009D,
005B00BC,
00B3002C,
0016001E,
005600C3,
007B008A,
00DA0059,
005E00C3,
00220009,
00970023,
00030017,
008700D3,
00EC009E,
001A0068,
003A00BA,
00A600B7,
006C00E3,
00DD00E2,
00960059,
00B10094,
003D009E,
000B006B,
00C000D1,
001B008B,
00360033,
004500B3,
000A004D,
0054009B,
00D200D3,
002100C7,
00770019,
00D5001A,
00560095,
000B0053,
0005002D,
00560092,
00A20028,
002900E6,
00BD0006,
008400E6,
00EC0039,
000400E9,
00EC0054,
00EA00D4,
000A00A0,
00EC001E,
00E7008D,
003900C0,
00A80045,
0019003D,
003E002D,
00D400B0,
00D40098,
00AB00B7,
00EE00BC,
006B005B,
008000E1,
004600A3,
004D00DA,
00D300C3,
004B0033,
009700D6,
001100EC,
0084002A,
00CC004B,
00900061,
0063008C,
00E10020,
002B0059,
005A0017,
00E60025,
00440023,
0029008A,
00EE005C,
00CB0081,
0053008D,
00880041,
009A0082,
00C700AE,
00390090,
00DB008C,
007A000E,
00D50002,
00AA00ED,
00E400AB,
0032007C,
0077004B,
008D009E,
00E50092,
00010083,
00BA0027,
00BC000B,
00420092,
0080009B,
009D00B6,
001B00E6,
008100ED,
0092008C,
00B9005D,
001500D3,
00A90076,
00B6004E,
0024001E,
00730064,
008D0029,
00A10075,
00E2000C,
00A60017,
00B600BA,
004E0022,
007500C1,
00D200C7,
00CE00B8,
001200ED,
00A60086,
006000A1,
003B0093,
007C0050,
00280093,
004C0057,
00590065,
007D0047,
00CB006B,
00E00047,
00D40087,
00A00099,
001B00AE,
00DB00A9,
00B30054,
00E900E8,
001A00C8,
00AC003A,
00B30075,
002D0001,
003D0068,
002A0073,
00E20056,
0006000E,
000300DB,
00AE00DB,
00660063,
00B4007B,
00100002,
00D80017,
000D00B1,
008200E2,
008300E7,
00310019,
006E00B2,
00430022,
00CD004D,
00C80010,
001500D3,
00BE007D,
00CC0058,
007E0076,
00B80010,
009C00EB,
00960021,
00A70072,
00410052,
00A60044,
00320052,
00C200D8,
00B50016,
000000AE,
003500D7,
00B9002B,
005100D6,
001E0090,
006D0036,
00E3007C,
009E005A,
00530055,
00AE0083,
00900010,
005200A8,
004900D0,
003200BE,
00C00079,
00E500E4,
003A00BE,
00AC00DB,
0033008D,
006900A6,
001A00C3,
000E00EA,
00CE001D,
009500A6,
00930019,
00740006,
00A80070,
00BC006C,
0009002B,
0045007C,
00C800B5,
004E00A0,
00A500C0,
003C0077,
00E20040,
00A30055,
00AD006C,
00BD00A8,
000100B1,
007800AA,
003C00C6,
005C003A,
00E00092,
009E0077,
00630011,
00020004,
00020059,
000B00C1,
0065002C,
00BD00CB,
003700C1,
003A001E,
00890024,
0043003B,
00C60080,
009B0002,
005A0015,
006C00BB,
002700E7,
00B4001B,
007100A1,
00CC0010,
003800B4,
00C80070,
008800DA,
009900A8,
0096002D,
00660007,
00B900D8,
00890049,
0043004E,
003C001E,
00430015,
00070062,
002E00C1,
008B000D,
00B00040,
00BE0080,
000C0019,
009D0092,
00620048,
00120051,
000D00B8,
007C0053,
007900AE,
00A2005A,
00EB001B,
006D0088,
00C200EE,
000B00BA,
004E009E,
008B002B,
00A40039,
00760060,
00AD0043,
00740082,
004400A3,
00ED00EE,
0010003D,
004800E7,
00C200D1,
001100AA,
00AB0095,
00EC00C0,
00940065,
00330099,
006B0014,
00210031,
00DE0007,
00BC0010,
0011003C,
00020040,
006E0066,
00E50036,
005E007C,
00A700E0,
00E6000A,
00CD00BE,
00DC005D,
008C005E,
00C8008B,
00E000CC,
00B700DD,
003800E7,
0098005A,
0062002E,
005B002B,
006E001D,
001A00E7,
001400D8,
003C0087,
00A800C5,
007B0061,
009A0029,
00AD00E0,
009600D8,
00A700B4,
00580014,
00300077,
00B800EE,
00C600BE,
007C0098,
00EE0063,
00030007,
00800096,
009E0015,
00D80098,
00390088,
0098000D,
00DE00D5,
002000C3,
001900B5,
00890000,
00970011,
008C00A9,
00470084,
0095003C,
00890005,
00490018,
00DD0045,
0094000B,
000A009C,
003B0082,
0003000D,
000000C8,
00ED0057,
00DD0031,
00DB00B3,
001D0053,
001800DC,
002B009A,
00A50068,
00E0008C,
00A5004B,
000D0092,
0047005E,
00BB0039,
00BD00B3,
00C40070,
00AD00A2,
00A50045,
0008009C,
002000D7,
002500ED,
00C200DD,
00870009,
00DA00EB,
000E00BA,
005800B5,
00120066,
001800AE,
00A100E6,
00980002,
007D000B,
001D0063,
004700D2,
0079000C,
001D0002,
0073000E,
00060019,
00370021,
00D10089,
00EA005B,
00020027,
000E005C,
008E006A,
000400E7,
00A0001C,
00E10030,
00C90099,
0019008C,
00CD002A,
007E00D1,
0092004B,
00D700CE,
00030031,
00660009,
0008001D,
00B200B3,
0073009B,
006000EE,
00CC007D,
00C30055,
006C00D9,
00E1004E,
004200C4,
00210022,
003200DB,
00440058,
009D004C,
0070004D,
00880004,
001C0090,
003500A0,
00200023,
002C0057,
00ED0036,
007200E7,
0039008D,
00D70097,
00970002,
00600086,
005C0062,
00C70079,
00B10065,
00AE0032,
004800C4,
006A0085,
00A8002E,
00ED0087,
00E30075,
0099000D,
002200CA,
00E80015,
00DC0096,
0057007C,
001400AB,
0023005D,
0040003E,
00B00096,
00270012,
00DA0012,
00DA0044,
008D0090,
000600C8,
005900E5,
0017001D,
00BA00EC,
003E0063,
00BA00DC,
00E60070,
006D00AA,
001A00CA,
00DA005E,
00C80047,
00E8007B,
00880044,
004B00AA,
00B400A5,
005A002A,
00120023,
002B000C,
00190050,
00E100B7,
00A30090,
00A300D0,
004E008C,
002C00B8,
009B00DC,
00420061,
00680024,
006200E2,
003E0074,
0009009B,
008500B8,
00120058,
002200B4,
004B0039,
004900C6,
00CA006B,
00C500AC,
0069008D,
00C300D2,
00B00015,
002E0037,
001C0023,
00130078,
00450099,
00A70034,
009D00B2,
004E0074,
00180027,
00D80063,
00E40026,
00B50054,
005600A8,
00D50072,
008D00B7,
00E30096,
007B001D,
001A00EE,
008D0091,
00AD00AE,
008D008D,
00D20079,
00930037,
006D0022,
00070026,
00EC00BE,
00690082,
0094007C,
00280035,
00C20055,
005E0054,
003700AE,
008C008B,
00890086,
00AD0002,
00570040,
008900C6,
003E00B1,
0091001E,
0080006A,
00950057,
00B80052,
00B10094,
00AB005A,
00150035,
00A100BE,
00C30016,
00380026,
00D4005A,
00C4007E,
00D4001E,
00740067,
00AA0043,
00840085,
00010077,
00D30044,
00BC00CA,
00B30091,
00A00021,
00ED0022,
006A00DE,
009D00A4,
00AB006D,
00200027,
00AA00B8,
00510012,
004400BE,
00B500B3,
007000C0,
00B3009D,
001A00E4,
006600D4,
005B0051,
00A3002B,
00E20093,
006E001C,
005500C8,
006700B1,
000E00D9,
00A200CA,
00C10014,
00710038,
00620066,
00450035,
0000004C,
00C20057,
009E002A,
00790080,
007A0023,
001D0094,
0017008D,
007D0069,
00A30003,
002300DE,
00D00020,
00300072,
00310004,
00D30061,
00670054,
008B0064,
00880000,
004C00BA,
00860056,
008800C6,
001000A9,
00190097,
00EE00D7,
001A0062,
008700C5,
006C0094,
008800D0,
00E80060,
00BD0044,
0069001D,
00DE0049,
009B004E,
006A0087,
000C00D8,
009800DC,
007C0013,
00EC00A2,
0014002A,
00770056,
006E0007,
00D000B9,
006100D8,
002C00D2,
009B00E4,
00E900E2,
00A50075,
00CC0047,
00D300C0,
00A20016,
007800C5,
0096002A,
00940033,
005800E1,
0082005E,
00CD00BA,
0064008A,
004500D3,
00A50083,
009200A2,
008900BA,
00350072,
004C0054,
00850045,
000B00E9,
00C1009A,
005E0003,
008A0023,
005700EA,
00A500CB,
002400D3,
005A0046,
00C9007E,
00E200C3,
00070009,
00