007B00E5,
00370023,
007600D9,
00BD00D1,
00030038,
00CE0015,
00C90059,
00D100B3,
0042007E,
00AA0030,
003400A9,
00210004,
007E0054,
00DB00DE,
009300BB,
00D50024,
00970001,
00460044,
00190038,
0032003D,
0000002E,
00C8001A,
0088000B,
00C100D8,
00960046,
008B0029,
003600A2,
00B7006C,
00D900A7,
0048006A,
000A009A,
003E000C,
005B00E9,
006900A5,
002A00B6,
00200018,
004000B5,
00E30005,
00C900BE,
00D50010,
00A00038,
0055000C,
007500E0,
005800B3,
00D70096,
00B100E6,
00950068,
002200A6,
00EE0028,
00AC00A5,
00140052,
002600A6,
00A600B9,
00B7004B,
00830042,
00C70041,
00B30041,
00AB0070,
005800B0,
009E0081,
008400A3,
0011000E,
008600BB,
00D20051,
00880088,
003D0058,
007B00C2,
006A00B8,
00C8000E,
00880012,
005C0010,
008800D8,
00340021,
008A0041,
00650040,
00EA00E7,
006C007D,
00CA001E,
005E003A,
0061006D,
001A0004,
002700A0,
00AD00D3,
0040006E,
008600BB,
00B10010,
00770017,
005B0030,
00470018,
004E00D6,
002D0075,
00C10054,
00A90054,
005000EC,
00CE0046,
00530038,
00900076,
00CD000A,
00720070,
009000B8,
006D0022,
005500A6,
00680083,
00300058,
00C60071,
009C005E,
001B00DB,
00810006,
000B00B8,
008D00AE,
00D000D3,
00EC00A8,
00EE003C,
009C0042,
00E90072,
00B800C7,
00B7002B,
006D00AE,
009E00BD,
0016005B,
004300E1,
003E00E2,
00300012,
009500E2,
008200D2,
009100BE,
00470027,
005300A7,
00860046,
00C500E1,
00CB008D,
0063007B,
002A0026,
00BB0092,
00D3003B,
004B00A1,
00BD008C,
00240056,
005500E9,
00CE002E,
006600B4,
002B00CD,
00ED006D,
00860097,
000A0053,
0028004C,
001800E9,
001100E6,
006A0044,
004D0023,
000100C3,
009200BD,
0067001A,
00520035,
00A800B3,
00680029,
00EC007A,
004A007B,
005000CB,
00E9004A,
00600070,
009A0066,
0001002C,
00E7008B,
001D0084,
00DD007D,
002E00A8,
00BE0044,
007D0098,
00460050,
00DD0079,
00AC0007,
006400B7,
000600C9,
007E00AA,
008800B5,
0006000B,
00A70034,
00640017,
00D10064,
0013008A,
002900ED,
003A0010,
0004006E,
003000E3,
00AC00BA,
00B50063,
005400AB,
003A0036,
002500A0,
002B0070,
00900080,
001900C5,
00250016,
000100D2,
002C008C,
00310080,
00140055,
00C200EB,
000200AB,
006B0007,
005900BE,
00100020,
00C6000D,
00D00063,
008700CE,
004700DE,
006D0043,
00E40047,
00B5006E,
00580039,
00270054,
00B50067,
00290058,
007A0019,
00310076,
00C300B6,
001A007A,
00B30029,
00460066,
00420094,
00890015,
00310080,
00840050,
00A20010,
005000C4,
003600D3,
008800E7,
0099003C,
000000D5,
00BD0034,
00B300C1,
005E00D9,
00EB0026,
00CC004A,
00D1001B,
00DE0002,
00860022,
001600B7,
0087000A,
005D00B1,
008B00E7,
00BB00B8,
00910047,
008800C7,
00CC00ED,
009E00B0,
00440029,
00C300E8,
00BE0070,
00300084,
004B002C,
0086001E,
002800D3,
00550048,
000C0096,
00640053,
00230034,
009D0084,
00EB00B8,
00AC0011,
00C600B1,
004D006A,
00E400CB,
004E0021,
004600E1,
007100A0,
00BE004B,
00A80055,
009C0099,
00AB0026,
00880077,
00B000C4,
00AA0001,
00250081,
00310084,
00D00087,
00530045,
00BD00C7,
00610091,
00A10077,
00E500D3,
001C006C,
00A40061,
006400BA,
005A0028,
00C1006E,
0048003A,
00640055,
00E10075,
00BE00EE,
003700B9,
00870000,
00160060,
003B0086,
00B1008E,
00B00049,
00E90076,
0055007E,
005700BE,
00A1003D,
00AA0036,
008B0064,
0037008A,
00AC00DA,
0048000B,
00B200B4,
002A0089,
001A00BD,
006D0042,
0062002A,
00E0000E,
00A90059,
00B10017,
00850089,
00100034,
004C0097,
00DB00D0,
001700AA,
005300C2,
000200B4,
004E0005,
00510093,
00E200AE,
00B8008A,
002D00D2,
00C0008B,
005C0048,
00AC00B8,
00A2008D,
00D800B3,
00C10014,
00EE00CC,
005A0024,
00A20072,
00710067,
00490027,
0081001E,
008E006B,
005200B2,
009200B8,
00750096,
00D30079,
00B1002A,
00E30040,
00D00033,
00590068,
00D10055,
0018004C,
005700E5,
007A00EA,
005D0048,
00D0007E,
00830002,
00B3003E,
00D3001E,
00BC00AB,
001800A8,
00B60033,
007B00A0,
00A600EE,
00880052,
001D00BE,
00E0004A,
00E900B4,
00DC006C,
00060029,
00DA001D,
00C300B4,
0066008B,
000000DD,
00D30061,
00AA0059,
00CB00CD,
00DE0062,
00660017,
00D700AB,
008B0056,
00400079,
002D0080,
0089006A,
002D0009,
0070000E,
00C00036,
00960022,
00580083,
005600A7,
006D00D3,
00000075,
00470036,
00480078,
00BC0012,
000D0092,
0045009C,
000D006A,
00AE00ED,
009C0088,
00E7001D,
00C000CA,
00290028,
003B0018,
009200D8,
00180013,
0050004D,
00C600D1,
003B008E,
0084002C,
004500C8,
00C300DD,
006700A3,
001D00A7,
00BD0007,
0061007E,
0018000E,
00D100E0,
005200CA,
00720086,
000400E6,
00D9004E,
00850071,
00190043,
00710046,
006700E2,
00BE00E5,
00D800B1,
00300066,
003A000C,
004D00D7,
00D10020,
006800D2,
004A0082,
00C80011,
004100E9,
001000B2,
004900CD,
002200E6,
00A6006E,
00C6000C,
00070001,
004D00BE,
00210014,
008E005B,
007A0042,
006500D6,
001C0084,
00BB00DD,
001A0043,
00C20062,
00B40054,
001D00B9,
00AB00B7,
00D4006A,
0063005C,
005D00D1,
00E80022,
000A00A7,
00280072,
002200EC,
00900014,
009200CD,
004C00EA,
00E0006C,
0041002D,
00690016,
00E80044,
00DA009A,
0099009B,
00E1001C,
00340021,
007C0007,
00580006,
003600C9,
007C00CA,
00C70002,
00720014,
00980026,
00E00010,
00E7006D,
00D40009,
00BB00DD,
008A00E8,
00410043,
008100E2,
000100E7,
00A200C0,
000E00D3,
008C00DD,
00A100CA,
00A700AA,
00AB0060,
00310027,
00D70011,
00A5003B,
002E00AD,
009D00BA,
00AD0096,
00070056,
001300B7,
001800E1,
0089008A,
00B5008E,
00310047,
00BC009B,
000C00A9,
00CC005C,
00CA00EC,
00C60060,
002600D2,
00BD00A3,
009D00A5,
007E00E3,
00DC0017,
0037003B,
004B0098,
006E0086,
001300A0,
00640013,
0042001E,
002900DA,
004D00A0,
00670054,
00410057,
000400E4,
007A0028,
00800023,
00030055,
00A20074,
00C2009D,
000300AA,
00A4006D,
003900DC,
00E80094,
005B002C,
00C50004,
004E0007,
00C200B8,
003700B6,
000C00B6,
00E00018,
00D30002,
00D0000A,
00420091,
003300B5,
00670024,
00C400E8,
00AA00DC,
008600AD,
00590066,
006A0059,
003D005A,
0017007C,
00240055,
0061007C,
008A00C9,
00D80081,
002A0085,
003C0079,
007500E5,
00270037,
00660019,
00CA00A4,
00D5008D,
00C10045,
0077002D,
00D300B2,
00500043,
002E000C,
00890036,
008A00AA,
00CA0060,
00410026,
00E300CC,
008A001D,
00AD00D0,
00980068,
000000C6,
003C0086,
002B0020,
005D0098,
007300EC,
008A003C,
000600C3,
007E0036,
004A008B,
00BA0030,
007C00CA,
008C00C3,
00CA00D4,
005E0082,
00CA0057,
00DB0000,
00D6005B,
001D00EB,
0088006D,
00B700A0,
003C00E1,
00190068,
00A60072,
005800E2,
008500D4,
00220060,
00E50078,
00C6007B,
00A000C7,
00240039,
00730008,
00E50088,
00E800B0,
00C200BD,
00DE0093,
00D70088,
0071002D,
00E0002C,
00970003,
00560059,
00480009,
00E90063,
008D0000,
000D00C5,
00C1007E,
0017008B,
00A70072,
00560071,
007C00A8,
00260092,
008800AD,
00900040,
00A6003B,
00E400ED,
0098008B,
0071007E,
00E600B7,
00860033,
00AC0065,
006E00B2,
001B002D,
00210092,
002D0066,
009500D2,
00550039,
003A0062,
002D00AC,
00670050,
008E0096,
009800C3,
009D00C2,
00EC0094,
002A00C6,
0059008C,
0038003B,
000300B6,
00430077,
005E0098,
00590072,
000D0017,
002200C0,
00EC005D,
006D0005,
007E00BA,
00DC001D,
001800E5,
00700009,
00140028,
00820092,
007B0025,
00B600C1,
00410061,
00EC0049,
00AB00D3,
0087008C,
001C000E,
00D70006,
0004001A,
00D800A2,
006600ED,
003E0041,
00A10024,
00390018,
006A00B4,
00760015,
00100023,
00490032,
009C0033,
00320043,
004700AE,
0080003B,
000B00ED,
008C0021,
001700D7,
00C600E6,
00E90070,
001D00DE,
00B1001D,
00AC00D7,
00480060,
00A5003A,
00230067,
00B400AB,
000A009B,
00CC00ED,
00B00007,
003C0022,
00270080,
00C80025,
0004005D,
0045007A,
007B00EE,
00020080,
00C3005A,
0021005A,
0008007E,
0015001B,
00D500A3,
008500EC,
00DE0094,
00B8004B,
006E003E,
00A600D3,
00AB0009,
00860038,
003E0061,
00570026,
006C006B,
00440060,
001B0066,
00AD00AD,
001D00C4,
004D00DA,
00D90040,
003D00A3,
009E0022,
005800B6,
00E700B5,
00860061,
0024001A,
00CB003E,
00D300DB,
00BC0080,
008A00B2,
00C20044,
0084001C,
008D0011,
00DD0017,
00080067,
00930025,
00C000D0,
00E20025,
003A00BA,
005E0074,
00EE003D,
00690014,
002A0059,
004A00C8,
00E60034,
00460062,
00430002,
007A0013,
00D300D1,
00840028,
00E600DA,
004B00BD,
00770045,
00220085,
009C0052,
00340035,
002C00C3,
000300D5,
008900AB,
00BE00AC,
00D40069,
00A200A2,
001E00BA,
00350071,
0067000D,
001D0038,
00A8008A,
006C00DE,
00E000BA,
0051007A,
005D002E,
00A800AD,
008E00B9,
00E50082,
00C200BA,
00DC007A,
00B60059,
00920099,
00D90007,
00B80021,
00DE0032,
00970082,
00DA0003,
007000DA,
009C00CD,
001300B7,
001E004C,
007A00E6,
004E0088,
00C5009B,
006900BE,
006C0038,
00860005,
00640043,
0032003B,
00500065,
006D00D6,
00EB0082,
007B0086,
00CA0016,
00CA0085,
0064006D,
00D100A3,
00170014,
00210011,
0086007C,
00E700A0,
00900004,
00990094,
00380003,
00150023,
00450060,
00ED0013,
001900D6,
002400D8,
0092005A,
00B600E3,
006B0039,
00A90049,
00E40014,
00BE0051,
00E3003A,
0082007A,
00E00098,
00CC00DA,
00D20074,
005D0071,
003E0025,
0044004B,
00BA0046,
005D00D5,
00940016,
00090041,
004400EA,
004400EB,
008A0000,
00380002,
00160056,
004500DB,
00C9008A,
009C0080,
003E00A0,
002C00AE,
00DA008B,
005500B3,
007A008A,
003A00C8,
007C00E9,
0038002A,
004C00A4,
000A0091,
005400A8,
00B900B7,
006600D0,
00DD0015,
006B005D,
003D007A,
00D500DA,
00980067,
00830001,
00240060,
005A0025,
00180005,
00770005,
00410034,
00AB0020,
00BB0039,
00B20060,
00E30027,
00280093,
00540070,
00C20096,
00E8004A,
00CC00D3,
00B60000,
008D0039,
00A0008C,
002B00AD,
000500A1,
00E5009B,
0084009B,
005E00AE,
00DE00DC,
00580004,
0020000D,
002000D8,
00380017,
006C0057,
009000E4,
0059005A,
00EE0056,
009D00C1,
00B200D8,
0036004A,
00910079,
00020067,
00CB0089,
00C30004,
00110026,
00280045,
008600A2,
0005009B,
001E00EA,
007300BA,
00E800B4,
001E00DC,
00B7003B,
000900A4,
00E70044,
00810031,
00C500D7,
000E003A,
005E00A6,
003C00C5,
00730096,
005B0040,
00190027,
00560005,
00800062,
00230038,
00620091,
0058003C,
00D0005D,
004C0074,
00000087,
00180088,
0042003C,
009C004E,
00590020,
004D0060,
0049008C,
00160025,
00370029,
00A700A1,
0016003C,
00A5000D,
00D90051,
006B0092,
00170063,
00D9001A,
006E00D6,
00E100E1,
00310091,
003200DB,
002D0004,
009400C8,
00D40040,
00EE0066,
003400A6,
00A4009A,
00D700A1,
00C6006E,
003000C9,
006C0063,
005500C6,
0021006D,
00270095,
007300CB,
008B0037,
00660048,
009300A0,
002C00A4,
0091005D,
003700A4,
006A0081,
00260096,
00E50023,
006100B4,
00AB004E,
009B00C0,
00A70038,
00EB00C7,
00D10052,
007E0022,
00C80026,
00800020,
004700D4,
00A30087,
00E40095,
00E10083,
004E0051,
00C600AB,
001D008E,
00890056,
00490003,
003100A1,
0066003E,
00B6007B,
00700082,
000A0089,
000900D5,
00DC0062,
0086004B,
0069003D,
006800B9,
00BA0096,
004A0093,
00D70002,
004C0081,
00670040,
007D00C5,
004E0047,
007200B7,
00840085,
00D500A8,
00610008,
00B50065,
0033006C,
00D0007A,
00C80098,
0028001B,
00D80033,
009A00C1,
0037008E,
005B00E8,
00470075,
00CC0065,
007000C7,
00DA00A0,
003D0085,
000700B5,
005500E3,
00B300E4,
005E00E4,
008A00A4,
00320097,
00210074,
00D20067,
00710034,
00250052,
0058001E,
00A2007D,
003300DB,
00600049,
00020094,
00460038,
000B00C9,
00770073,
00CB0050,
000C002A,
00E600E7,
00060005,
000500B6,
001900CC,
0085002A,
000A0003,
00D500D3,
000D00DA,
0042006B,
00D600D6,
00B600BB,
00D800C9,
009500A6,
000800B3,
0027006C,
003C006D,
001000C7,
00C10073,
00EC00CD,
008D00A6,
00CB00AB,
00C800CA,
008B004B,
00810082,
00E400E7,
006300C0,
001600DB,
001D00B8,
005400AE,
003A008C,
001D0006,
00CD0003,
00A90072,
00C30072,
001D0050,
00D50065,
00CC0033,
00EC00CC,
002B0074,
00170020,
0071007B,
00DD0019,
001700E6,
008A000D,
007C007C,
00A30013,
009C008E,
00500016,
00B000D8,
006A0075,
000A0091,
009C003C,
009B0060,
000200E1,
003B0072,
00E300A5,
00B10035,
00E900EB,
0061006B,
00670054,
008D0052,
005C00A8,
00D0007E,
00520091,
00C0001D,
00D600B0,
0060009D,
00040075,
00880040,
000A00B3,
00EC0060,
00320018,
00B600CB,
0041002A,
004E000C,
00AD0005,
0071009C,
008C00DA,
00AC0029,
00390006,
00780024,
0035000B,
00BB0063,
004300D7,
00DB00D7,
00550090,
00E400AC,
0010000C,
007400D4,
00900052,
00A60069,
00010036,
000800BD,
006100D4,
00B600C0,
0056004E,
00B00017,
00BC007E,
00840001,
00EB006E,
007500AA,
00A500AA,
009D00E9,
00530038,
00D800EC,
004B0023,
006E0031,
0027005A,
00450070,
007400E2,
00BD0088,
00CB0049,
00CA0026,
00A000BD,
006E006E,
0082007B,
0022000A,
00540061,
00B80075,
00ED009D,
00470052,
00DE0071,
002300C4,
001D0036,
009C00D6,
00E800CE,
002D00C1,
000B00D4,
000200A0,
005A0063,
00850072,
000600B7,
00E50039,
008D000C,
00170035,
0057009A,
0089007A,
00A100A0,
00A80097,
0026008B,
00A500CD,
00AE0093,
0032007E,
008C00CD,
00260064,
00D80005,
005900B3,
00420038,
004400E9,
005400C2,
006D0056,
003A00B9,
00980059,
003400C4,
004B00ED,
00220037,
001D0067,
00670052,
0049000A,
00D700BA,
00450067,
005100BE,
00DD0017,
004D0022,
00D500AB,
002D0098,
004C00E0,
00040031,
0052005C,
00CA00C0,
000D001A,
00E8009C,
00960035,
007B0032,
00BE004E,
008C006C,
008E0002,
00E80061,
00BD00EC,
00840099,
00E90065,
007B004D,
008000DC,
00910092,
00D80009,
007800D7,
003500E2,
0024002D,
00890056,
00730061,
008800E6,
00BA0037,
002000C6,
00E50076,
00160023,
001B0061,
0075006C,
007C0099,
00510059,
006A00B7,
00210005,
001C00DE,
009E0062,
00C40018,
00300084,
00C80026,
00AD00B3,
009D0055,
00A1006B,
000400DB,
001800EB,
00E700E6,
0025001A,
007900A9,
009E0070,
00BD0022,
00B100B7,
000D00D2,
00B100BA,
00940065,
00A10068,
0027008D,
004B0097,
00500042,
007C007A,
00BC001A,
00D100EB,
001800B7,
00C00029,
009D005A,
006A0000,
004800C8,
00E60009,
0059001D,
00E90053,
00B200E1,
001C00B3,
0031003B,
00C70013,
00AA0087,
001D00D3,
00790087,
00E400C1,
001800BC,
00E600C7,
006E0068,
005E00BD,
003600DB,
00E5001D,
00260045,
00D400D5,
002A0002,
00970038,
0011006B,
006500B8,
00A8009A,
004E007B,
00DB0022,
002300D6,
00820045,
006D00C2,
006E006A,
002600B6,
000C00B3,
00D40048,
00780008,
0020003A,
0036005A,
008800B7,
00DB0021,
00BE0074,
00D00004,
00870094,
005A002E,
008700E8,
00710013,
007500BB,
008D0056,
001A0062,
002B0085,
00100074,
006900E1,
000C0084,
007100DA,
00D000E9,
004100D0,
00DB00B4,
00D60045,
00A300B8,
0025007C,
00280072,
0029009A,
00150003,
0016005A,
008D00BD,
006800E0,
00CE0074,
005000A4,
006000EC,
00D20069,
00EE00D2,
005B0091,
00ED005E,
007C0057,
00A3002D,
00B100C5,
00620040,
00780004,
006D0057,
002400E8,
008B0066,
000000B1,
000400E1,
004900A4,
006B00EB,
00370076,
00C2009B,
001C00C4,
00AA00EA,
008E00B1,
00540022,
00BA0008,
0075005D,
00EE0081,
00B500AA,
00320014,
00230092,
004500D2,
00BE00D4,
006200A7,
002200B3,
00510016,
00700049,
00180098,
00580096,
009100E0,
000700AE,
00E8009C,
00C90079,
00C400E2,
000A00B2,
006D00EC,
00CD0027,
00B700C8,
006D0039,
00E40039,
003C006E,
00310074,
005D005D,
003000B5,
00DB00E9,
009D0049,
006D00B9,
0082007C,
00500020,
0073004B,
00B200C1,
00DC009E,
00CE00A1,
00E00071,
00D00063,
003B0051,
006600AB,
0091006E,
00330015,
00D60020,
004C0020,
00650035,
00670077,
00AC0089,
0032000C,
00C60024,
007400C3,
00380066,
00C70001,
00C50057,
00C200B0,
007900BD,
004B00E4,
00C600D3,
007B005B,
00E80034,
00E500EE,
008E0042,
002D006C,
00BE0090,
00AE005D,
008000D0,
00E2000D,
00910031,
00E00034,
00EA008A,
004A0071,
00B70062,
009100D3,
000B00BC,
00E000D7,
008C00D4,
00D3005C,
00A100C2,
00000056,
00620089,
0005009E,
0017000E,
003000AE,
00460062,
005E0088,
001800E8,
00070074,
00B40081,
007D00AB,
00180026,
0050009C,
004800AE,
00AB0009,
008800C8,
000D0088,
00A60054,
0060002D,
0058004A,
0029006A,
00DB00EB,
00EA0003,
00C70045,
00AC0086,
009700B3,
000800BB,
001B00D8,
00BC003C,
006A00D6,
00AC00EB,
00490000,
003D0098,
006A00EE,
00870040,
004500E4,
00E7004C,
00BE00B1,
00AD005D,
00920097,
005100D6,
00250073,
00C70041,
006500EE,
002D0057,
00700062,
00520080,
00C8004E,
00910054,
00B7007D,
007B006C,
0016006B,
005B008B,
0011001E,
00E200E4,
0037002C,
0079008B,
006E00C0,
00730072,
00810055,
00EE0031,
00E700EB,
00B900D4,
005E0055,
00C70068,
005100D3,
007A00E8,
000C005D,
00D2006E,
0060006D,
00280005,
000300B3,
00D700CB,
00470067,
00550018,
00930011,
00280043,
003600B8,
00D10047,
00B80027,
007700C5,
008D009A,
00A700AB,
00270019,
001400D5,
00560024,
005B0013,
00B90029,
008A0029,
001A0088,
000E009E,
006A0018,
00450049,
00D60015,
005E00B5,
00B600A0,
005400C3,
00EB0041,
000A002A,
00B300D8,
00DE004B,
0097005E,
0023002D,
00B5004C,
00C40085,
000200B9,
00E600C8,
00560099,
00B300EA,
00ED009D,
000900A3,
00130070,
0018001C,
0003000C,
006E005E,
00630015,
007E0030,
009000A6,
005200A0,
0043008A,
0040008D,
00C60029,
00D200DC,
006C0072,
00770035,
00420032,
00B40086,
00B200C2,
004000D4,
006300E1,
005D004E,
00E700BC,
0066008A,
007500D8,
00E8004B,
00730061,
00410012,
0056005A,
0093001C,
00C30010,
00C600EE,
00AA0061,
00D60099,
000A0077,
00600071,
004500C7,
00320058,
00EE0016,
00A30035,
005500DD,
008800AE,
00C30095,
00A500B1,
00AC003A,
00D200D9,
008B005A,
002100B7,
00DB00D9,
00340076,
00B500BB,
007A0039,
008000E0,
002B00B9,
002C0062,
0093000A,
00230086,
005B0026,
00870000,
00E80043,
002E00EC,
006B0094,
00BC0008,
00A000A3,
00900038,
005A00C1,
008C000E,
00E0008A,
00C100C2,
000A0052,
003B008B,
0072000B,
000400AE,
007200E4,
005400A5,
00970013,
00AD0026,
00430008,
004300C3,
009C0086,
00110098,
00310096,
00EA003A,
00D90074,
00AE00D1,
006300CD,
0059001E,
004A0054,
007E008B,
007C001A,
007900B4,
005400C5,
00E10068,
00720060,
00D20064,
008D0076,
00400080,
00B400AA,
003600D0,
00AA009D,
008E0034,
0087001B,
001600C2,
007C004E,
003600AA,
00970055,
006800A3,
007C00D7,
00DD00E5,
00D50038,
00610018,
004C0092,
004E0033,
00C100BC,
00420081,
00D4009E,
00B50016,
00B80021,
00C4008B,
00E700D3,
00E80038,
00480093,
00220038,
003600CA,
0051005C,
00DA00A8,
00540077,
0077009A,
000200EA,
00B40024,
0016004D,
00D100BE,
000A001C,
00CB00B3,
00E00032,
00930071,
001A00A8,
008500CE,
00A900D9,
00200065,
000E00A3,
0043000C,
008B007A,
00C7002C,
00AA001E,
00D8006D,
001E0070,
002600DB,
003800A1,
00D3001A,
002A0003,
005B00BE,
0040002C,
00D70097,
000B006E,
005400E1,
00C900BE,
00AB00E4,
009500DB,
00380015,
009100D3,
00DB00DC,
00590065,
00860052,
00790066,
005C0080,
004A0076,
00430034,
0012003B,
0059002B,
00790078,
00C000BA,
0058006D,
00970022,
0091003D,
00410052,
008C0093,
00840082,
00630098,
00A3000C,
009A0095,
00D500BE,
00510030,
006800A2,
00E600C8,
00E10010,
007E0006,
00B00092,
00E20098,
00EA00E5,
009500C7,
00E50044,
0039008A,
0054003E,
002100EC,
004000B6,
0019002D,
00D400E7,
00E0009C,
007600EE,
00260089,
008300D1,
00110040,
00800073,
006A0001,
006A00D3,
002500CC,
00C8007B,
00050068,
0064000C,
006C0084,
00D50089,
0010009B,
00C10090,
009C005E,
00960040,
002E004E,
009B0016,
00D9001E,
00030067,
008E00BC,
0026005C,
001C0024,
00B500CE,
00E800AB,
00200032,
0043003A,
0077000A,
00300081,
00D7006E,
00090007,
00A70050,
00950072,
000B00E8,
0005000A,
008700E2,
00990028,
007C00CB,
00E100D8,
00220068,
00640013,
00C40073,
00830029,
002400E4,
002C0008,
00D8005B,
007C0077,
004D00E9,
007100DD,
00D50012,
00B1008E,
00900063,
00D6000A,
00D300D3,
00EC002A,
009700A3,
000600C3,
00E700A4,
00D00010,
00710097,
00AA0088,
00090059,
009800BB,
00C7008A,
00C10006,
0012003C,
00A50018,
00220040,
000000A4,
00240000,
00760010,
00C60057,
0048002E,
00EE0025,
00E000ED,
00DE0048,
003600DC,
00A10027,
00290011,
008A00BD,
0023002C,
001800C8,
000C0036,
004900DD,
0085000A,
003A00B0,
00B1004D,
003400EA,
00160075,
00D400D3,
00DC00D4,
00D30079,
00300055,
006200C5,
00740017,
00B600C0,
008C0012,
00850077,
0076004A,
00B30016,
00BC0005,
005700AE,
00E600D8,
00D0006B,
0093003A,
00300008,
005C0093,
003B0048,
001E0037,
000D0068,
00AE007E,
003600B8,
00B900CD,
006A002B,
0058006D,
00CA0096,
00290004,
003D0067,
00500064,
00C7005B,
009600A3,
0088006B,
00DC00D1,
003300E6,
008A00A7,
007C0026,
001A00BA,
0087007A,
00A60024,
007500C2,
00CC0030,
00170043,
006700C0,
00200009,
00AC0076,
00470069,
006B0098,
00C30002,
005400BD,
00680000,
00610098,
00B6007D,
00C400ED,
009700C4,
004700AD,
009A001C,
002B001C,
00C20074,
000E0000,
0038008A,
00B000BD,
002A0081,
00880032,
00E2001D,
003E0069,
00BB0095,
00A60017,
00DC00DE,
00B60075,
00BD00D0,
00320023,
0041003C,
005A002D,
002C0054,
00130047,
007B0049,
00900005,
00280043,
00B7008B,
00A400E8,
00960050,
005A003D,
009500B0,
0032008D,
000400CB,
003300B9,
00B7006E,
002C0030,
00DB0096,
00720002,
001E007E,
00D400E4,
003600D6,
003E009A,
004300A4,
008700BA,
00D90084,
002D00C3,
00EB0045,
00C9005E,
00B700BA,
00140072,
00480065,
00E2008E,
006D0086,
00AC00A1,
009D0078,
009600B8,
002600A8,
00210082,
00AD00A5,
00600064,
003800B1,
00930041,
0051002C,
000E0048,
001E00CD,
00840011,
00840020,
00DE0021,
000D0001,
006D0018,
00BE0071,
004300C7,
001D0023,
00A000A8,
00390046,
00DC001E,
002300A5,
008E005E,
000C0072,
00200061,
00E50069,
002100BA,
009D0000,
00ED00E3,
0011007B,
003B001A,
00420043,
00CE00A3,
00D20091,
007D0074,
005E0098,
00740069,
005500AB,
001400B4,
001A0050,
00240055,
003500B8,
007D0073,
007400C9,
00B800B4,
00270011,
0093002A,
0048004E,
00B80052,
00B50079,
000500D0,
00DD0083,
006000D1,
004B00B0,
001C00EB,
00260068,
0053002E,
00850080,
0051000C,
009B0096,
0034004A,
00C300C9,
00E80080,
00B10006,
00D4001C,
00C30022,
0048007D,
007B0089,
009A00A5,
00260013,
005500EC,
00C800C7,
00CE0026,
00890031,
00B3008B,
00860039,
00480081,
00BC00A5,
006B0036,
003200DA,
005B0010,
004B00A4,
0095008D,
008C0091,
00660010,
0086006C,
005100AC,
00390060,
0046001A,
003E00D4,
00170097,
00AA002D,
00460066,
00B300BD,
006C001B,
005900E1,
00D800D9,
00480064,
007A0068,
002E005C,
008E0088,
00070041,
00E200A4,
0086004E,
003C0089,
00790083,
00C200C3,
00D80036,
000800C7,
00B5000C,
003900E1,
006900EB,
00CD00CE,
00270035,
008A0005,
004B00DA,
00A90013,
008400BD,
00220036,
001E004A,
00C200EB,
00B5000C,
004C0017,
00490009,
000A00E6,
00BD0024,
00300007,
004000B2,
00B300A7,
00AA0022,
0043002A,
006A0038,
00760012,
007200AA,
005C00DE,
001400C4,
00ED00C5,
003900E5,
00D60043,
006300C0,
00860020,
0053000D,
005D00B5,
006A0042,
007D002B,
004600C5,
005D0091,
001B0068,
00230015,
00C500BD,
00780080,
001B009E,
005E00C0,
006400B1,
00AD0058,
00DC0052,
00E500D4,
00DA003D,
006D0021,
0058007C,
009A0068,
00EE00A1,
001A00E5,
00E100B5,
00D500B7,
0071004A,
00390039,
006900AD,
00EE0077,
00000050,
00400003,
004500DE,
00AB0012,
000400CD,
002200EC,
00540091,
0086002A,
00A0004C,
00090075,
00BB0049,
007A0026,
00290093,
00380030,
0079006A,
00D70018,
0072004E,
005200AD,
006B003B,
00460036,
005B005A,
003900EB,
005800A5,
00C3001A,
00A400E0,
0081007D,
00530067,
00CB007D,
00C100C0,
009A0095,
007700EC,
007100A1,
00210066,
00CA0052,
00B000C1,
00E90003,
00350055,
00CD0069,
00D50037,
000100CA,
00140056,
00B400E1,
008500C1,
00E90017,
005000A6,
0008009D,
00420065,
00640055,
00270024,
00AA00CD,
008A008B,
0066001E,
00740067,
004B0038,
009300EC,
001C0064,
00440057,
004C00D0,
00D80021,
003500CA,
00740072,
00080000,
0059005A,
00EA0080,
00240050,
006800B4,
00690084,
00A000D8,
003100C2,
00CE009C,
0090005A,
00B5008D,
005A00A5,
003D00C9,
00900054,
008C00BD,
00790020,
00D60057,
00C30020,
00850033,
00E60032,
005A0012,
0065002A,
00E800E0,
00990091,
004E002E,
00690034,
00530098,
001600D6,
0051000B,
001E00C2,
009C00D7,
007600CC,
007B005C,
004600E2,
004E0015,
000900B8,
00A300E0,
0006000B,
0091006D,
00CD00E8,
002B0053,
0064008D,
0055000A,
002D003A,
0009009E,
000700A2,
00C6000B,
00D900BC,
00AD000A,
00A900BB,
006E007A,
004C0071,
0078006B,
00B400BD,
00C000D3,
00C80028,
00E300A6,
009A002A,
001D0036,
00B9003C,
0017008A,
006D003D,
00E20008,
006E000B,
00DC0026,
004C0060,
008900DD,
00CB0062,
00910020,
005500AB,
001900E2,
00B40033,
00430036,
00DC00E5,
004B0043,
0028009A,
00C300D7,
00180057,
00E60021,
00490019,
00010014,
002900E6,
00D70029,
005E0073,
00690007,
002D006C,
00B6009B,
00220006,
00470003,
0014009D,
00C10054,
00B9009A,
00D30087,
00450032,
00520042,
0044004B,
006D005B,
00AB0076,
003D006A,
00610013,
00020038,
003400B2,
004300A8,
0063001C,
00880013,
009400CC,
007B003A,
0051002A,
00540092,
002800E2,
001B00B7,
00800026,
00A5000A,
00230000,
0006009D,
005700AA,
00DE004C,
00C50043,
00AA0065,
0090002D,
00E40031,
006D001E,
00A6008E,
007B003E,
002C0015,
004A008D,
003A0017,
003E0043,
0009001B,
00E20073,
00BA008C,
0025008A,
000E00D7,
00D600CC,
00A700EA,
00660021,
00CA00B1,
0002004B,
00020049,
00420069,
002B0080,
004900B8,
00AB008D,
00B60047,
00490014,
00E600D8,
00930000,
00C500DA,
00E700AB,
00260069,
00E30063,
00CE0058,
0096006C,
008500D4,
003C006D,
005800B7,
00CB00D8,
005500C0,
00E40017,
003000D4,
00A400C5,
00560046,
0021002A,
00AD00E2,
0011002E,
001A00A4,
001C003E,
00640087,
005D003C,
0026002D,
00D800D4,
005A0082,
00B500C0,
00990033,
00A10053,
006E00AE,
00150087,
001C009B,
00210071,
00160081,
000E00EB,
00340072,
00AD003D,
00CC0049,
003800A9,
00D3002A,
008300CC,
009D0068,
00E400B5,
00790058,
001600CC,
009C00B9,
001700D0,
00D00058,
003A00B2,
003200AA,
00D900A8,
0076003A,
00700088,
002D00ED,
00200071,
00120040,
00330089,
005700A9,
00120058,
0032004E,
00C20093,
00C5007E,
006A0007,
006500BD,
00A100B7,
00230028,
004700B2,
009C00A9,
008C0031,
001B00B6,
00E200DC,
005B0088,
00390007,
00990099,
007D008B,
00250045,
00150019,
00080004,
00A00036,
00860092,
003200E3,
00460019,
004800C2,
00910054,
006C0061,
00870073,
004B007B,
00210035,
0061008A,
002600C1,
0015007A,
00D8002A,
00E900B3,
00E6008D,
00E6002C,
002400B9,
007E0048,
00540001,
009100DB,
005E00EA,
00D80058,
00AE0000,
007C0077,
003900A0,
00790088,
00BC00B6,
00E3005D,
00360007,
006100BD,
000200A0,
006300D8,
004100E9,
00090063,
00C200AC,
001100BC,
007A00B1,
006E0078,
00700083,
002300ED,
0084003A,
00980010,
000100EB,
00060002,
004800B6,
00720030,
00280046,
00D40034,
00B70091,
00D6002D,
005A00E4,
00850062,
00DE008C,
007D00C7,
009E0017,
00590093,
00B100DD,
005000B1,
00BE0092,
00E80099,
00020087,
003C007C,
0092001A,
004500B1,
00B50048,
00D000D6,
00AB0098,
00DB0080,
00400047,
00210061,
006B0051,
00830032,
00260031,
00930036,
00780072,
003E0060,
0066000A,
0038007C,
00DE0080,
00C40099,
00350044,
0067007C,
00B60053,
00E0004E,
00CC0011,
00990026,
00500066,
00330098,
006800D8,
00C50021,
00B20013,
00160092,
0082001E,
007E0007,
009A0073,
009A001B,
00AB0086,
00350023,
002D0087,
003100C0,
0032005E,
003C00B0,
00BE001E,
00280094,
00000016,
00A70099,
00740018,
00A60038,
00300049,
009C00EA,
00C00096,
00360074,
0029002A,
004900D8,
00CA00B4,
00EE0021,
00BE0094,
00C40087,
0020004A,
00170081,
003B0014,
003D00C0,
0057002D,
00310087,
006B0084,
006400C9,
0023009D,
00AA0064,
00C6008B,
00B000C3,
00C90030,
00C40093,
001A006E,
00970070,
001700D0,
005900C9,
00ED00C1,
00780021,
00E60045,
003B00DE,
0068001C,
00A200D5,
007B00C4,
00C500E7,
00A500DE,
00B000C9,
00C30001,
00AC0003,
00460032,
00C7001C,
00A500E6,
00ED00A3,
004400A5,
000A001C,
00640081,
00010083,
00DD007C,
009B0050,
00900095,
008700AB,
00D70049,
00150041,
002E0034,
00070030,
001B00D9,
00BD0018,
00610026,
005A0086,
007B0045,
00A70038,
00A100E1,
009E00B1,
00E600E4,
00A70007,
008B0035,
00DA00D3,
009300C5,
00A300CE,
00280004,
00010066,
006D0092,
0004008B,
003E0069,
006B00D3,
00460027,
0004002A,
0096009A,
002B0039,
00AA00E2,
00650043,
007900E6,
008500DE,
0017004D,
008C00D6,
00E400A9,
00BE00EE,
000500E1,
00AA003A,
0067005A,
00C6002C,
008900A4,
000C00A6,
0097007E,
0072006A,
00E700E8,
0027003C,
00440019,
00B40058,
009B0082,
00CC0057,
001D004D,
00210083,
00D5008A,
001200C5,
00160030,
00000028,
004900DE,
001C007A,
00220041,
000C00E1,
00A4001A,
00310056,
000E002B,
00BD00A8,
00A80043,
00B90046,
00340013,
00D3005C,
00CA0099,
008600E3,
00770075,
00080086,
003400EE,
00EB0074,
00AC00C3,
00B00089,
00B900CB,
00720086,
00BD00BC,
00BC00B6,
00AE0078,
00BE00A3,
0000009A,
007C0017,
00420024,
005C002D,
002D00AA,
005D00D5,
00D3000E,
002E00B1,
0009004C,
00E00060,
00BB0051,
0020004B,
00180063,
008A0059,
00760014,
003400E7,
0006000B,
00C1005C,
0048005B,
007E0057,
00C00049,
0046007E,
001C0017,
003000E0,
000C0026,
00B6004A,
00C10037,
0094001A,
00C000AC,
00E100E5,
00AB00A0,
00180016,
0035001C,
0073001D,
00350008,
00B200B4,
000E00BC,
00C800A1,
004E00E1,
009B00D0,
00450001,
00600071,
00A90058,
00A500A4,
00100049,
007400BB,
00A600C8,
001900D7,
006D000A,
000C001B,
00BA00B3,
008900E1,
0023005A,
0047006D,
007900C6,
00D300CE,
003400B3,
001C0098,
00D60064,
00E60000,
001A00D3,
00330046,
002B0095,
00040080,
0053005E,
003200DC,
00E7007B,
00EB0040,
001E0026,
00BA0084,
009D0018,
00030023,
00760074,
00930094,
007B00D5,
00C10032,
00310014,
006D0059,
00CB00D4,
00140061,
000600DD,
004B00BA,
007100D7,
00530052,
007300C5,
00E60024,
00600033,
001C002C,
00EA0002,
00C70018,
00230068,
00DC005B,
002C00CE,
00E900BE,
001300AC,
000000BB,
00D80082,
004B00C9,
00810021,
00200075,
001D003A,
00D20024,
00290066,
00D60069,
009C0053,
00550035,
000B00CA,
003E0006,
001300EC,
009C00D9,
008800EE,
00E600A8,
005A00E4,
006B00B6,
00A9005D,
00A900E0,
00640098,
004A0069,
003B002E,
00CD0002,
00830073,
00CD0038,
005B0021,
005B00BE,
008E006B,
006A0027,
00290084,
00A700E5,
00E100B7,
00BE0071,
001A0006,
00D800DA,
000B009A,
007200D0,
00720081,
0063008A,
00080033,
00BB0057,
00BC00E1,
000B000C,
00CD0045,
0096001C,
000D003A,
00EE0056,
0045005E,
00B800D1,
00930059,
0076003D,
00EC0022,
00BC00AD,
00BA00E8,
001B009E,
0028006A,
009E00AA,
006B004A,
001100B0,
00800037,
0077003B,
007E00B6,
003A0040,
006100ED,
00A20007,
00E60056,
008B000E,
0059006B,
00210099,
00C3006C,
009800E9,
00940081,
009900DE,
00750031,
008500AD,
00E50067,
00D0001E,
0071008C,
008100D8,
00D500A9,
00B1007C,
0028004C,
00B80049,
006700C6,
00A400D7,
008700E6,
00830098,
00380085,
004300B2,
006E009A,
008E002D,
00BB0006,
00240035,
0074009E,
000C0004,
001C00B3,
00B3009B,
0078003C,
00120000,
008E008C,
009300A0,
009A00B1,
0046008D,
002D0074,
007900A4,
002C0044,
0000005D,
00D8006B,
00E500B9,
00E900D7,
003B0032,
007800ED,
00EB005B,
00A600E2,
000B00B0,
001D0087,
009D0076,
00090094,
00B60046,
008B00B1,
00BA001B,
00BA0005,
00AE00E2,
00B80067,
0003007A,
00E200C8,
009B00D7,
000C002E,
00330025,
00E00062,
00BD0040,
00E60043,
006000C5,
006200D7,
00050061,
00A000DA,
00E00009,
0096006B,
000E0069,
007300C2,
00B500A0,
001A006C,
00D20092,
003A00B4,
009C0060,
009000C1,
00DB0071,
007E0041,
00B10088,
004C00BE,
00170092,
00310055,
00C70011,
00E90097,
00E600A0,
00AE0014,
00450064,
004D00E5,
0080008B,
005E0060,
00CA0088,
00C1004B,
00A9008D,
00840030,
00EA00A1,
00610044,
00E60086,
00980062,
00B7003A,
00530012,
00AC0019,
008E0035,
00010027,
00AA0006,
006000DE,
001E00AA,
004C0090,
005300C9,
008100CD,
005B0048,
00C20005,
003000B4,
00400086,
00C30015,
00CB00BD,
00E3008C,
00D800E6,
00E6008D,
004B0060,
00E20060,
00280045,
003E0001,
00130044,
00C60056,
006D0075,
00AE00A9,
00BE007C,
00490025,
00E200E0,
00B50018,
0012008C,
00D70044,
00DD001D,
0086003C,
00B30077,
003E00BE,
006600B0,
007900B1,
00D70043,
00960042,
00E0003C,
00830025,
002A00B9,
007E0047,
0002007E,
001D009A,
00400038,
00CD008B,
00A1004D,
00E3002A,
009C00A0,
00EE0023,
00CA007E,
000000A4,
00C30068,
003B00BA,
0095001C,
00A800AA,
00E800A8,
004500D3,
00AE0046,
00D20032,
00C90060,
00A60084,
000D000E,
00B10036,
00760083,
0064007A,
003200A9,
00830095,
00D60096,
007B0046,
0039008A,
005C000B,
00210096,
0070009C,
00BA002A,
00000066,
004C006D,
00240092,
00BA0003,
00BC002C,
00330055,
00390068,
00680035,
0043007B,
00AA001B,
0072005B,
00560093,
00BD00EA,
00280036,
00080081,
007E0080,
0069003B,
000B00E1,
006700AC,
00A000D0,
00B60098,
0060001D,
007D0000,
00AC008D,
00D200AC,
000900D2,
00A600BC,
00A900A1,
00A6009E,
007200E1,
00020022,
00A900AA,
00A1003C,
009D00C4,
00590062,
00390055,
003300AA,
00000075,
009800E7,
00CB00C8,
008000D2,
00B200D6,
00CB007E,
001B008D,
00E900D7,
008000EB,
000500C8,
00CC00C3,
00E1000B,
00A6006B,
0039003C,
00B5003A,
00AA0007,
00C400B2,
00A0007E,
00720060,
00720063,
00A6003A,
001C00A0,
007D004B,
00E40058,
00930004,
006000B9,
008D0074,
0016001D,
0044001B,
00330073,
0028007D,
002300D9,
00180097,
00840014,
00EA00A8,
000B0071,
00A000D6,
00DD00D8,
005500DE,
005C0002,
00820024,
001500A1,
00540098,
00320053,
00090094,
00D80005,
002E00DD,
00780044,
00850030,
00630073,
007400E9,
00770045,
001100D4,
00A600CB,
00180021,
003E00C9,
0050006A,
003C00A1,
00AD009B,
00A7009D,
007D00E4,
000B00B9,
0067006C,
004B00D2,
00D900EC,
0045005C,
00AD0094,
0038001A,
00670046,
006D0055,
00B2007A,
00980013,
00D1000E,
00140011,
00020014,
00230080,
006400C0,
00CA0015,
007D007D,
008400C5,
005D001E,
007000D0,
00620069,
00A7000C,
00690011,
003B00B1,
009700A5,
00370063,
009E00AB,
00CB00CE,
00A700A2,
0060000C,
00930017,
00B20011,
00860002,
00C50096,
005600AE,
0072005C,
007A0024,
00B10087,
00530001,
008A00C7,
009C009E,
00230019,
005E0038,
003700CC,
00EE0080,
00D90019,
00BE006D,
009700CE,
00DB0011,
00E4000E,
000A0027,
00240015,
00540009,
006B0065,
00920016,
00B4006B,
00820016,
00090094,
008D005B,
004300DD,
00EB008D,
002100E2,
008E007D,
00820005,
004900C4,
0094007B,
00370037,
00100085,
0070007B,
00BB001A,
00EC005C,
00850070,
0072008B,
002500A5,
00A90091,
00800015,
00B20083,
00A300D4,
0029001E,
000000DE,
00080079,
00DB0033,
007100A6,
001400E0,
002B0076,
00DC0013,
008E0022,
00850076,
009300E9,
008500D2,
00C3000D,
00820025,
00EB00AE,
009D0028,
00470069,
00680017,
00280034,
001100AD,
00DA0024,
00060093,
004500CE,
00D000C8,
002D00E7,
00240022,
00520091,
00230066,
006A0058,
006C00CD,
00E50075,
00A500EC,
009400B2,
007400B2,
00BB00D9,
00BA0082,
00A90063,
005D00CD,
0058001B,
002D0085,
001D00A8,
005A0040,
00B900BA,
00E300D3,
00B4006D,
00780038,
00D60034,
00D60067,
00850089,
00CE0090,
00BD00A0,
006C0021,
0084003B,
00200031,
00A20023,
0095000A,
0055008D,
00A000E3,
002300BB,
00EE004B,
00E2005D,
00E200CA,
002C00BA,
00AC00A7,
00910071,
00B50007,
00DD0048,
0078005D,
00A3002B,
00BD00C8,
0038008D,
0073009D,
0068008B,
0077009B,
00420063,
004500C7,
006A00CD,
007A0030,
000C0039,
009100D8,
00980085,
00D40089,
009C00C1,
002A00A7,
00620019,
00300039,
00AE0012,
00340073,
00DD00C7,
003C0037,
0026005C,
00A80053,
0089005D,
00B70050,
005000E5,
00E20092,
005D0094,
00E6001C,
00E00083,
00580060,
00470058,
006000E0,
005700D9,
00EE0060,
00D90034,
00910047,
005200A6,
003B0041,
009600B5,
00D50015,
000B0057,
008B003B,
004E0008,
00E80064,
008200D1,
009000C7,
005700A6,
00D00007,
003700A9,
002E0032,
00C300CA,
002D0073,
0006008A,
002800C0,
00570005,
000E0034,
00E500DA,
0063008E,
00E70001,
00CB008D,
008B0094,
009D0064,
008A0013,
00090093,
00B00046,
0098008D,
00DA0010,
00340079,
004300CC,
006300E3,
003300C4,
001C0038,
0058007B,
003800EA,
004B00DA,
000D0062,
000D00DA,
00BB0071,
0044000E,
00AC00EE,
00E7004A,
003C000B,
004000E7,
0098002D,
00D00007,
004D00C6,
005E00AE,
0074007B,
005C0093,
007500BB,
009E0099,
007E00B3,
00BB007E,
00BB003C,
00CA00EA,
00EC00DA,
004D00A9,
00A400C1,
0045004D,
00C20006,
00D200E8,
00EE0074,
0012005E,
003A008B,
001D00ED,
009000D3,
00B50003,
00E50058,
0077002D,
00830044,
00160071,
002A006A,
00A20093,
0021000B,
008E0064,
000C0074,
00540051,
0019000A,
0033006C,
00340073,
00DC0037,
0030005E,
007B0092,
006200E4,
0009007D,
00900079,
00DE00AD,
007B0048,
00EB0037,
002A008A,
003E0055,
0091002E,
008C0075,
00B9009E,
001200AA,
004D0057,
008D0093,
000E00DB,
00CD006B,
0031009C,
00240051,
005000B4,
00220019,
001300B6,
001B0090,
003E0040,
004900D5,
00BC00E7,
00DB00ED,
004300E8,
00E5000C,
00C60045,
00130082,
00AC00A2,
00E500AA,
009C00B8,
005C0033,
006500DA,
008400B3,
000C0099,
004E00A8,
0048003C,
00700096,
00C10044,
007B001D,
007800BC,
0023009A,
001C0011,
000000B9,
00D00070,
00C70057,
003200D8,
00550051,
00CB0055,
006C0067,
003C004C,
00A70055,
00180018,
00210030,
004E00B8,
00850095,
001000C0,
0089008C,
00B9002D,
0004001E,
009C007D,
004700D5,
007E0040,
00C600AC,
00CD0017,
0008003A,
004400BE,
000D0043,
009B00A4,
004C0063,
005D001A,
001E00AC,
00620081,
0000004A,
00DB00D8,
00A8004C,
00840078,
0043009E,
001D00B8,
009400D2,
00EB003B,
00290009,
003500E8,
0004002E,
00A700A6,
00480036,
00E30084,
00AB007B,
00300006,
001E001C,
00B500E7,
00230084,
00D900B8,
004300C0,
00A50005,
00080016,
0069001A,
0016002E,
00170081,
007C0014,
00500028,
0087002E,
00320067,
0012001D,
00E700C5,
00030010,
00360014,
00030048,
00500005,
00040027,
00AE004A,
007500EE,
0012005D,
0099006E,
00C70013,
00660038,
00440043,
006600E9,
00D50049,
00490044,
00700079,
00360093,
0029001D,
00DD0065,
00C80071,
004500E6,
00C00070,
00DA0089,
009A00D0,
000300C0,
003E000D,
00CD0018,
00110091,
00450090,
00B200E6,
009300B5,
000E0009,
009700BC,
00DE0016,
00360079,
00580062,
0079002E,
00C500C1,
008900E8,
000900DA,
001B0061,
00CD0099,
002D0086,
00200001,
001C003D,
002B0096,
007A00B5,
004100CA,
005600A8,
00620019,
00160054,
00D600EB,
00030079,
00A60092,
00470059,
00CC0004,
00E600C5,
000800C7,
004100C8,
00AA0066,
008100B9,
00120010,
00EB00E1,
00870073,
000C0068,
000600A6,
002300A4,
0092005A,
00EC009B,
00CA00D2,
000C002B,
004300A5,
003A0070,
00450084,
00380040,
002600A4,
00C300EC,
008E0066,
00B2006C,
007B0099,
003B000B,
007C00D7,
00920013,
004800B5,
00CA00D2,
00E60008,
003500E2,
009D00DE,
00750057,
00C90021,
00D80001,
005A000B,
005B0003,
00320079,
00EE00AD,
0090005E,
00DA00DC,
00950063,
008A001E,
00CC00D6,
00820094,
00EA0004,
0006007A,
002D0006,
00DD002A,
007800E8,
00930064,
0032008C,
00020097,
002C0089,
00E600AC,
005600C6,
00620079,
00060031,
003C0001,
0060000A,
006200D8,
00890062,
007100B6,
00C900D7,
00C90033,
00950094,
0090007C,
00B60051,
00C400C8,
003200B8,
008700A4,
006200B5,
001200AE,
008400D6,
0024001E,
0036004C,
001B0016,
001400B7,
004700D0,
00440071,
00630019,
00B400ED,
002600ED,
00D8002E,
009600C3,
00DC0069,
007C0037,
00730010,
00A000B1,
00A60008,
008300CB,
004800E8,
00DA00A5,
00360015,
00770053,
00370019,
001E000B,
00B10028,
00770024,
00A1005B,
00900045,
005100B5,
00C70057,
00EC0085,
00AD0081,
008C0088,
002900A4,
00490060,
00630055,
00080097,
001900E4,
00840001,
00A6003D,
000700A6,
009400E9,
00730047,
00090056,
00ED001C,
00DB0006,
00BA0080,
0000009B,
003600D4,
001B00D1,
001800DD,
00E600B6,
00780064,
000700AD,
009E002A,
00370092,
00BB003D,
008300EA,
00C10053,
004100EB,
003D008E,
0054009E,
0053003D,
0077006A,
00A400A8,
00D60032,
00480050,
00700081,
00D800B7,
00140022,
00310074,
00C20074,
00D50073,
007600C0,
0088009B,
004900E1,
005300EB,
00BC008D,
00940084,
00CA002C,
00BA0060,
009600E8,
00810011,
00440078,
00B30039,
00B20081,
00730058,
00C10051,
000600BD,
00B0004D,
003100B7,
007700E6,
00320080,
00DD006C,
008C006C,
00AD00E5,
00E9009C,
00EC006B,
008E0037,
00E700D3,
005B001B,
002D00C9,
00AB00A6,
009C0046,
0012005C,
00A6001C,
00590080,
004E0053,
00BB0068,
006E004B,
004900B1,
00EC005E,
002C0018,
004D0005,
00090035,
004500E9,
002C0007,
00AD00A5,
000000D5,
00680022,
00B2001A,
004200E5,
009800D4,
000C0013,
008E0070,
000A0066,
00C10003,
00BE00E2,
002600A2,
006500B8,
00640046,
00090043,
0076007D,
002100A1,
00680071,
00B500EB,
000700D7,
00D40031,
005A0073,
008A0084,
00340087,
003D00EE,
009E0058,
00B300D6,
0089005C,
001C005B,
00A20052,
00D4001A,
002200CC,
008D0056,
0016009E,
00C60099,
006B0056,
0032003C,
00B10047,
00EA0097,
004900AC,
006B002C,
00130014,
00B20018,
00120087,
00100068,
00BE00B3,
00250068,
00DD00E7,
009D00E1,
00E100C5,
00E90038,
005A0016,
003C00AE,
0098002D,
006C007B,
00CE000C,
00360059,
00580080,
00A600B5,
00960092,
005500A1,
003800C3,
006300EA,
004D00D1,
001200C9,
00C000E2,
00BA0056,
00000091,
00CD0049,
004500AA,
00E000B1,
006E0013,
00B60021,
001200E2,
004A0009,
002A0065,
00CC006E,
00810055,
00950018,
00950085,
00CE0073,
00940074,
003A0042,
00A200B9,
006300C1,
00D3003D,
0097002B,
00660038,
00320079,
00260044,
00D90001,
00B300C2,
0037001D,
00810069,
00D1001D,
00480042,
00C30040,
0036001B,
00ED0081,
00AE00AA,
00D50071,
0089004C,
000A00C7,
00D300E9,
00CC000A,
00E7007D,
00D4003E,
006B00AC,
002D00BA,
003900BB,
001A00CA,
00D20030,
002400BE,
0044001E,
0046009A,
0096005C,
00CD0066,
00300042,
001D0052,
00E9006C,
003D0060,
007A00EB,
006B0049,
0082005E,
000200B7,
0028004E,
00AE0078,
009300C6,
006200A9,
006000C4,
003B0039,
001D0051,
00D20072,
00C00093,
0034005A,
00EA0068,
00920074,
00A800EA,
00E7005E,
008C00D2,
00090096,
00C6002E,
0045007D,
00800058,
00DE0073,
000C00DE,
00900064,
001D003E,
0062004B,
00840076,
009900BD,
008400C4,
00EB003B,
00E50001,
00A400B9,
003B0053,
00E30083,
00500055,
00B500B6,
00D3002D,
00830011,
006C0059,
0085003D,
00470036,
00D800C7,
001C00CD,
00D60019,
00EA0012,
00BA0001,
007200E6,
00A60060,
00D00041,
00D50085,
00A300A3,
001E0041,
0062003C,
002A008B,
006A0008,
004700B7,
00B800D6,
00C500B0,
00DC0024,
001700D9,
008E00DE,
00A40097,
00210009,
00340020,
008800EB,
009E00B1,
0067007B,
002C0081,
00710074,
002E0012,
009800BB,
0098001C,
00CC00C1,
00C300E0,
0011001B,
000E0053,
00770077,
00DA0008,
00D6007A,
006600C8,
00640033,
00E100C9,
00410007,
00620083,
0099006C,
008B0065,
00B60056,
00E300C5,
005A0072,
007C0086,
005A0011,
00BA00BC,
00B6009D,
009D0085,
00E700B9,
00D90055,
006B00DE,
003A005B,
00460091,
00D5005A,
002A0088,
004E0097,
00B600C2,
0066004B,
0087003B,
00030016,
00D000A6,
00E8007A,
009D00AD,
00940089,
00CE0000,
00E20038,
005200CB,
00B400BB,
004E0049,
00770008,
00710032,
0013002C,
00170013,
00BD0001,
00370027,
003B004C,
004E0047,
00610056,
00A5000A,
00E400D1,
0067002E,
00B30021,
00400033,
003800D2,
00DD0042,
00D300B1,
0086000B,
003D005D,
00AC00B6,
00D90002,
00570078,
005000A3,
0043003A,
00890010,
00B700C2,
00DE0076,
003400B2,
00220076,
001A00A9,
00BC0061,
00900022,
000600A2,
00220018,
000A0014,
000C0012,
001700AB,
00C90041,
00470003,
003900BA,
0008001E,
00580032,
00060001,
00B700BC,
00290097,
00E30057,
0039003A,
005900E9,
00B80024,
001A00D6,
0040002C,
009C0009,
006D003D,
008A0040,
008A003C,
00C70062,
00720037,
005300AA,
002B0085,
00850029,
0015001C,
009700A4,
00110022,
006400A6,
00390079,
008B0099,
00CD00A6,
0089003E,
004200D5,
00CB00E6,
007A0037,
00AB0039,
007B0041,
00760092,
00980069,
009D00BB,
006A004E,
00760073,
00B500A0,
0077000E,
009A0008,
00190066,
00440092,
0074002C,
00950011,
00B1004C,
0032002C,
00EC0006,
00C60024,
00D30087,
00080090,
00890052,
006600ED,
00B60067,
00A100B9,
00A000C5,
00DC0086,
00D200EA,
00380073,
00B500C5,
0052008A,
00CC003B,
0054000A,
007000D3,
00580034,
00C9004E,
00DA0034,
005E00B1,
00DB0056,
00D10037,
00010016,
00DB000D,
0096007C,
008B00C0,
00B30095,
00CD00DD,
002E003D,
008C00D5,
0092005A,
00A40063,
00E4002A,
00D4004D,
0091002C,
00C20030,
001C009C,
005B00AD,
007D0046,
00C8003B,
004D0049,
000C002C,
0078001A,
005B00DB,
00B700D9,
00BA00B6,
008D0009,
00AE0069,
00070043,
009000EE,
006700EE,
00590099,
0016009D,
00550010,
00190095,
00AA0080,
000D00C0,
00720055,
0064009A,
002200A9,
00760012,
006600A4,
00610026,
00D5008D,
00620068,
00D400A5,
0007001D,
00800021,
00C20052,
008E0067,
00E400CE,
002C008C,
00D300D7,
004E0072,
000500C6,
00E5008C,
00300042,
00BC00A6,
004900BB,
009200A8,
00490020,
000E0087,
00750076,
007900D0,
00730090,
00B900B3,
0020005C,
00D8003D,
007E0072,
00E9009D,
00A70063,
00AA009A,
00B8008E,
00240096,
009600BC,
0000003D,
00B70075,
00940021,
00C10080,
00C400E6,
001D008B,
00CD006E,
00960089,
007B0067,
004700D8,
00A40011,
00200066,
00A0001E,
00D10017,
00ED006E,
0012000A,
00C7004E,
0098008D,
0084008D,
000C00C4,
00AE00D3,
0021003C,
00C10091,
007B00AA,
00E0005C,
00C10013,
000A00C3,
00DB0027,
00B300BB,
003E00E2,
00360070,
001D00E3,
00BA0031,
00DA00E6,
000C009D,
00EE0007,
00A300D5,
0068002B,
0042006A,
00D3009C,
00CA00D3,
009000C1,
00A70095,
00950087,
00B000DC,
009C001C,
00EA0063,
000A0081,
00270000,
00600028,
00000094,
0052002B,
00450099,
00360043,
00AD00E4,
00470028,
0091008C,
00C90014,
00800002,
00B4008A,
002A0068,
00B50056,
00C10057,
00C30044,
00BE002A,
002700ED,
00180013,
005300E0,
008B0096,
002E00BC,
00D1004C,
005600E9,
003A009D,
00640002,
000400AE,
00DC001C,
00940091,
002000B5,
00E90020,
00070061,
00C30087,
00E00033,
006900E0,
004A00EA,
00A300C9,
00030047,
00290081,
004E003C,
00170044,
00190083,
000A001A,
003C00A3,
006100C9,
0090000D,
0045007B,
00800094,
005600B7,
00A50018,
00000083,
00EC004A,
00C50013,
004900B9,
00CD0007,
00100007,
003A0001,
00B600C5,
00C700A9,
004000DD,
0049004D,
00AA005B,
00930089,
0064000A,
00D90049,
003700B3,
002B00E8,
00420074,
00C100CB,
008B00D7,
00440073,
00CB0023,
00810006,
007000C0,
0034003A,
00680095,
00ED005B,
006A00A2,
005B0095,
0063006C,
00BA00B5,
00100050,
002900C9,
0004005E,
00B1006E,
0071004D,
001800C3,
00E60001,
00A300C0,
00E70000,
00610043,
00B8009A,
007D0039,
001E00D8,
00E60083,
007C0034,
004E00CE,
004800B9,
0002006D,
000700ED,
009A0083,
00970087,
001A0014,
00C40003,
00B20013,
004A0085,
002200E1,
00540085,
00C200EE,
00CC00E7,
005B0031,
003A00AA,
008600CA,
00BC0005,
00C50062,
00A20060,
00E200A5,
00790081,
008400E3,
0012002A,
006200BC,
00480045,
00BC0028,
003A00C3,
005300DB,
000D0044,
00010053,
00CE003D,
00A6005E,
009900D6,
00050034,
00140004,
0053009C,
009C0058,
00E40027,
007700D4,
00E20002,
00A60098,
009C00BD,
00550015,
004100A1,
008D0025,
008A0041,
00D100D1,
00620076,
005300D8,
001E00D8,
00C0003A,
00440096,
005000A1,
006100D3,
00490086,
00160083,
0094002A,
00690048,
00E500C5,
005000EE,
00C5003D,
007D0001,
002A007A,
00B80061,
00030075,
00CB00A8,
00E20025,
003C005D,
006000D8,
00CA000C,
00C300DC,
00C500D6,
008D004E,
00C40029,
00E90084,
00130089,
0059007A,
002E0040,
00210086,
004300DA,
002200A0,
00820018,
00D00097,
00B100A6,
00BC008D,
002400AA,
00170032,
001E008B,
00480079,
00230035,
00C3002D,
00910075,
00A700A7,
006D00E9,
000E004D,
001500ED,
003A0045,
008B00E2,
002C0001,
00130016,
001700AB,
006D0032,
006000EB,
0051009C,
0003008E,
005B00B5,
002E003A,
008C0000,
00D500B8,
004B00AC,
00AC0036,
003000CE,
000A0070,
00C80072,
001B00E2,
005B0044,
0080005A,
00030089,
002A006D,
00650012,
00280074,
00B100A7,
00600004,
0079008B,
00BB00AD,
00EC0026,
002100D8,
00690074,
00BB00C3,
00540040,
000600C1,
00710039,
009E00BB,
00260094,
00CB0002,
001200B1,
00EE0097,
006400C9,
00DA00C2,
0089009B,
00C900ED,
00A40057,
00320095,
00310058,
004100CA,
00B30073,
0053000A,
008D007A,
002C005C,
00E7000D,
002D001C,
00D50026,
0054004E,
006E0045,
001D0029,
003E001C,
009200E9,
00660021,
006A0041,
005A0089,
00D30008,
00E70048,
006B0084,
007A008E,
000100A8,
001A00DD,
00B40024,
005300B1,
001800DC,
006100D4,
00030033,
003C00B1,
007D0009,
000400E4,
00C7007A,
001B0097,
00020008,
008B00E0,
00C10022,
009B00EB,
004C003B,
007B0078,
000A0021,
00D60048,
00B90084,
00C5001D,
000200D7,
0056006E,
009500ED,
00810056,
004C0000,
00260083,
002500DB,
00A9007C,
00340038,
00DB00D2,
00BE008A,
004E00BB,
00ED0047,
00BB00CC,
00520081,
007500C5,
00D900E6,
0026006C,
007A006C,
008D002A,
008C0067,
00CD0015,
00B20010,
00260015,
00440060,
00A80022,
00DE0050,
0092007A,
00560063,
00000005,
003E00EC,
00CD00BB,
002B002A,
00B000D9,
00B20035,
007E0058,
008900A5,
002A00C1,
00BA00E3,
004E0011,
009B0069,
00DC003B,
00E00050,
00AC00A5,
00D7005C,
00D10014,
00C10002,
00D6000C,
00C4008E,
005200AE,
00E600A0,
00C50044,
00640019,
007C00B6,
006900CA,
00980056,
00E60089,
007D00BA,
00040091,
00520095,
00520008,
000C00C9,
00BE00B6,
009D00C3,
008D0096,
00CD0005,
00940047,
00C0000B,
0076005A,
00CB0000,
0077005A,
005C0091,
00D40092,
00150076,
00730024,
005500B2,
004800D4,
00B50048,
00880004,
00060026,
007700A1,
00720098,
00C10008,
00B40014,
007B005E,
009E0084,
008300DB,
000C0072,
00B0003E,
004000C5,
00D200E5,
002700A4,
00180097,
006000A3,
0069005B,
00880044,
00BB0075,
0072005D,
002000A3,
006C0095,
009700EC,
00880042,
00B5007D,
001D0068,
008300B2,
001D0016,
005500E1,
00E60006,
00D3008E,
004400C0,
009D009E,
00710034,
008E002B,
00980037,
00D800C2,
0070001A,
00190093,
003B00B4,
00B300EC,
00920062,
00210045,
0006000D,
009C002D,
00C100E4,
004200A3,
00C4007E,
007200A8,
0041005C,
0091008C,
000100E7,
004400D6,
0014000D,
008E00C5,
00C1004C,
000800E7,
0016005D,
0044001A,
00C20051,
00D70082,
004A0074,
00AB0070,
000A0048,
00490054,
0081006B,
001C0096,
000C0000,
00010013,
00470041,
0075005B,
008A00CB,
006800E5,
00DB0045,
00D80087,
00820055,
0017002E,
00E4006B,
0036004E,
00700098,
00600050,
00220072,
005D0077,
006600C8,
00CE00A6,
000D00C4,
00BD0097,
0092007B,
005D00D4,
00B80019,
00660076,
00370007,
00B30095,
002700DA,
006A005D,
00C9004D,
003B00AB,
00300074,
008300E3,
0015009B,
00EA00AE,
00610016,
00B30018,
00110091,
00730041,
001200E2,
002E00EA,
00760086,
0001003E,
00ED00AB,
00750042,
003A0051,
005D0087,
0054004D,
003900E4,
004700CA,
002100DE,
006C005A,
00D300E3,
004D0079,
004600A3,
00800062,
001D008A,
0060001C,
002A006A,
00860038,
007E007E,
00A200C9,
00090090,
00250041,
00DC004C,
00E90009,
002B004E,
009300A9,
001100A5,
00AD0018,
00A500B5,
001A0035,
003600A5,
004500E8,
00700024,
000C005D,
004000CE,
00160030,
0022000C,
003B002A,
0013000A,
00710043,
009B0020,
00C400C7,
0035002C,
007E0081,
00A800B0,
00D60042,
00C5000B,
004B00D9,
008A0034,
00A10066,
00740088,
008600D4,
00A500D4,
00D10050,
005B0041,
00E00079,
00770018,
001400C2,
00DD0095,
001D00A7,
000B0046,
002B002B,
002D0023,
00C40015,
0042009C,
00600072,
00D2005C,
002D00E9,
00AD0066,
009B0062,
009A0066,
00BC0018,
0012004E,
005300DC,
00DB00C3,
00CD0092,
001C00BD,
006C003E,
003E00D9,
006A0024,
004A00AC,
006B0037,
008200D7,
00CD004C,
009100B6,
00420029,
00130092,
00A80098,
008B00A2,
00E3008B,
00C4000A,
00D70008,
00E600BA,
00260057,
0019003A,
00190045,
0031006C,
0018005C,
008C00B7,
001600D0,
006E0059,
003A001B,
00C00056,
00350020,
002A009B,
00110014,
00E800CC,
004B00B9,
009B0027,
00880082,
003400CB,
007A00C6,
00E60052,
00990005,
00880066,
00560001,
006000B0,
004200C4,
00C9005C,
003800C1,
00170018,
001D005B,
001A0019,
00D30050,
008E0089,
001D00DC,
00470073,
008000AD,
00E500D8,
0011009C,
001E00B8,
007100DA,
002700A5,
00600025,
000E00D7,
00140031,
00C10081,
005000B9,
004A0037,
00AD0036,
00580081,
00A600A8,
00550088,
0001005B,
008600A9,
00C2001B,
00EC00D3,
00510089,
00AC00E5,
00BB004E,
00EA0069,
004D0042,
009200AE,
005700DB,
001D0018,
00DE0096,
00B200DE,
004100EC,
002E00A5,
001200C5,
0010008E,
003400B8,
001300B7,
00A80002,
00DE007B,
00970056,
00A800AB,
00C800B8,
006700E1,
00DE000C,
00A700DC,
001E001E,
00D80046,
00C900D5,
003700DC,
005B008C,
0077005E,
000A0089,
009B0055,
00D300B7,
009300D6,
00AD0082,
0088001E,
00E000BB,
00E300C3,
003D00DE,
006C0084,
003700EE,
00CC00BA,
00D900D3,
00730050,
000500AC,
001D00B3,
00BB00E4,
009B006E,
00B2005C,
00A30084,
002C006C,
005E0084,
006800DA,
00820074,
006E00BC,
00AE00B6,
002A0046,
00630031,
004B0035,
0005004C,
003400B9,
0086009A,
00D300D3,
007000A2,
00D1002C,
00EA0042,
00A50067,
0088009B,
00050090,
009800B3,
00E10056,
005E0024,
00A70082,
002B00BD,
00860044,
008B00B8,
009D002A,
00EE007D,
001E00B6,
00250031,
001E0064,
007700DE,
00280062,
00CB0099,
00330018,
0002000B,
00A500B0,
00BA00AB,
00D9007D,
00EC0053,
0090008B,
001D0093,
00850042,
00DC0021,
007A00A3,
009E002C,
004500D1,
006800BD,
00360000,
00B500E5,
00EE007C,
004A000D,
00D0003E,
00820015,
00930063,
008900AC,
0053008C,
004600C5,
004B0004,
00AC0055,
00A10085,
00960095,
00260067,
005A0023,
007200E4,
00CD0037,
00900099,
00770049,
002100D2,
009D003C,
00A4003D,
002B0090,
00920090,
00CD0023,
00AD00B9,
00D100DA,
00360024,
00D5001E,
00C400C3,
00040065,
001500E4,
001700AC,
0042000D,
003B007C,
00010050,
00070037,
0081007B,
00CE0055,
00160044,
005400A8,
002900E3,
00C4003E,
008100A7,
005A000C,
00380020,
001600DB,
003A0086,
005D00E1,
00330004,
00A800BC,
00D80057,
006E0010,
009D0014,
00D90091,
00E5009C,
00C8004A,
004A0053,
002B00B6,
006800A1,
00A9002D,
00240023,
002100A0,
00D0000C,
00D700A9,
00C90008,
00860015,
003C000E,
005B0086,
00B9003C,
00890057,
007100E0,
00C0006D,
005100A7,
00C800AA,
00190058,
00760095,
00820009,
0029005C,
006500D0,
00AC00E9,
007E00AB,
002600C4,
00E200A3,
004D0040,
00960006,
00B2003C,
00960087,
003A00B5,
0068007D,
00E40078,
00E900E8,
00910017,
004500E0,
00B300AB,
00A400C2,
000900E5,
00C5009C,
008B007E,
000400D5,
00A500EA,
00A60094,
003C00D8,
00BA0097,
00320082,
00C900DC,
00010035,
002E00CC,
00E3003B,
002B003C,
008100B3,
00480087,
001A00AC,
00820039,
007C00B5,
00770015,
001D00B1,
008E0059,
0041004D,
006500E7,
00E10092,
009E005B,
00920004,
001C008C,
002A0006,
00A600C6,
0063002C,
00E800B2,
0039009C,
00120042,
00830083,
00B30085,
00BA00BC,
00ED0084,
005A00AD,
00CE0002,
0057005E,
00200014,
000C0004,
009100BC,
00CD001A,
0078009B,
000700E8,
00EB00E0,
005D0091,
001E007B,
003B0046,
00ED004E,
00B7009A,
003C0046,
004A00DE,
000800A6,
00190094,
00DD00B1,
009400C0,
004B003B,
00670045,
00010041,
00330064,
004A0056,
00B00091,
008A0078,
003E00DA,
00940020,
000B009B,
0061002D,
003E0032,
008600EA,
0070007A,
009E009E,
006100CA,
005D00D7,
00D20044,
00E600AC,
005200B5,
00BA0003,
002D00BE,
00AB0011,
005000BB,
0000009B,
007500BE,
006000E1,
004D0063,
00CB0017,
00E10060,
00AE00CC,
00830058,
00A3007E,
00380035,
00050092,
002E0052,
00560082,
001D0064,
00E7007D,
004300BC,
0006006E,
007C0067,
004800C4,
00410082,
003D0035,
00A4003E,
006600C3,
001300D4,
0002008C,
007C0033,
004400A5,
00CE0068,
00CC00BA,
00560035,
006B0001,
008000AC,
007A0075,
001900C8,
002600EC,
00C70048,
0075008A,
0048005B,
00E50062,
004E00A0,
00140062,
00DC0094,
004A0054,
005000E6,
00C800D2,
00540079,
005800D7,
0025000C,
00E30048,
00D90017,
008A0068,
00A500D3,
004D008E,
00C30063,
00B100AE,
00D9009D,
00110047,
00B500D9,
0014004B,
00480072,
00DD0083,
00E20024,
00D90022,
00760024,
007C00CE,
00E80092,
0055007B,
002B0070,
001D0089,
002200D0,
00330003,
00D20001,
002A0094,
001400C9,
005D00D3,
004700BA,
009600BE,
00690090,
008E003C,
007900BA,
00A30012,
000600AE,
00D10011,
00EB00D5,
00D20006,
008B0017,
00A50066,
000100D1,
00D20058,
00530024,
004A00DA,
00160079,
00D40087,
00880041,
00DA00E3,
004300DD,
00E50012,
00EE0015,
00680016,
00D8001B,
009A00B3,
00570030,
00A800DE,
00210033,
006800DA,
000000E4,
0020004E,
002E00A8,
00A9002C,
00BA006C,
004300EB,
00130062,
003400B1,
00460048,
005D0044,
00730058,
003500AD,
00400016,
0006001B,
00370060,
001400C5,
008E002C,
0087005B,
00900097,
008300B1,
00B700B6,
00AA0073,
00C600DC,
00CC0059,
00CA00AC,
00D50061,
009C0097,
00C6004E,
001500BD,
00C4004E,
006900E7,
00ED00B7,
002100EA,
006000C0,
00690083,
00E200BB,
001100CC,
000E001C,
006D0031,
000800D2,
007900E2,
0096006B,
008A0003,
00320039,
00CB00A4,
008D00D0,
004400E0,
008600CB,
002D0091,
00D00019,
003C0010,
00CA009D,
006700CB,
003800D7,
0074001D,
0072005E,
005A00E8,
00C00015,
009C00D0,
0001009B,
009200E1,
006B0039,
0012005C,
00830017,
00150043,
00240074,
00EE007E,
007400C0,
007D0088,
00C10071,
005D000B,
00D9004D,
00250022,
00A300E6,
00090044,
00810073,
0028008A,
00660078,
00EC0093,
00B20017,
00090003,
00C300CB,
002C0093,
008900C7,
00E50025,
00100003,
00B00051,
00AB007C,
000A0094,
00EE0059,
00D10053,
007C0062,
003100EE,
00B9007A,
002000DE,
00150058,
00A80013,
00B70044,
00C40000,
00B90026,
009D003A,
00BA00E1,
00320071,
00BC00D5,
00ED00EE,
00A800B2,
00E30099,
00800067,
000700B5,
000E00DE,
007B00BA,
00D2001E,
0031000B,
00C50047,
00440047,
00EE003E,
00C70062,
00B900D3,
00760010,
00BC009B,
00D000B2,
00E90017,
00C100E1,
00980018,
00BC00BB,
00460047,
00530086,
003700BE,
0023002E,
00A2002B,
00A70057,
009C004A,
00E00055,
006300CC,
00750086,
00A40039,
006100C3,
008C0048,
00C20048,
0014007D,
00EE0033,
0018005E,
002900BC,
00D8001E,
00C600CC,
00990093,
0044004B,
00950030,
008700B3,
001100A9,
00CD0013,
00260014,
007B00C7,
008200AA,
000C0089,
00C600A3,
00C800B0,
00CE00A3,
00CC00EC,
00500007,
00A500E0,
0061006D,
005B0075,
00B000A4,
0001005B,
0063009D,
005C001B,
00280040,
00E5003A,
006B0037,
004C0047,
00A60082,
007E0012,
00BC0026,
00AC007C,
002A00C6,
008800CC,
002100AE,
005700E7,
00C90016,
00C20034,
006500B4,
00D6001D,
00A50080,
0085009C,
00AD0030,
009B000E,
00210011,
00400034,
00120085,
000A0013,
009800AA,
00E40023,
001000C3,
00DA0091,
004E0049,
00D6001B,
00C500BA,
00DA006A,
007700AC,
00740024,
00E70075,
0007001C,
00120001,
001A0086,
0045006B,
00CB0055,
00090015,
00A70041,
00C30074,
00070033,
00000018,
00C300DA,
00E40027,
00780029,
00E300EA,
006800CE,
000A0031,
00890088,
008B00A2,
001B0037,
00A700D9,
002200E2,
00EE004B,
004800E6,
00AE008C,
00B500CE,
003700A2,
00780092,
00520021,
0048001C,
00C10038,
0019009D,
009A0093,
006000E9,
003C00E2,
002C00E7,
00940086,
00040027,
0050004B,
00E600A9,
005500BE,
00B5004A,
00B500B1,
009D0069,
00530073,
003000E3,
007300BE,
008900A9,
0050000C,
008000DB,
00CA00D1,
00A80094,
001C0028,
00B5005C,
004A0088,
0065004D,
00020064,
00500077,
0032000B,
00AD0077,
000300DD,
00390083,
00BD005A,
00D00046,
001900E1,
00850075,
006C00C5,
00C800CE,
009100DE,
002A0077,
00EE00E6,
006A009D,
00280089,
009A0067,
00E20061,
00150054,
00BE0001,
009E0054,
002D009C,
00EC00EB,
009D007B,
00160084,
000D0029,
00230080,
00A200CC,
00DE00D5,
00CC0055,
0041002E,
002C00B3,
005000AA,
00CE0023,
006000B2,
004000A1,
008300C5,
00EC003D,
0014007C,
00360091,
00500046,
00010096,
004A0085,
008A0050,
001700D9,
003500AE,
007600E0,
00CE005C,
007200C9,
005600B2,
00930057,
00A10094,
006D00DC,
00160092,
00D900DE,
003E00C2,
004400BB,
00C4005D,
009B00E1,
00D50011,
00380031,
00520074,
00130011,
005C00B1,
000C00A0,
00A40064,
003E007E,
009B001E,
00480038,
00A800B1,
00EA00B3,
00B900CD,
00E300A5,
0009004B,
00B7007C,
00EB0020,
005E0030,
00300001,
00130020,
00B9000B,
001B0051,
00DC0083,
00C100CB,
00D500C0,
00770050,
003A00B7,
001600BD,
00030030,
00140028,
00A4009E,
00A6000C,
008500BD,
002D002C,
00150078,
00C1003E,
00EA00B5,
00B50061,
002500B0,
005E00C1,
00B50036,
00870047,
002200C7,
007600EB,
00C800DA,
00C700C1,
00270074,
00010088,
007C0014,
0020001B,
00C5002A,
008600B5,
0028003D,
00540032,
00310075,
004E001C,
00ED00B2,
004800C8,
00030034,
00C10001,
00D300D9,
0060005A,
000B0085,
006B009D,
00BE009D,
00C900C8,
00720025,
00A20019,
0015002E,
00DB003B,
00120045,
00DD0075,
0043004C,
00E900C4,
00E00049,
00630042,
004A00CD,
00CE00B5,
00D30023,
00EA00B7,
0010000C,
006000AB,
0078007E,
00340058,
00EB0036,
00610021,
00780062,
00440082,
00B800A9,
00DA00A0,
00CD00B6,
003C0084,
00AD007B,
004B00D8,
00610082,
00A70045,
00380021,
00080013,
0013000A,
001B0095,
0004009E,
006C0041,
00A600C2,
002A0022,
00330045,
006200C0,
004C00E6,
007C00BC,
00440087,
004D0041,
0012008A,
00B00090,
004300BB,
00DD003B,
009D00B2,
005B008A,
00BC002B,
00320023,
00010009,
006E002C,
008D00BB,
00AC0040,
0026000D,
0096007D,
00A1007D,
00570091,
00430032,
002900A4,
004A0000,
00380079,
00680063,
00E9003E,
00D20091,
00AC00A0,
00C5005A,
00690020,
0001005B,
008B00B3,
0048000D,
00B200DE,
00910093,
0009005C,
00BC00A4,
002A0051,
00A50028,
00250087,
0083002A,
00ED008B,
005B0098,
00A30031,
001C0050,
00D6000E,
002300D1,
00690062,
00D6007E,
00700032,
00270051,
003C0075,
00E8007D,
00D600EE,
001A0038,
00DB00CC,
00D20025,
00BC0025,
00D600B9,
006900AA,
0088004D,
007200B2,
00230063,
008A006A,
0095004E,
001200B7,
009B0075,
005B0018,
00C4002C,
00560010,
0008008D,
00650060,
00700098,
00C40046,
001D003D,
00140069,
002300E2,
00000077,
000E00C4,
009100BC,
00250068,
001A00D5,
00A500B6,
00B800E7,
00BA009E,
00050002,
0085001B,
00DD0017,
00A1003D,
009800A3,
00D7009A,
00360094,
005B0042,
00820080,
001100A7,
009E00AB,
0035005D,
0062005A,
009E0078,
002B004D,
00C00046,
00C8001E,
004600C8,
002C00C6,
004E005D,
00470093,
000D001B,
0056008D,
002A0087,
00D600E2,
0010006D,
00500006,
008A0058,
0032001B,
005D0045,
0041006B,
000700C8,
00100078,
00D00056,
00560080,
005300A2,
007C0005,
00670049,
008D00E6,
007300C6,
00E70043,
0007002A,
001B00A6,
00510001,
00E70085,
00E00091,
00080015,
00A8000A,
0079006E,
0082009E,
00D30023,
00C300C2,
006B002B,
00A20026,
005A0064,
00BB00DA,
00C700E3,
00CE0036,
003A00AB,
000600D1,
00410063,
002C00E8,
0022005B,
00B20024,
00560075,
00170062,
00570045,
009E0038,
00E10043,
00B3000B,
00850019,
00AA0011,
00BC008B,
002500B1,
006D0093,
0073007A,
0049004A,
00E6004E,
0091005D,
00B700D4,
00E3009D,
00EE0090,
00920061,
008100E2,
00D60000,
00990011,
004400D7,
004600BE,
00D40012,
00030045,
00680050,
00C50005,
00AA0043,
009E00DC,
00230053,
00300026,
0093006D,
00C60070,
00E90090,
006E00D9,
004A0009,
005A0023,
00640090,
00A9001E,
00A90098,
002A001E,
00E400CE,
00CA00A0,
00EA00E1,
00A60032,
00590009,
00B70068,
00D80046,
002D0005,
00580027,
00CB0024,
0013000E,
002D00D8,
000C00DB,
00870016,
000000D5,
00750082,
003800B3,
00D20021,
00C50031,
00050053,
00B600A0,
004E009A,
007E0056,
002B0085,
00E3003A,
007C0070,
00140039,
009500D9,
003A001C,
0084008D,
00C1009E,
00910067,
00D90002,
0015008B,
002000E1,
00150022,
00EA0054,
008B003E,
003E0007,
00D90011,
003A004B,
00120067,
00270075,
002B000C,
00420032,
00710007,
00C400A4,
00D40052,
00EA00A4,
00770028,
004E0059,
00C300C1,
001500C7,
00AA0011,
00E2000D,
002B0008,
00AA00E4,
002200A4,
008500C5,
0084003C,
0042001C,
004A005C,
0071001B,
0079007E,
00B300B6,
00850082,
00B000BA,
00C00031,
005A0011,
001000CD,
00E40002,
00000019,
007900C3,
00C2000B,
00BB00E6,
00AD00C6,
00A90058,
000B00D5,
00EC00DC,
00D3004C,
00430035,
00C700C6,
00810081,
007600C7,
00C4008E,
005600BE,
00EA00E9,
000800BE,
004B00B5,
00C80053,
00A400E3,
005300A4,
005600B8,
00860064,
00380055,
00E90061,
009100AB,
00CC0045,
008A007B,
00600030,
005300A1,
002000C9,
000D0027,
00D10013,
00C900C9,
00B500E6,
00180002,
00CA0029,
00130041,
008000D0,
00000090,
00E500DB,
003E00E2,
00C10085,
00D50072,
00B90032,
00050030,
00160050,
00600093,
009B008B,
00A80044,
00210093,
00580025,
009B0096,
0077006A,
00D4007E,
008B0081,
00E400AB,
00100052,
00870075,
0085005A,
00250059,
0007000C,
00A900E2,
001E001B,
003000C9,
00420082,
00B300CA,
002300DC,
000A001E,
000100A6,
006E0037,
005200DB,
000900B8,
00EE00E1,
007700E8,
007E0089,
0078006C,
00AA000B,
00DB0053,
003B0058,
002700CE,
008200C7,
00A0003A,
009C008A,
00760049,
00D40063,
00550042,
00A20084,
0088008A,
00A30005,
00A3006D,
003000BD,
00AD003B,
00EE0003,
003D006B,
00580016,
002300BC,
005600C6,
0071009E,
00940043,
00780051,
001D00DB,
00B800AC,
008900BE,
009200BD,
007C001E,
00EC0014,
00C500E7,
007700DA,
008B009E,
00E80071,
004D00A7,
00400044,
0060007C,
00BB003B,
0040000A,
0005005A,
00740090,
00720067,
00150056,
0080003C,
004C0017,
0059001C,
00EB0067,
00C8009E,
007B004E,
006B0033,
003900C2,
00790077,
0000006D,
00C700DE,
0096000B,
0040000A,
00EA006A,
00640046,
00E2002B,
0039003B,
00750067,
00C10065,
0006002D,
00A10050,
00A800B6,
00460065,
003D0085,
00880084,
009A0057,
001C0044,
00280008,
008C002E,
00960024,
00C2003D,
00550082,
00A500A8,
001D005A,
00050073,
00E20029,
006A00CA,
00C9007A,
00E50023,
00D3003C,
00A50016,
00C4009D,
006D00E4,
00740040,
007E005C,
001A007D,
009800D8,
006A007B,
004D00CE,
00DC00E5,
000000A5,
00720018,
009B008B,
006A0003,
0067009B,
007B0093,
00E200EE,
00740051,
0034001E,
00C6004C,
0058006E,
005000D0,
00A0000D,
005D0003,
00A1000B,
00DA00A0,
00A20070,
0018002C,
00A30087,
00A50055,
007A000E,
00AA008A,
0065003C,
0080007A,
007500A1,
00E900E6,
00B600ED,
00EB0027,
00470075,
006D001A,
0098002A,
00D0005E,
00B200A7,
00DA0080,
00670013,
007D0074,
00270097,
00430046,
00820096,
002C006B,
00B900C3,
00300013,
00220058,
00280083,
00CC0007,
00BE0016,
00880094,
006900D5,
00A80060,
007B0039,
000400DC,
003B00E9,
00D50003,
0088009E,
006E0000,
004A0058,
006C0088,
00540053,
004C00DA,
003000AB,
000D009D,
00E100CB,
00BC0001,
00C20084,
00C40076,
000D0055,
00EA0065,
0076006C,
00950098,
00750003,
00910065,
008500CC,
00D1002A,
00C500DA,
00B4006C,
00D8008E,
005E00D9,
008C0098,
00590037,
000400ED,
000C00C7,
001D0095,
00B400A4,
00AA0060,
00EE00BA,
000E00AC,
00C20057,
00970092,
009200A5,
007C0031,
00CA00D9,
00B400DD,
00440074,
00320062,
00ED0064,
00C60014,
00550022,
00B60057,
00990041,
00A800CE,
00B1004C,
00550002,
00B100CA,
00BC0001,
00AA0074,
00A70043,
00050080,
007E0099,
001A00DE,
00DD00E1,
0097003B,
00CA0025,
00860015,
009700EB,
002C00AD,
006400E6,
00380081,
0058000D,
00200084,
00E300BA,
004C0010,
0032001D,
00020090,
00710032,
00E500AD,
008500AC,
003400A7,
00400091,
00A2000C,
002D00C5,
000B0049,
008C0052,
005700EE,
009600EA,
007D004A,
000600CB,
00DA00BB,
005A005D,
000B00CE,
0099006B,
00BB0082,
00A4008C,
00670018,
008500DD,
006D0031,
00220071,
00A2004D,
000B00C3,
00E90086,
00470061,
006200A7,
009800E9,
005D00B7,
001C0029,
005000D8,
001200AC,
00BB00BE,
00ED000E,
00AA008A,
00A5004B,
00170063,
0065005C,
00DA00B7,
003A003B,
00E20098,
00B00093,
0036005B,
006900DE,
00040097,
00BA002C,
004B006A,
00800000,
00180022,
00CE0052,
00A30042,
00CD0013,
00AB0070,
00100056,
009D0081,
00AE001E,
00DA0033,
0009008C,
00750071,
00290089,
001B00CC,
0081003E,
008300B9,
00CE00E7,
007C00AA,
000300DD,
00A00063,
00550055,
007B00EC,
008700D5,
000200A5,
00670079,
00A40028,
008A00E2,
003800CD,
002B0074,
001100A9,
007300B0,
00180072,
0055000E,
003D0077,
00CA0093,
00400065,
00E30066,
004D00B8,
00940078,
00B6006C,
00D30008,
00A90019,
00A0003C,
008500CB,
003100EC,
003900E8,
001C009D,
00760081,
00C6004C,
00680004,
00E3003E,
004300E5,
00DA004C,
001100B7,
00B90019,
009400C2,
001D0013,
00860029,
00E50071,
00D300AB,
00D4005B,
00B50020,
005000B0,
00360066,
00E2006D,
004A0019,
005E0018,
00430025,
008A006B,
004B006B,
000700D5,
00100067,
00D40081,
002D00E4,
00D400BE,
00E0009D,
00BD00D2,
00820088,
00B3005A,
00B300A6,
00A1002B,
002A0090,
00690097,
001E0092,
002B00B0,
004C0073,
00DE00D4,
00DA00DA,
006600AC,
0075003E,
00CA009C,
00C700A4,
00CB0089,
00660025,
006B00BC,
00490083,
001A0003,
00BC005D,
00D10002,
001A00DD,
002700AD,
00050026,
007B0077,
00320080,
009200E7,
000300D5,
00C50021,
00ED00E8,
002800DD,
00840051,
005C00D6,
0091006C,
0060000C,
005E0093,
00B200D9,
009200D4,
007A007E,
00070004,
002700AD,
005600EB,
004300D4,
002D005D,
0046005B,
00C700CB,
001A00C9,
00B2006E,
007B0011,
00B20040,
00DA001C,
00140098,
00A800C6,
003C002A,
009B00D7,
003500D5,
00B20063,
00370069,
00450077,
003A00C4,
00B2005A,
009B00AD,
004A0062,
00B90042,
000D0032,
0030004E,
001400CA,
00D70089,
00AC007C,
00570002,
001A0082,
00E0006A,
00AA0016,
00C80089,
00A70037,
00980017,
005A00E7,
007E008B,
002A0020,
00870026,
00C80058,
00B60007,
00D00055,
00740023,
00880083,
009100AE,
004E0022,
0092000D,
003C00B8,
00A80032,
00210096,
00E300CB,
003A003C,
00B900E5,
0039000D,
00680005,
003B0006,
000B009B,
000400BE,
00ED007B,
00A00081,
00DD0015,
001C00C9,
00A50025,
007B0051,
00950053,
00D1000B,
00CA0007,
005A0059,
00E20035,
00140098,
009100AD,
00920066,
001C008C,
001600A7,
007C00CB,
0096004C,
003C0013,
004200B5,
00B400E0,
008D00A2,
00B60037,
005B0090,
00DD0053,
00CB0016,
001E0009,
001A00AE,
0018008D,
006600C5,
00DB004C,
007E000D,
00CC008D,
00ED007A,
0072008C,
002E00BC,
008400E3,
00D800B6,
005100A7,
0047002C,
00D90068,
00690001,
00B200B4,
008D005E,
00D20081,
009D0095,
00480002,
000B0016,
00D40012,
00AD008C,
0059004D,
00D400A7,
00BC00E3,
005800C4,
0019008D,
00E2000A,
007A00B1,
0058001B,
008B0040,
000800BC,
004C00E5,
00090074,
006100D9,
00A9006E,
0039004C,
00CB00B4,
0011004E,
00100044,
001B002E,
004A00DA,
004D00BE,
0012002A,
00580008,
00B700B0,
005B0038,
000C000D,
007200E9,
006300B2,
005600D4,
007100BB,
007A005A,
00900022,
00890078,
0027000A,
007E0022,
00AA00CA,
00DE0006,
001700B9,
008A0055,
007B00AA,
007C00A4,
002C0086,
000E0011,
00B600BE,
00B50065,
009600D2,
00A000A1,
003A0046,
00530071,
00260093,
00280055,
00E90027,
00A7008D,
00170016,
007A0029,
002D0046,
00450039,
00C9003D,
0092008D,
00AE00BC,
00D00017,
00A60020,
00850021,
009000B2,
005A0053,
00DC0054,
00890088,
00C600B2,
001E00A0,
00630059,
005B0019,
007E0038,
006C00D5,
008400AA,
003D0066,
003400C0,
00EC0075,
00BD006B,
000D00B0,
002C0072,
00EE0050,
005D0014,
00A800DE,
00B20071,
007A00DC,
0060003D,
00190006,
00C70007,
00620091,
0089002E,
0062009A,
00A800AC,
00CC0066,
004600AD,
00C100A3,
00EB004B,
001D002E,
00720005,
00680043,
00960041,
00A000E2,
0062003C,
001B0097,
00010065,
006200B0,
002E00A3,
0057005A,
00040006,
00BE0030,
0026007D,
004A00BA,
002D0051,
00B90066,
00790010,
00340090,
001C0063,
00B30000,
0019003C,
00A6004B,
00C90055,
00650040,
00740022,
005B0063,
00CA00D6,
00920000,
003D0004,
00B40069,
00AC009A,
00010032,
00B30063,
00340079,
0000001D,
00550038,
00110034,
009A0090,
00330079,
00E5009C,
004D004E,
00650038,
00D000AC,
0096006E,
006200CD,
007D0034,
00550010,
00BD007E,
00710043,
00410018,
00A30003,
009B000C,
00170079,
00250020,
00C900B0,
00EA004C,
008E0000,
006D00A1,
006B0007,
00A50007,
004500B7,
001400B4,
00500008,
007200D3,
00180036,
00C30093,
00510074,
000C0039,
00C8007D,
00650050,
009B0042,
00D90026,
00710028,
008C00A7,
009B00B7,
004A00D8,
00A70053,
006C0070,
00AE00EC,
00230074,
00E500C1,
0049002A,
00B6000E,
00BB00E1,
007B0032,
003D0068,
0023009A,
000A00DA,
00860007,
00D400C9,
00B80078,
00800068,
00E7001B,
004300A5,
00B9008A,
00E20089,
009C0006,
002E005E,
001B0045,
009C0042,
0045002E,
00030084,
00D50074,
004500A0,
00C30034,
00D80048,
00A3000D,
003900E6,
003A007A,
000A00E3,
004200C7,
00D200B4,
008B0010,
00000081,
002A0060,
003900AA,
00A50040,
005A00DA,
00EE00A5,
00D10095,
0075000A,
0079001E,
007A0066,
00DA008B,
00340062,
00BA0051,
006E009A,
0038007D,
00750052,
00290006,
007800C1,
00EB0095,
00630032,
00EE0085,
008300C5,
009A00CE,
00450049,
008C001C,
00DA0096,
00350088,
0045002B,
0000006A,
003000C0,
003B005A,
003000BC,
006A00D7,
0091004C,
001000E1,
001C002C,
00D100D7,
004100A2,
0004003B,
00E5000A,
00D60074,
00370002,
00ED009D,
00BE006A,
002A0055,
00A00049,
001C0059,
00B80048,
004D00DB,
00E30049,
0025007B,
0024004B,
004D007C,
00E5002A,
0038001A,
00D800DD,
003500D3,
00DC009D,
00DD00D4,
00B8008A,
0032004B,
00610086,
0094003B,
00C7005C,
005C000B,
00ED000B,
00AB0075,
00E000AB,
00B0009B,
0094003D,
001A0049,
009400C6,
00060031,
007B0007,
00C000CA,
00050085,
008A0039,
00080046,
004700CC,
00940001,
0014004A,
002A00E0,
00C1007C,
00E0004D,
00B500B2,
00D30045,
0003004A,
006E0070,
00290098,
0084001C,
0085000A,
00D7006A,
00840001,
00BE00E7,
00E60093,
001C0072,
005700A8,
0017004E,
00B000A0,
00EA0034,
00080009,
00150088,
00A400EA,
00510070,
00D00036,
00760041,
0023007E,
00E500B6,
00550046,
004A00AB,
003C00A9,
00520013,
0091001D,
007C00E3,
005D009D,
00E9008E,
00CB0010,
002B00D3,
00A40004,
00D50020,
00C40092,
004B0002,
0070007B,
000500E1,
009200AD,
00A800E0,
006200E8,
00CD008C,
001B008B,
00DE0061,
00950094,
00D70079,
00CE00BC,
006600A6,
002100A0,
001800CD,
00C400DB,
008E00B7,
00480022,
00C00026,
0064009C,
001D0071,
001100D7,
007D00C8,
003C0083,
00E40008,
008D0018,
000400C7,
002B006A,
0056007B,
00BE0001,
00C30064,
008000E0,
0033005A,
002E007C,
008A009C,
000800D0,
007A0087,
00A4003C,
007000AB,
00C20084,
00DE00EE,
00BC006A,
00690061,
00E000EA,
005E0024,
002C00A3,
00EA008E,
00420013,
003C005C,
00BD00BC,
00160028,
00ED0056,
0063004B,
007A00C6,
005C0020,
004600D1,
003A0068,
0008007E,
001E0011,
000B0045,
005600A4,
006000CC,
00A1002B,
000E0001,
00D4007A,
007C008D,
0041001D,
001B00E4,
00740056,
009300DD,
00C2007A,
0065007C,
00D60096,
008C0032,
002D0088,
00E30027,
0086006C,
00DB007D,
006700D7,
00BB0024,
00E700C3,
002E0035,
00330013,
00CD00A3,
0044002D,
00C300E0,
00AA00C4,
00C10048,
003B0081,
0094002E,
00100013,
00540001,
00C1008A,
00AA00A3,
00790040,
009D00C2,
0037005A,
0083002E,
005B0095,
00830012,
009700E0,
00640092,
00BA00EE,
00920036,
0039009B,
00DC0054,
0079007C,
002600DD,
00A5001E,
000B00BC,
00E200D4,
00AE00E6,
00A400B2,
00DA0047,
00D2000A,
006800C1,
00E8006B,
00220073,
009200A3,
002E00EB,
00B900A7,
00EB0013,
00DC0056,
00D00038,
000C0080,
00DB00A9,
00A0002A,
00820083,
00C500E8,
00AB0055,
00C0004C,
00DC0058,
00120013,
00AE0014,
00A8008B,
00620048,
00190093,
00C4001E,
00D800B4,
0023007D,
001300B6,
00D400E7,
00CA0095,
001E0090,
00350057,
00890033,
005200AE,
008B0093,
007B008E,
008000BC,
006900B1,
004C00A6,
009000DA,
00180013,
0084007D,
00CC00DC,
008B003B,
006A0093,
00CA00C2,
00810005,
0062001D,
007B00BE,
00E8000D,
003B0084,
0073000D,
00A300DB,
009A00C2,
00990087,
009000DA,
00CD001B,
00890052,
00A60047,
0084009A,
003B008A,
00140060,
003E00EC,
007A0081,
008B0095,
00500093,
000D0078,
002900A3,
000500B7,
004300B7,
00CA002A,
00E000D8,
00B700B0,
00DC0014,
00D0000A,
002B006C,
00CE0003,
005C0069,
004A0019,
0088007D,
00830032,
00630098,
001E00C9,
0018005B,
008D00E5,
009A008D,
008C0010,
006E00D9,
00D4006E,
00580079,
00220073,
009B004D,
0065000A,
00040033,
003A00C1,
005000E4,
000600D0,
00300096,
008A00E9,
008B007B,
000C00E7,
00C100C6,
00220074,
00C000E1,
009D00BE,
001B003D,
00B7004D,
00830086,
00850056,
0047001C,
00DB0048,
007E0011,
00A000A3,
006B0014,
00ED002E,
005600C7,
007E008A,
00C2002D,
00440062,
008C0099,
007700B6,
008400D6,
00B8003E,
00D00033,
006A0044,
00BB007E,
00150067,
0020003A,
008000A6,
0041002B,
00500039,
004E003E,
00950078,
00BA004E,
00B000E5,
00730026,
001600D8,
00DC00EC,
00DD00D4,
00810053,
00EC0033,
00BA00C8,
002700D0,
00BE0003,
00B60053,
00A1003E,
00880064,
00720045,
00DE001D,
00D2009E,
0078006E,
00B90081,
00E700D0,
00E700E7,
00A90034,
00780063,
00710048,
00B60009,
00DE003D,
006A00E8,
003300CA,
008800DE,
00260048,
009C00E0,
00200085,
002500B8,
009B005A,
001900CD,
001D006C,
00DE0072,
00A60088,
0095000A,
00D8006A,
00930019,
00B900B9,
005A0022,
008B00D2,
0068004B,
009700BD,
0091004C,
008100C9,
0005000C,
0086006B,
00EA005E,
005D003B,
0053000E,
00E10026,
002100A2,
007C003C,
00CC00E5,
007B0097,
00140040,
0089004C,
000500DB,
008C00D8,
003500D4,
00320044,
00A200DC,
005900A8,
00E3009D,
00A40039,
00E3000A,
006300E1,
00A7004E,
00E50017,
00C0004B,
001600B0,
00AE00E1,
00D40046,
0028003E,
001900E7,
00380017,
001A005B,
0033000C,
007300A7,
005A006C,
009200B8,
004D00A6,
003200DD,
00C70022,
001800E8,
00CB004E,
008700EC,
00010020,
00CE00B7,
00050016,
00420014,
005B0070,
00AC0055,
001500CE,
007D0056,
00070065,
001D005A,
00710021,
00200009,
0040009C,
00D4001C,
0066006C,
00E70030,
0072006A,
00220069,
007300DA,
00490019,
001D00C8,
00E30013,
0063001C,
00AE009C,
004C00EC,
009E00A4,
00BB00A8,
000B00CE,
00680032,
00A100A3,
007900E9,
000E002E,
00E500C6,
00EC0015,
00310089,
00860000,
002500E1,
009A001B,
005200C3,
002B0083,
002B00EE,
004A002B,
00B700A1,
00270098,
006D00A9,
001D0045,
00DE0058,
00860067,
008500AE,
00B400D6,
000A002C,
001800E1,
00280048,
00D90033,
000B0089,
00940091,
00A500AC,
00890045,
009500B1,
00900041,
00D200BB,
00AC0087,
00E20018,
00D000BA,
00D5004C,
009800CE,
008B0040,
001300C3,
005900E2,
004200D4,
005200B2,
0002006C,
004D00E7,
00CC0051,
000000E1,
003E00DE,
00780087,
002D0043,
00EA0043,
008B007B,
00E200D1,
00940064,
00E500A5,
00560080,
000300C4,
005400D3,
00B400C6,
00350066,
00DA00BC,
00280045,
004C00C4,
005B0018,
00E10041,
009000BB,
003C0086,
00210057,
001A0064,
002C0079,
00E00084,
00030051,
00E500CD,
00490057,
00180057,
007B0052,
00210097,
0017005D,
003200EA,
00A0006B,
000D00AC,
0094001E,
005B0025,
000B0053,
004E00AD,
00B80083,
00690011,
006D00AA,
00D000C6,
00300045,
001200AB,
004E006C,
000E0085,
00DC0019,
00130029,
004E0024,
00E90073,
00C500E3,
008300DE,
00AE0091,
007000C3,
00A40060,
0048001B,
006100CA,
00B500A5,
000100B4,
00AD00D5,
008700A9,
001200AC,
00E9006C,
00CB0075,
002D00BB,
00680059,
00AB001B,
002900A4,
002B0089,
00C800E7,
00E70048,
00C60082,
002C0088,
000A0029,
0042004D,
00B7006D,
005A00CA,
00C2008E,
0027004E,
003B001E,
001C00A5,
003C00C9,
00AB00E2,
00AC00D2,
002C0049,
001E00EC,
00D900C1,
008200E1,
00300069,
00B800DE,
00A40082,
007C00EA,
000800C6,
00A40039,
001400CC,
00B60051,
00B800A2,
00990010,
006600AE,
00C20054,
008D0076,
001200A4,
00E50032,
00B30018,
003200B7,
002500A8,
00C600B0,
00AE0087,
00A30088,
00060065,
00180033,
00330053,
001E0045,
001400A6,
00D20053,
005C00B7,
006C0006,
00CB005B,
00DE0001,
004B0083,
00460037,
00DE00B2,
00650047,
00BC00E3,
00610002,
007C00C3,
0071001E,
00CB002E,
00370043,
009800E7,
00BA0080,
00DD00E6,
009000D7,
009C00BD,
00EC0043,
00640068,
004100E9,
00D600EE,
00C800B9,
009D00D8,
0011000A,
00BC0000,
00D000D2,
008D00AC,
00220008,
004100A1,
00E00083,
00BD0095,
00AC0068,
000200BE,
003000EC,
00C00069,
007C0089,
003A0057,
005000A0,
008200B1,
00BB0034,
004D0063,
00A90070,
00900099,
0065006B,
005B00DB,
00BD0064,
006E00BD,
006D000C,
00310069,
00990005,
0077006C,
00890015,
007900DC,
00640069,
004400A3,
00A40068,
00E00032,
004C0042,
001E0079,
00D600D6,
00E9007E,
00A00026,
009C00E9,
002300E5,
004D008D,
0049003C,
004D0022,
005A0086,
00D90053,
005E0094,
00910044,
0024005A,
001C007E,
007800B8,
00B20046,
00ED0083,
00C6005C,
00650083,
00450070,
00EE006B,
00430058,
00850090,
0070005B,
009500D5,
003B009B,
007900E0,
0075007C,
001B0085,
0079001A,
009E0045,
00300054,
003A002B,
00310089,
00A00090,
009A0044,
0020005E,
00070025,
00960069,
000800BA,
0091007C,
005200AE,
002900EA,
00D6005E,
00E00067,
0005000D,
00B20087,
00C80086,
004900A4,
00DC00C6,
00370092,
008D00B0,
00720049,
001700A1,
00110012,
00BA006B,
00570097,
004A003B,
009A00DB,
00CB00CD,
00DB00EE,
00790001,
007C00CD,
00DB001C,
003C0085,
009900D4,
00AB0098,
000700BC,
00150047,
00BA005E,
00320058,
003700E0,
00270022,
00AE00D0,
002C0035,
006D00A5,
00880012,
003100AC,
00B0007C,
0016008C,
007400EA,
00000071,
00AD0092,
00E200B6,
00CB00AE,
0003006C,
002D003A,
002D0023,
005400D6,
00